{"[PAD]": 0, "[CLS]": 1, "[SEP]": 2, "[UNK]": 3, "[MASK]": 4, "2AA": 5, "C18": 6, "CID": 7, "ESI": 8, "HCD": 9, "HILIC": 10, "MALDI": 11, "MGC": 12, "MSD": 13, "N": 14, "O": 15, "PA": 16, "PGC": 17, "Rapifluor": 18, "TOF": 19, "amazon": 20, "free": 21, "linear": 22, "lipids": 23, "mz0": 24, "mz1": 25, "mz10": 26, "mz100": 27, "mz1000": 28, "mz1001": 29, "mz1002": 30, "mz1003": 31, "mz1004": 32, "mz1005": 33, "mz1006": 34, "mz1007": 35, "mz1008": 36, "mz1009": 37, "mz101": 38, "mz1010": 39, "mz1011": 40, "mz1012": 41, "mz1013": 42, "mz1014": 43, "mz1015": 44, "mz1016": 45, "mz1017": 46, "mz1018": 47, "mz1019": 48, "mz102": 49, "mz1020": 50, "mz1021": 51, "mz1022": 52, "mz1023": 53, "mz1024": 54, "mz1025": 55, "mz1026": 56, "mz1027": 57, "mz1028": 58, "mz1029": 59, "mz103": 60, "mz1030": 61, "mz1031": 62, "mz1032": 63, "mz1033": 64, "mz1034": 65, "mz1035": 66, "mz1036": 67, "mz1037": 68, "mz1038": 69, "mz1039": 70, "mz104": 71, "mz1040": 72, "mz1041": 73, "mz1042": 74, "mz1043": 75, "mz1044": 76, "mz1045": 77, "mz1046": 78, "mz1047": 79, "mz1048": 80, "mz1049": 81, "mz105": 82, "mz1050": 83, "mz1051": 84, "mz1052": 85, "mz1053": 86, "mz1054": 87, "mz1055": 88, "mz1056": 89, "mz1057": 90, "mz1058": 91, "mz1059": 92, "mz106": 93, "mz1060": 94, "mz1061": 95, "mz1062": 96, "mz1063": 97, "mz1064": 98, "mz1065": 99, "mz1066": 100, "mz1067": 101, "mz1068": 102, "mz1069": 103, "mz107": 104, "mz1070": 105, "mz1071": 106, "mz1072": 107, "mz1073": 108, "mz1074": 109, "mz1075": 110, "mz1076": 111, "mz1077": 112, "mz1078": 113, "mz1079": 114, "mz108": 115, "mz1080": 116, "mz1081": 117, "mz1082": 118, "mz1083": 119, "mz1084": 120, "mz1085": 121, "mz1086": 122, "mz1087": 123, "mz1088": 124, "mz1089": 125, "mz109": 126, "mz1090": 127, "mz1091": 128, "mz1092": 129, "mz1093": 130, "mz1094": 131, "mz1095": 132, "mz1096": 133, "mz1097": 134, "mz1098": 135, "mz1099": 136, "mz11": 137, "mz110": 138, "mz1100": 139, "mz1101": 140, "mz1102": 141, "mz1103": 142, "mz1104": 143, "mz1105": 144, "mz1106": 145, "mz1107": 146, "mz1108": 147, "mz1109": 148, "mz111": 149, "mz1110": 150, "mz1111": 151, "mz1112": 152, "mz1113": 153, "mz1114": 154, "mz1115": 155, "mz1116": 156, "mz1117": 157, "mz1118": 158, "mz1119": 159, "mz112": 160, "mz1120": 161, "mz1121": 162, "mz1122": 163, "mz1123": 164, "mz1124": 165, "mz1125": 166, "mz1126": 167, "mz1127": 168, "mz1128": 169, "mz1129": 170, "mz113": 171, "mz1130": 172, "mz1131": 173, "mz1132": 174, "mz1133": 175, "mz1134": 176, "mz1135": 177, "mz1136": 178, "mz1137": 179, "mz1138": 180, "mz1139": 181, "mz114": 182, "mz1140": 183, "mz1141": 184, "mz1142": 185, "mz1143": 186, "mz1144": 187, "mz1145": 188, "mz1146": 189, "mz1147": 190, "mz1148": 191, "mz1149": 192, "mz115": 193, "mz1150": 194, "mz1151": 195, "mz1152": 196, "mz1153": 197, "mz1154": 198, "mz1155": 199, "mz1156": 200, "mz1157": 201, "mz1158": 202, "mz1159": 203, "mz116": 204, "mz1160": 205, "mz1161": 206, "mz1162": 207, "mz1163": 208, "mz1164": 209, "mz1165": 210, "mz1166": 211, "mz1167": 212, "mz1168": 213, "mz1169": 214, "mz117": 215, "mz1170": 216, "mz1171": 217, "mz1172": 218, "mz1173": 219, "mz1174": 220, "mz1175": 221, "mz1176": 222, "mz1177": 223, "mz1178": 224, "mz1179": 225, "mz118": 226, "mz1180": 227, "mz1181": 228, "mz1182": 229, "mz1183": 230, "mz1184": 231, "mz1185": 232, "mz1186": 233, "mz1187": 234, "mz1188": 235, "mz1189": 236, "mz119": 237, "mz1190": 238, "mz1191": 239, "mz1192": 240, "mz1193": 241, "mz1194": 242, "mz1195": 243, "mz1196": 244, "mz1197": 245, "mz1198": 246, "mz1199": 247, "mz12": 248, "mz120": 249, "mz1200": 250, "mz1201": 251, "mz1202": 252, "mz1203": 253, "mz1204": 254, "mz1205": 255, "mz1206": 256, "mz1207": 257, "mz1208": 258, "mz1209": 259, "mz121": 260, "mz1210": 261, "mz1211": 262, "mz1212": 263, "mz1213": 264, "mz1214": 265, "mz1215": 266, "mz1216": 267, "mz1217": 268, "mz1218": 269, "mz1219": 270, "mz122": 271, "mz1220": 272, "mz1221": 273, "mz1222": 274, "mz1223": 275, "mz1224": 276, "mz1225": 277, "mz1226": 278, "mz1227": 279, "mz1228": 280, "mz1229": 281, "mz123": 282, "mz1230": 283, "mz1231": 284, "mz1232": 285, "mz1233": 286, "mz1234": 287, "mz1235": 288, "mz1236": 289, "mz1237": 290, "mz1238": 291, "mz1239": 292, "mz124": 293, "mz1240": 294, "mz1241": 295, "mz1242": 296, "mz1243": 297, "mz1244": 298, "mz1245": 299, "mz1246": 300, "mz1247": 301, "mz1248": 302, "mz1249": 303, "mz125": 304, "mz1250": 305, "mz1251": 306, "mz1252": 307, "mz1253": 308, "mz1254": 309, "mz1255": 310, "mz1256": 311, "mz1257": 312, "mz1258": 313, "mz1259": 314, "mz126": 315, "mz1260": 316, "mz1261": 317, "mz1262": 318, "mz1263": 319, "mz1264": 320, "mz1265": 321, "mz1266": 322, "mz1267": 323, "mz1268": 324, "mz1269": 325, "mz127": 326, "mz1270": 327, "mz1271": 328, "mz1272": 329, "mz1273": 330, "mz1274": 331, "mz1275": 332, "mz1276": 333, "mz1277": 334, "mz1278": 335, "mz1279": 336, "mz128": 337, "mz1280": 338, "mz1281": 339, "mz1282": 340, "mz1283": 341, "mz1284": 342, "mz1285": 343, "mz1286": 344, "mz1287": 345, "mz1288": 346, "mz1289": 347, "mz129": 348, "mz1290": 349, "mz1291": 350, "mz1292": 351, "mz1293": 352, "mz1294": 353, "mz1295": 354, "mz1296": 355, "mz1297": 356, "mz1298": 357, "mz1299": 358, "mz13": 359, "mz130": 360, "mz1300": 361, "mz1301": 362, "mz1302": 363, "mz1303": 364, "mz1304": 365, "mz1305": 366, "mz1306": 367, "mz1307": 368, "mz1308": 369, "mz1309": 370, "mz131": 371, "mz1310": 372, "mz1311": 373, "mz1312": 374, "mz1313": 375, "mz1314": 376, "mz1315": 377, "mz1316": 378, "mz1317": 379, "mz1318": 380, "mz1319": 381, "mz132": 382, "mz1320": 383, "mz1321": 384, "mz1322": 385, "mz1323": 386, "mz1324": 387, "mz1325": 388, "mz1326": 389, "mz1327": 390, "mz1328": 391, "mz1329": 392, "mz133": 393, "mz1330": 394, "mz1331": 395, "mz1332": 396, "mz1333": 397, "mz1334": 398, "mz1335": 399, "mz1336": 400, "mz1337": 401, "mz1338": 402, "mz1339": 403, "mz134": 404, "mz1340": 405, "mz1341": 406, "mz1342": 407, "mz1343": 408, "mz1344": 409, "mz1345": 410, "mz1346": 411, "mz1347": 412, "mz1348": 413, "mz1349": 414, "mz135": 415, "mz1350": 416, "mz1351": 417, "mz1352": 418, "mz1353": 419, "mz1354": 420, "mz1355": 421, "mz1356": 422, "mz1357": 423, "mz1358": 424, "mz1359": 425, "mz136": 426, "mz1360": 427, "mz1361": 428, "mz1362": 429, "mz1363": 430, "mz1364": 431, "mz1365": 432, "mz1366": 433, "mz1367": 434, "mz1368": 435, "mz1369": 436, "mz137": 437, "mz1370": 438, "mz1371": 439, "mz1372": 440, "mz1373": 441, "mz1374": 442, "mz1375": 443, "mz1376": 444, "mz1377": 445, "mz1378": 446, "mz1379": 447, "mz138": 448, "mz1380": 449, "mz1381": 450, "mz1382": 451, "mz1383": 452, "mz1384": 453, "mz1385": 454, "mz1386": 455, "mz1387": 456, "mz1388": 457, "mz1389": 458, "mz139": 459, "mz1390": 460, "mz1391": 461, "mz1392": 462, "mz1393": 463, "mz1394": 464, "mz1395": 465, "mz1396": 466, "mz1397": 467, "mz1398": 468, "mz1399": 469, "mz14": 470, "mz140": 471, "mz1400": 472, "mz1401": 473, "mz1402": 474, "mz1403": 475, "mz1404": 476, "mz1405": 477, "mz1406": 478, "mz1407": 479, "mz1408": 480, "mz1409": 481, "mz141": 482, "mz1410": 483, "mz1411": 484, "mz1412": 485, "mz1413": 486, "mz1414": 487, "mz1415": 488, "mz1416": 489, "mz1417": 490, "mz1418": 491, "mz1419": 492, "mz142": 493, "mz1420": 494, "mz1421": 495, "mz1422": 496, "mz1423": 497, "mz1424": 498, "mz1425": 499, "mz1426": 500, "mz1427": 501, "mz1428": 502, "mz1429": 503, "mz143": 504, "mz1430": 505, "mz1431": 506, "mz1432": 507, "mz1433": 508, "mz1434": 509, "mz1435": 510, "mz1436": 511, "mz1437": 512, "mz1438": 513, "mz1439": 514, "mz144": 515, "mz1440": 516, "mz1441": 517, "mz1442": 518, "mz1443": 519, "mz1444": 520, "mz1445": 521, "mz1446": 522, "mz1447": 523, "mz1448": 524, "mz1449": 525, "mz145": 526, "mz1450": 527, "mz1451": 528, "mz1452": 529, "mz1453": 530, "mz1454": 531, "mz1455": 532, "mz1456": 533, "mz1457": 534, "mz1458": 535, "mz1459": 536, "mz146": 537, "mz1460": 538, "mz1461": 539, "mz1462": 540, "mz1463": 541, "mz1464": 542, "mz1465": 543, "mz1466": 544, "mz1467": 545, "mz1468": 546, "mz1469": 547, "mz147": 548, "mz1470": 549, "mz1471": 550, "mz1472": 551, "mz1473": 552, "mz1474": 553, "mz1475": 554, "mz1476": 555, "mz1477": 556, "mz1478": 557, "mz1479": 558, "mz148": 559, "mz1480": 560, "mz1481": 561, "mz1482": 562, "mz1483": 563, "mz1484": 564, "mz1485": 565, "mz1486": 566, "mz1487": 567, "mz1488": 568, "mz1489": 569, "mz149": 570, "mz1490": 571, "mz1491": 572, "mz1492": 573, "mz1493": 574, "mz1494": 575, "mz1495": 576, "mz1496": 577, "mz1497": 578, "mz1498": 579, "mz1499": 580, "mz15": 581, "mz150": 582, "mz1500": 583, "mz1501": 584, "mz1502": 585, "mz1503": 586, "mz1504": 587, "mz1505": 588, "mz1506": 589, "mz1507": 590, "mz1508": 591, "mz1509": 592, "mz151": 593, "mz1510": 594, "mz1511": 595, "mz1512": 596, "mz1513": 597, "mz1514": 598, "mz1515": 599, "mz1516": 600, "mz1517": 601, "mz1518": 602, "mz1519": 603, "mz152": 604, "mz1520": 605, "mz1521": 606, "mz1522": 607, "mz1523": 608, "mz1524": 609, "mz1525": 610, "mz1526": 611, "mz1527": 612, "mz1528": 613, "mz1529": 614, "mz153": 615, "mz1530": 616, "mz1531": 617, "mz1532": 618, "mz1533": 619, "mz1534": 620, "mz1535": 621, "mz1536": 622, "mz1537": 623, "mz1538": 624, "mz1539": 625, "mz154": 626, "mz1540": 627, "mz1541": 628, "mz1542": 629, "mz1543": 630, "mz1544": 631, "mz1545": 632, "mz1546": 633, "mz1547": 634, "mz1548": 635, "mz1549": 636, "mz155": 637, "mz1550": 638, "mz1551": 639, "mz1552": 640, "mz1553": 641, "mz1554": 642, "mz1555": 643, "mz1556": 644, "mz1557": 645, "mz1558": 646, "mz1559": 647, "mz156": 648, "mz1560": 649, "mz1561": 650, "mz1562": 651, "mz1563": 652, "mz1564": 653, "mz1565": 654, "mz1566": 655, "mz1567": 656, "mz1568": 657, "mz1569": 658, "mz157": 659, "mz1570": 660, "mz1571": 661, "mz1572": 662, "mz1573": 663, "mz1574": 664, "mz1575": 665, "mz1576": 666, "mz1577": 667, "mz1578": 668, "mz1579": 669, "mz158": 670, "mz1580": 671, "mz1581": 672, "mz1582": 673, "mz1583": 674, "mz1584": 675, "mz1585": 676, "mz1586": 677, "mz1587": 678, "mz1588": 679, "mz1589": 680, "mz159": 681, "mz1590": 682, "mz1591": 683, "mz1592": 684, "mz1593": 685, "mz1594": 686, "mz1595": 687, "mz1596": 688, "mz1597": 689, "mz1598": 690, "mz1599": 691, "mz16": 692, "mz160": 693, "mz1600": 694, "mz1601": 695, "mz1602": 696, "mz1603": 697, "mz1604": 698, "mz1605": 699, "mz1606": 700, "mz1607": 701, "mz1608": 702, "mz1609": 703, "mz161": 704, "mz1610": 705, "mz1611": 706, "mz1612": 707, "mz1613": 708, "mz1614": 709, "mz1615": 710, "mz1616": 711, "mz1617": 712, "mz1618": 713, "mz1619": 714, "mz162": 715, "mz1620": 716, "mz1621": 717, "mz1622": 718, "mz1623": 719, "mz1624": 720, "mz1625": 721, "mz1626": 722, "mz1627": 723, "mz1628": 724, "mz1629": 725, "mz163": 726, "mz1630": 727, "mz1631": 728, "mz1632": 729, "mz1633": 730, "mz1634": 731, "mz1635": 732, "mz1636": 733, "mz1637": 734, "mz1638": 735, "mz1639": 736, "mz164": 737, "mz1640": 738, "mz1641": 739, "mz1642": 740, "mz1643": 741, "mz1644": 742, "mz1645": 743, "mz1646": 744, "mz1647": 745, "mz1648": 746, "mz1649": 747, "mz165": 748, "mz1650": 749, "mz1651": 750, "mz1652": 751, "mz1653": 752, "mz1654": 753, "mz1655": 754, "mz1656": 755, "mz1657": 756, "mz1658": 757, "mz1659": 758, "mz166": 759, "mz1660": 760, "mz1661": 761, "mz1662": 762, "mz1663": 763, "mz1664": 764, "mz1665": 765, "mz1666": 766, "mz1667": 767, "mz1668": 768, "mz1669": 769, "mz167": 770, "mz1670": 771, "mz1671": 772, "mz1672": 773, "mz1673": 774, "mz1674": 775, "mz1675": 776, "mz1676": 777, "mz1677": 778, "mz1678": 779, "mz1679": 780, "mz168": 781, "mz1680": 782, "mz1681": 783, "mz1682": 784, "mz1683": 785, "mz1684": 786, "mz1685": 787, "mz1686": 788, "mz1687": 789, "mz1688": 790, "mz1689": 791, "mz169": 792, "mz1690": 793, "mz1691": 794, "mz1692": 795, "mz1693": 796, "mz1694": 797, "mz1695": 798, "mz1696": 799, "mz1697": 800, "mz1698": 801, "mz1699": 802, "mz17": 803, "mz170": 804, "mz1700": 805, "mz1701": 806, "mz1702": 807, "mz1703": 808, "mz1704": 809, "mz1705": 810, "mz1706": 811, "mz1707": 812, "mz1708": 813, "mz1709": 814, "mz171": 815, "mz1710": 816, "mz1711": 817, "mz1712": 818, "mz1713": 819, "mz1714": 820, "mz1715": 821, "mz1716": 822, "mz1717": 823, "mz1718": 824, "mz1719": 825, "mz172": 826, "mz1720": 827, "mz1721": 828, "mz1722": 829, "mz1723": 830, "mz1724": 831, "mz1725": 832, "mz1726": 833, "mz1727": 834, "mz1728": 835, "mz1729": 836, "mz173": 837, "mz1730": 838, "mz1731": 839, "mz1732": 840, "mz1733": 841, "mz1734": 842, "mz1735": 843, "mz1736": 844, "mz1737": 845, "mz1738": 846, "mz1739": 847, "mz174": 848, "mz1740": 849, "mz1741": 850, "mz1742": 851, "mz1743": 852, "mz1744": 853, "mz1745": 854, "mz1746": 855, "mz1747": 856, "mz1748": 857, "mz1749": 858, "mz175": 859, "mz1750": 860, "mz1751": 861, "mz1752": 862, "mz1753": 863, "mz1754": 864, "mz1755": 865, "mz1756": 866, "mz1757": 867, "mz1758": 868, "mz1759": 869, "mz176": 870, "mz1760": 871, "mz1761": 872, "mz1762": 873, "mz1763": 874, "mz1764": 875, "mz1765": 876, "mz1766": 877, "mz1767": 878, "mz1768": 879, "mz1769": 880, "mz177": 881, "mz1770": 882, "mz1771": 883, "mz1772": 884, "mz1773": 885, "mz1774": 886, "mz1775": 887, "mz1776": 888, "mz1777": 889, "mz1778": 890, "mz1779": 891, "mz178": 892, "mz1780": 893, "mz1781": 894, "mz1782": 895, "mz1783": 896, "mz1784": 897, "mz1785": 898, "mz1786": 899, "mz1787": 900, "mz1788": 901, "mz1789": 902, "mz179": 903, "mz1790": 904, "mz1791": 905, "mz1792": 906, "mz1793": 907, "mz1794": 908, "mz1795": 909, "mz1796": 910, "mz1797": 911, "mz1798": 912, "mz1799": 913, "mz18": 914, "mz180": 915, "mz1800": 916, "mz1801": 917, "mz1802": 918, "mz1803": 919, "mz1804": 920, "mz1805": 921, "mz1806": 922, "mz1807": 923, "mz1808": 924, "mz1809": 925, "mz181": 926, "mz1810": 927, "mz1811": 928, "mz1812": 929, "mz1813": 930, "mz1814": 931, "mz1815": 932, "mz1816": 933, "mz1817": 934, "mz1818": 935, "mz1819": 936, "mz182": 937, "mz1820": 938, "mz1821": 939, "mz1822": 940, "mz1823": 941, "mz1824": 942, "mz1825": 943, "mz1826": 944, "mz1827": 945, "mz1828": 946, "mz1829": 947, "mz183": 948, "mz1830": 949, "mz1831": 950, "mz1832": 951, "mz1833": 952, "mz1834": 953, "mz1835": 954, "mz1836": 955, "mz1837": 956, "mz1838": 957, "mz1839": 958, "mz184": 959, "mz1840": 960, "mz1841": 961, "mz1842": 962, "mz1843": 963, "mz1844": 964, "mz1845": 965, "mz1846": 966, "mz1847": 967, "mz1848": 968, "mz1849": 969, "mz185": 970, "mz1850": 971, "mz1851": 972, "mz1852": 973, "mz1853": 974, "mz1854": 975, "mz1855": 976, "mz1856": 977, "mz1857": 978, "mz1858": 979, "mz1859": 980, "mz186": 981, "mz1860": 982, "mz1861": 983, "mz1862": 984, "mz1863": 985, "mz1864": 986, "mz1865": 987, "mz1866": 988, "mz1867": 989, "mz1868": 990, "mz1869": 991, "mz187": 992, "mz1870": 993, "mz1871": 994, "mz1872": 995, "mz1873": 996, "mz1874": 997, "mz1875": 998, "mz1876": 999, "mz1877": 1000, "mz1878": 1001, "mz1879": 1002, "mz188": 1003, "mz1880": 1004, "mz1881": 1005, "mz1882": 1006, "mz1883": 1007, "mz1884": 1008, "mz1885": 1009, "mz1886": 1010, "mz1887": 1011, "mz1888": 1012, "mz1889": 1013, "mz189": 1014, "mz1890": 1015, "mz1891": 1016, "mz1892": 1017, "mz1893": 1018, "mz1894": 1019, "mz1895": 1020, "mz1896": 1021, "mz1897": 1022, "mz1898": 1023, "mz1899": 1024, "mz19": 1025, "mz190": 1026, "mz1900": 1027, "mz1901": 1028, "mz1902": 1029, "mz1903": 1030, "mz1904": 1031, "mz1905": 1032, "mz1906": 1033, "mz1907": 1034, "mz1908": 1035, "mz1909": 1036, "mz191": 1037, "mz1910": 1038, "mz1911": 1039, "mz1912": 1040, "mz1913": 1041, "mz1914": 1042, "mz1915": 1043, "mz1916": 1044, "mz1917": 1045, "mz1918": 1046, "mz1919": 1047, "mz192": 1048, "mz1920": 1049, "mz1921": 1050, "mz1922": 1051, "mz1923": 1052, "mz1924": 1053, "mz1925": 1054, "mz1926": 1055, "mz1927": 1056, "mz1928": 1057, "mz1929": 1058, "mz193": 1059, "mz1930": 1060, "mz1931": 1061, "mz1932": 1062, "mz1933": 1063, "mz1934": 1064, "mz1935": 1065, "mz1936": 1066, "mz1937": 1067, "mz1938": 1068, "mz1939": 1069, "mz194": 1070, "mz1940": 1071, "mz1941": 1072, "mz1942": 1073, "mz1943": 1074, "mz1944": 1075, "mz1945": 1076, "mz1946": 1077, "mz1947": 1078, "mz1948": 1079, "mz1949": 1080, "mz195": 1081, "mz1950": 1082, "mz1951": 1083, "mz1952": 1084, "mz1953": 1085, "mz1954": 1086, "mz1955": 1087, "mz1956": 1088, "mz1957": 1089, "mz1958": 1090, "mz1959": 1091, "mz196": 1092, "mz1960": 1093, "mz1961": 1094, "mz1962": 1095, "mz1963": 1096, "mz1964": 1097, "mz1965": 1098, "mz1966": 1099, "mz1967": 1100, "mz1968": 1101, "mz1969": 1102, "mz197": 1103, "mz1970": 1104, "mz1971": 1105, "mz1972": 1106, "mz1973": 1107, "mz1974": 1108, "mz1975": 1109, "mz1976": 1110, "mz1977": 1111, "mz1978": 1112, "mz1979": 1113, "mz198": 1114, "mz1980": 1115, "mz1981": 1116, "mz1982": 1117, "mz1983": 1118, "mz1984": 1119, "mz1985": 1120, "mz1986": 1121, "mz1987": 1122, "mz1988": 1123, "mz1989": 1124, "mz199": 1125, "mz1990": 1126, "mz1991": 1127, "mz1992": 1128, "mz1993": 1129, "mz1994": 1130, "mz1995": 1131, "mz1996": 1132, "mz1997": 1133, "mz1998": 1134, "mz1999": 1135, "mz2": 1136, "mz20": 1137, "mz200": 1138, "mz2000": 1139, "mz2001": 1140, "mz2002": 1141, "mz2003": 1142, "mz2004": 1143, "mz2005": 1144, "mz2006": 1145, "mz2007": 1146, "mz2008": 1147, "mz2009": 1148, "mz201": 1149, "mz2010": 1150, "mz2011": 1151, "mz2012": 1152, "mz2013": 1153, "mz2014": 1154, "mz2015": 1155, "mz2016": 1156, "mz2017": 1157, "mz2018": 1158, "mz2019": 1159, "mz202": 1160, "mz2020": 1161, "mz2021": 1162, "mz2022": 1163, "mz2023": 1164, "mz2024": 1165, "mz2025": 1166, "mz2026": 1167, "mz2027": 1168, "mz2028": 1169, "mz2029": 1170, "mz203": 1171, "mz2030": 1172, "mz2031": 1173, "mz2032": 1174, "mz2033": 1175, "mz2034": 1176, "mz2035": 1177, "mz2036": 1178, "mz2037": 1179, "mz2038": 1180, "mz2039": 1181, "mz204": 1182, "mz2040": 1183, "mz2041": 1184, "mz2042": 1185, "mz2043": 1186, "mz2044": 1187, "mz2045": 1188, "mz2046": 1189, "mz2047": 1190, "mz2048": 1191, "mz2049": 1192, "mz205": 1193, "mz2050": 1194, "mz2051": 1195, "mz2052": 1196, "mz2053": 1197, "mz2054": 1198, "mz2055": 1199, "mz2056": 1200, "mz2057": 1201, "mz2058": 1202, "mz2059": 1203, "mz206": 1204, "mz2060": 1205, "mz2061": 1206, "mz2062": 1207, "mz2063": 1208, "mz2064": 1209, "mz2065": 1210, "mz2066": 1211, "mz2067": 1212, "mz2068": 1213, "mz2069": 1214, "mz207": 1215, "mz2070": 1216, "mz2071": 1217, "mz2072": 1218, "mz2073": 1219, "mz2074": 1220, "mz2075": 1221, "mz2076": 1222, "mz2077": 1223, "mz2078": 1224, "mz2079": 1225, "mz208": 1226, "mz2080": 1227, "mz2081": 1228, "mz2082": 1229, "mz2083": 1230, "mz2084": 1231, "mz2085": 1232, "mz2086": 1233, "mz2087": 1234, "mz2088": 1235, "mz2089": 1236, "mz209": 1237, "mz2090": 1238, "mz2091": 1239, "mz2092": 1240, "mz2093": 1241, "mz2094": 1242, "mz2095": 1243, "mz2096": 1244, "mz2097": 1245, "mz2098": 1246, "mz2099": 1247, "mz21": 1248, "mz210": 1249, "mz2100": 1250, "mz2101": 1251, "mz2102": 1252, "mz2103": 1253, "mz2104": 1254, "mz2105": 1255, "mz2106": 1256, "mz2107": 1257, "mz2108": 1258, "mz2109": 1259, "mz211": 1260, "mz2110": 1261, "mz2111": 1262, "mz2112": 1263, "mz2113": 1264, "mz2114": 1265, "mz2115": 1266, "mz2116": 1267, "mz2117": 1268, "mz2118": 1269, "mz2119": 1270, "mz212": 1271, "mz2120": 1272, "mz2121": 1273, "mz2122": 1274, "mz2123": 1275, "mz2124": 1276, "mz2125": 1277, "mz2126": 1278, "mz2127": 1279, "mz2128": 1280, "mz2129": 1281, "mz213": 1282, "mz2130": 1283, "mz2131": 1284, "mz2132": 1285, "mz2133": 1286, "mz2134": 1287, "mz2135": 1288, "mz2136": 1289, "mz2137": 1290, "mz2138": 1291, "mz2139": 1292, "mz214": 1293, "mz2140": 1294, "mz2141": 1295, "mz2142": 1296, "mz2143": 1297, "mz2144": 1298, "mz2145": 1299, "mz2146": 1300, "mz2147": 1301, "mz2148": 1302, "mz2149": 1303, "mz215": 1304, "mz2150": 1305, "mz2151": 1306, "mz2152": 1307, "mz2153": 1308, "mz2154": 1309, "mz2155": 1310, "mz2156": 1311, "mz2157": 1312, "mz2158": 1313, "mz2159": 1314, "mz216": 1315, "mz2160": 1316, "mz2161": 1317, "mz2162": 1318, "mz2163": 1319, "mz2164": 1320, "mz2165": 1321, "mz2166": 1322, "mz2167": 1323, "mz2168": 1324, "mz2169": 1325, "mz217": 1326, "mz2170": 1327, "mz2171": 1328, "mz2172": 1329, "mz2173": 1330, "mz2174": 1331, "mz2175": 1332, "mz2176": 1333, "mz2177": 1334, "mz2178": 1335, "mz2179": 1336, "mz218": 1337, "mz2180": 1338, "mz2181": 1339, "mz2182": 1340, "mz2183": 1341, "mz2184": 1342, "mz2185": 1343, "mz2186": 1344, "mz2187": 1345, "mz2188": 1346, "mz2189": 1347, "mz219": 1348, "mz2190": 1349, "mz2191": 1350, "mz2192": 1351, "mz2193": 1352, "mz2194": 1353, "mz2195": 1354, "mz2196": 1355, "mz2197": 1356, "mz2198": 1357, "mz2199": 1358, "mz22": 1359, "mz220": 1360, "mz2200": 1361, "mz2201": 1362, "mz2202": 1363, "mz2203": 1364, "mz2204": 1365, "mz2205": 1366, "mz2206": 1367, "mz2207": 1368, "mz2208": 1369, "mz2209": 1370, "mz221": 1371, "mz2210": 1372, "mz2211": 1373, "mz2212": 1374, "mz2213": 1375, "mz2214": 1376, "mz2215": 1377, "mz2216": 1378, "mz2217": 1379, "mz2218": 1380, "mz2219": 1381, "mz222": 1382, "mz2220": 1383, "mz2221": 1384, "mz2222": 1385, "mz2223": 1386, "mz2224": 1387, "mz2225": 1388, "mz2226": 1389, "mz2227": 1390, "mz2228": 1391, "mz2229": 1392, "mz223": 1393, "mz2230": 1394, "mz2231": 1395, "mz2232": 1396, "mz2233": 1397, "mz2234": 1398, "mz2235": 1399, "mz2236": 1400, "mz2237": 1401, "mz2238": 1402, "mz2239": 1403, "mz224": 1404, "mz2240": 1405, "mz2241": 1406, "mz2242": 1407, "mz2243": 1408, "mz2244": 1409, "mz2245": 1410, "mz2246": 1411, "mz2247": 1412, "mz2248": 1413, "mz2249": 1414, "mz225": 1415, "mz2250": 1416, "mz2251": 1417, "mz2252": 1418, "mz2253": 1419, "mz2254": 1420, "mz2255": 1421, "mz2256": 1422, "mz2257": 1423, "mz2258": 1424, "mz2259": 1425, "mz226": 1426, "mz2260": 1427, "mz2261": 1428, "mz2262": 1429, "mz2263": 1430, "mz2264": 1431, "mz2265": 1432, "mz2266": 1433, "mz2267": 1434, "mz2268": 1435, "mz2269": 1436, "mz227": 1437, "mz2270": 1438, "mz2271": 1439, "mz2272": 1440, "mz2273": 1441, "mz2274": 1442, "mz2275": 1443, "mz2276": 1444, "mz2277": 1445, "mz2278": 1446, "mz2279": 1447, "mz228": 1448, "mz2280": 1449, "mz2281": 1450, "mz2282": 1451, "mz2283": 1452, "mz2284": 1453, "mz2285": 1454, "mz2286": 1455, "mz2287": 1456, "mz2288": 1457, "mz2289": 1458, "mz229": 1459, "mz2290": 1460, "mz2291": 1461, "mz2292": 1462, "mz2293": 1463, "mz2294": 1464, "mz2295": 1465, "mz2296": 1466, "mz2297": 1467, "mz2298": 1468, "mz2299": 1469, "mz23": 1470, "mz230": 1471, "mz2300": 1472, "mz2301": 1473, "mz2302": 1474, "mz2303": 1475, "mz2304": 1476, "mz2305": 1477, "mz2306": 1478, "mz2307": 1479, "mz2308": 1480, "mz2309": 1481, "mz231": 1482, "mz2310": 1483, "mz2311": 1484, "mz2312": 1485, "mz2313": 1486, "mz2314": 1487, "mz2315": 1488, "mz2316": 1489, "mz2317": 1490, "mz2318": 1491, "mz2319": 1492, "mz232": 1493, "mz2320": 1494, "mz2321": 1495, "mz2322": 1496, "mz2323": 1497, "mz2324": 1498, "mz2325": 1499, "mz2326": 1500, "mz2327": 1501, "mz2328": 1502, "mz2329": 1503, "mz233": 1504, "mz2330": 1505, "mz2331": 1506, "mz2332": 1507, "mz2333": 1508, "mz2334": 1509, "mz2335": 1510, "mz2336": 1511, "mz2337": 1512, "mz2338": 1513, "mz2339": 1514, "mz234": 1515, "mz2340": 1516, "mz2341": 1517, "mz2342": 1518, "mz2343": 1519, "mz2344": 1520, "mz2345": 1521, "mz2346": 1522, "mz2347": 1523, "mz2348": 1524, "mz2349": 1525, "mz235": 1526, "mz2350": 1527, "mz2351": 1528, "mz2352": 1529, "mz2353": 1530, "mz2354": 1531, "mz2355": 1532, "mz2356": 1533, "mz2357": 1534, "mz2358": 1535, "mz2359": 1536, "mz236": 1537, "mz2360": 1538, "mz2361": 1539, "mz2362": 1540, "mz2363": 1541, "mz2364": 1542, "mz2365": 1543, "mz2366": 1544, "mz2367": 1545, "mz2368": 1546, "mz2369": 1547, "mz237": 1548, "mz2370": 1549, "mz2371": 1550, "mz2372": 1551, "mz2373": 1552, "mz2374": 1553, "mz2375": 1554, "mz2376": 1555, "mz2377": 1556, "mz2378": 1557, "mz2379": 1558, "mz238": 1559, "mz2380": 1560, "mz2381": 1561, "mz2382": 1562, "mz2383": 1563, "mz2384": 1564, "mz2385": 1565, "mz2386": 1566, "mz2387": 1567, "mz2388": 1568, "mz2389": 1569, "mz239": 1570, "mz2390": 1571, "mz2391": 1572, "mz2392": 1573, "mz2393": 1574, "mz2394": 1575, "mz2395": 1576, "mz2396": 1577, "mz2397": 1578, "mz2398": 1579, "mz2399": 1580, "mz24": 1581, "mz240": 1582, "mz2400": 1583, "mz2401": 1584, "mz2402": 1585, "mz2403": 1586, "mz2404": 1587, "mz2405": 1588, "mz2406": 1589, "mz2407": 1590, "mz2408": 1591, "mz2409": 1592, "mz241": 1593, "mz2410": 1594, "mz2411": 1595, "mz2412": 1596, "mz2413": 1597, "mz2414": 1598, "mz2415": 1599, "mz2416": 1600, "mz2417": 1601, "mz2418": 1602, "mz2419": 1603, "mz242": 1604, "mz2420": 1605, "mz2421": 1606, "mz2422": 1607, "mz2423": 1608, "mz2424": 1609, "mz2425": 1610, "mz2426": 1611, "mz2427": 1612, "mz2428": 1613, "mz2429": 1614, "mz243": 1615, "mz2430": 1616, "mz2431": 1617, "mz2432": 1618, "mz2433": 1619, "mz2434": 1620, "mz2435": 1621, "mz2436": 1622, "mz2437": 1623, "mz2438": 1624, "mz2439": 1625, "mz244": 1626, "mz2440": 1627, "mz2441": 1628, "mz2442": 1629, "mz2443": 1630, "mz2444": 1631, "mz2445": 1632, "mz2446": 1633, "mz2447": 1634, "mz2448": 1635, "mz2449": 1636, "mz245": 1637, "mz2450": 1638, "mz2451": 1639, "mz2452": 1640, "mz2453": 1641, "mz2454": 1642, "mz2455": 1643, "mz2456": 1644, "mz2457": 1645, "mz2458": 1646, "mz2459": 1647, "mz246": 1648, "mz2460": 1649, "mz2461": 1650, "mz2462": 1651, "mz2463": 1652, "mz2464": 1653, "mz2465": 1654, "mz2466": 1655, "mz2467": 1656, "mz2468": 1657, "mz2469": 1658, "mz247": 1659, "mz2470": 1660, "mz2471": 1661, "mz2472": 1662, "mz2473": 1663, "mz2474": 1664, "mz2475": 1665, "mz2476": 1666, "mz2477": 1667, "mz2478": 1668, "mz2479": 1669, "mz248": 1670, "mz2480": 1671, "mz2481": 1672, "mz2482": 1673, "mz2483": 1674, "mz2484": 1675, "mz2485": 1676, "mz2486": 1677, "mz2487": 1678, "mz2488": 1679, "mz2489": 1680, "mz249": 1681, "mz2490": 1682, "mz2491": 1683, "mz2492": 1684, "mz2493": 1685, "mz2494": 1686, "mz2495": 1687, "mz2496": 1688, "mz2497": 1689, "mz2498": 1690, "mz2499": 1691, "mz25": 1692, "mz250": 1693, "mz2500": 1694, "mz2501": 1695, "mz2502": 1696, "mz2503": 1697, "mz2504": 1698, "mz2505": 1699, "mz2506": 1700, "mz2507": 1701, "mz2508": 1702, "mz2509": 1703, "mz251": 1704, "mz2510": 1705, "mz2511": 1706, "mz2512": 1707, "mz2513": 1708, "mz2514": 1709, "mz2515": 1710, "mz2516": 1711, "mz2517": 1712, "mz2518": 1713, "mz2519": 1714, "mz252": 1715, "mz2520": 1716, "mz2521": 1717, "mz2522": 1718, "mz2523": 1719, "mz2524": 1720, "mz2525": 1721, "mz2526": 1722, "mz2527": 1723, "mz2528": 1724, "mz2529": 1725, "mz253": 1726, "mz2530": 1727, "mz2531": 1728, "mz2532": 1729, "mz2533": 1730, "mz2534": 1731, "mz2535": 1732, "mz2536": 1733, "mz2537": 1734, "mz2538": 1735, "mz2539": 1736, "mz254": 1737, "mz2540": 1738, "mz2541": 1739, "mz2542": 1740, "mz2543": 1741, "mz2544": 1742, "mz2545": 1743, "mz2546": 1744, "mz2547": 1745, "mz2548": 1746, "mz2549": 1747, "mz255": 1748, "mz2550": 1749, "mz2551": 1750, "mz2552": 1751, "mz2553": 1752, "mz2554": 1753, "mz2555": 1754, "mz2556": 1755, "mz2557": 1756, "mz2558": 1757, "mz2559": 1758, "mz256": 1759, "mz2560": 1760, "mz2561": 1761, "mz2562": 1762, "mz2563": 1763, "mz2564": 1764, "mz2565": 1765, "mz2566": 1766, "mz2567": 1767, "mz2568": 1768, "mz2569": 1769, "mz257": 1770, "mz2570": 1771, "mz2571": 1772, "mz2572": 1773, "mz2573": 1774, "mz2574": 1775, "mz2575": 1776, "mz2576": 1777, "mz2577": 1778, "mz2578": 1779, "mz2579": 1780, "mz258": 1781, "mz2580": 1782, "mz2581": 1783, "mz2582": 1784, "mz2583": 1785, "mz2584": 1786, "mz2585": 1787, "mz2586": 1788, "mz2587": 1789, "mz2588": 1790, "mz2589": 1791, "mz259": 1792, "mz2590": 1793, "mz2591": 1794, "mz2592": 1795, "mz2593": 1796, "mz2594": 1797, "mz2595": 1798, "mz2596": 1799, "mz2597": 1800, "mz2598": 1801, "mz2599": 1802, "mz26": 1803, "mz260": 1804, "mz2600": 1805, "mz2601": 1806, "mz2602": 1807, "mz2603": 1808, "mz2604": 1809, "mz2605": 1810, "mz2606": 1811, "mz2607": 1812, "mz2608": 1813, "mz2609": 1814, "mz261": 1815, "mz2610": 1816, "mz2611": 1817, "mz2612": 1818, "mz2613": 1819, "mz2614": 1820, "mz2615": 1821, "mz2616": 1822, "mz2617": 1823, "mz2618": 1824, "mz2619": 1825, "mz262": 1826, "mz2620": 1827, "mz2621": 1828, "mz2622": 1829, "mz2623": 1830, "mz2624": 1831, "mz2625": 1832, "mz2626": 1833, "mz2627": 1834, "mz2628": 1835, "mz2629": 1836, "mz263": 1837, "mz2630": 1838, "mz2631": 1839, "mz2632": 1840, "mz2633": 1841, "mz2634": 1842, "mz2635": 1843, "mz2636": 1844, "mz2637": 1845, "mz2638": 1846, "mz2639": 1847, "mz264": 1848, "mz2640": 1849, "mz2641": 1850, "mz2642": 1851, "mz2643": 1852, "mz2644": 1853, "mz2645": 1854, "mz2646": 1855, "mz2647": 1856, "mz2648": 1857, "mz2649": 1858, "mz265": 1859, "mz2650": 1860, "mz2651": 1861, "mz2652": 1862, "mz2653": 1863, "mz2654": 1864, "mz2655": 1865, "mz2656": 1866, "mz2657": 1867, "mz2658": 1868, "mz2659": 1869, "mz266": 1870, "mz2660": 1871, "mz2661": 1872, "mz2662": 1873, "mz2663": 1874, "mz2664": 1875, "mz2665": 1876, "mz2666": 1877, "mz2667": 1878, "mz2668": 1879, "mz2669": 1880, "mz267": 1881, "mz2670": 1882, "mz2671": 1883, "mz2672": 1884, "mz2673": 1885, "mz2674": 1886, "mz2675": 1887, "mz2676": 1888, "mz2677": 1889, "mz2678": 1890, "mz2679": 1891, "mz268": 1892, "mz2680": 1893, "mz2681": 1894, "mz2682": 1895, "mz2683": 1896, "mz2684": 1897, "mz2685": 1898, "mz2686": 1899, "mz2687": 1900, "mz2688": 1901, "mz2689": 1902, "mz269": 1903, "mz2690": 1904, "mz2691": 1905, "mz2692": 1906, "mz2693": 1907, "mz2694": 1908, "mz2695": 1909, "mz2696": 1910, "mz2697": 1911, "mz2698": 1912, "mz2699": 1913, "mz27": 1914, "mz270": 1915, "mz2700": 1916, "mz2701": 1917, "mz2702": 1918, "mz2703": 1919, "mz2704": 1920, "mz2705": 1921, "mz2706": 1922, "mz2707": 1923, "mz2708": 1924, "mz2709": 1925, "mz271": 1926, "mz2710": 1927, "mz2711": 1928, "mz2712": 1929, "mz2713": 1930, "mz2714": 1931, "mz2715": 1932, "mz2716": 1933, "mz2717": 1934, "mz2718": 1935, "mz2719": 1936, "mz272": 1937, "mz2720": 1938, "mz2721": 1939, "mz2722": 1940, "mz2723": 1941, "mz2724": 1942, "mz2725": 1943, "mz2726": 1944, "mz2727": 1945, "mz2728": 1946, "mz2729": 1947, "mz273": 1948, "mz2730": 1949, "mz2731": 1950, "mz2732": 1951, "mz2733": 1952, "mz2734": 1953, "mz2735": 1954, "mz2736": 1955, "mz2737": 1956, "mz2738": 1957, "mz2739": 1958, "mz274": 1959, "mz2740": 1960, "mz2741": 1961, "mz2742": 1962, "mz2743": 1963, "mz2744": 1964, "mz2745": 1965, "mz2746": 1966, "mz2747": 1967, "mz2748": 1968, "mz2749": 1969, "mz275": 1970, "mz2750": 1971, "mz2751": 1972, "mz2752": 1973, "mz2753": 1974, "mz2754": 1975, "mz2755": 1976, "mz2756": 1977, "mz2757": 1978, "mz2758": 1979, "mz2759": 1980, "mz276": 1981, "mz2760": 1982, "mz2761": 1983, "mz2762": 1984, "mz2763": 1985, "mz2764": 1986, "mz2765": 1987, "mz2766": 1988, "mz2767": 1989, "mz2768": 1990, "mz2769": 1991, "mz277": 1992, "mz2770": 1993, "mz2771": 1994, "mz2772": 1995, "mz2773": 1996, "mz2774": 1997, "mz2775": 1998, "mz2776": 1999, "mz2777": 2000, "mz2778": 2001, "mz2779": 2002, "mz278": 2003, "mz2780": 2004, "mz2781": 2005, "mz2782": 2006, "mz2783": 2007, "mz2784": 2008, "mz2785": 2009, "mz2786": 2010, "mz2787": 2011, "mz2788": 2012, "mz2789": 2013, "mz279": 2014, "mz2790": 2015, "mz2791": 2016, "mz2792": 2017, "mz2793": 2018, "mz2794": 2019, "mz2795": 2020, "mz2796": 2021, "mz2797": 2022, "mz2798": 2023, "mz2799": 2024, "mz28": 2025, "mz280": 2026, "mz2800": 2027, "mz2801": 2028, "mz2802": 2029, "mz2803": 2030, "mz2804": 2031, "mz2805": 2032, "mz2806": 2033, "mz2807": 2034, "mz2808": 2035, "mz2809": 2036, "mz281": 2037, "mz2810": 2038, "mz2811": 2039, "mz2812": 2040, "mz2813": 2041, "mz2814": 2042, "mz2815": 2043, "mz2816": 2044, "mz2817": 2045, "mz2818": 2046, "mz2819": 2047, "mz282": 2048, "mz2820": 2049, "mz2821": 2050, "mz2822": 2051, "mz2823": 2052, "mz2824": 2053, "mz2825": 2054, "mz2826": 2055, "mz2827": 2056, "mz2828": 2057, "mz2829": 2058, "mz283": 2059, "mz2830": 2060, "mz2831": 2061, "mz2832": 2062, "mz2833": 2063, "mz2834": 2064, "mz2835": 2065, "mz2836": 2066, "mz2837": 2067, "mz2838": 2068, "mz2839": 2069, "mz284": 2070, "mz2840": 2071, "mz2841": 2072, "mz2842": 2073, "mz2843": 2074, "mz2844": 2075, "mz2845": 2076, "mz2846": 2077, "mz2847": 2078, "mz2848": 2079, "mz2849": 2080, "mz285": 2081, "mz2850": 2082, "mz2851": 2083, "mz2852": 2084, "mz2853": 2085, "mz2854": 2086, "mz2855": 2087, "mz2856": 2088, "mz2857": 2089, "mz2858": 2090, "mz2859": 2091, "mz286": 2092, "mz2860": 2093, "mz2861": 2094, "mz2862": 2095, "mz2863": 2096, "mz2864": 2097, "mz2865": 2098, "mz2866": 2099, "mz2867": 2100, "mz2868": 2101, "mz2869": 2102, "mz287": 2103, "mz2870": 2104, "mz2871": 2105, "mz2872": 2106, "mz2873": 2107, "mz2874": 2108, "mz2875": 2109, "mz2876": 2110, "mz2877": 2111, "mz2878": 2112, "mz2879": 2113, "mz288": 2114, "mz2880": 2115, "mz2881": 2116, "mz2882": 2117, "mz2883": 2118, "mz2884": 2119, "mz2885": 2120, "mz2886": 2121, "mz2887": 2122, "mz2888": 2123, "mz2889": 2124, "mz289": 2125, "mz2890": 2126, "mz2891": 2127, "mz2892": 2128, "mz2893": 2129, "mz2894": 2130, "mz2895": 2131, "mz2896": 2132, "mz2897": 2133, "mz2898": 2134, "mz2899": 2135, "mz29": 2136, "mz290": 2137, "mz2900": 2138, "mz2901": 2139, "mz2902": 2140, "mz2903": 2141, "mz2904": 2142, "mz2905": 2143, "mz2906": 2144, "mz2907": 2145, "mz2908": 2146, "mz2909": 2147, "mz291": 2148, "mz2910": 2149, "mz2911": 2150, "mz2912": 2151, "mz2913": 2152, "mz2914": 2153, "mz2915": 2154, "mz2916": 2155, "mz2917": 2156, "mz2918": 2157, "mz2919": 2158, "mz292": 2159, "mz2920": 2160, "mz2921": 2161, "mz2922": 2162, "mz2923": 2163, "mz2924": 2164, "mz2925": 2165, "mz2926": 2166, "mz2927": 2167, "mz2928": 2168, "mz2929": 2169, "mz293": 2170, "mz2930": 2171, "mz2931": 2172, "mz2932": 2173, "mz2933": 2174, "mz2934": 2175, "mz2935": 2176, "mz2936": 2177, "mz2937": 2178, "mz2938": 2179, "mz2939": 2180, "mz294": 2181, "mz2940": 2182, "mz2941": 2183, "mz2942": 2184, "mz2943": 2185, "mz2944": 2186, "mz2945": 2187, "mz2946": 2188, "mz2947": 2189, "mz2948": 2190, "mz2949": 2191, "mz295": 2192, "mz2950": 2193, "mz2951": 2194, "mz2952": 2195, "mz2953": 2196, "mz2954": 2197, "mz2955": 2198, "mz2956": 2199, "mz2957": 2200, "mz2958": 2201, "mz2959": 2202, "mz296": 2203, "mz2960": 2204, "mz2961": 2205, "mz2962": 2206, "mz2963": 2207, "mz2964": 2208, "mz2965": 2209, "mz2966": 2210, "mz2967": 2211, "mz2968": 2212, "mz2969": 2213, "mz297": 2214, "mz2970": 2215, "mz2971": 2216, "mz2972": 2217, "mz2973": 2218, "mz2974": 2219, "mz2975": 2220, "mz2976": 2221, "mz2977": 2222, "mz2978": 2223, "mz2979": 2224, "mz298": 2225, "mz2980": 2226, "mz2981": 2227, "mz2982": 2228, "mz2983": 2229, "mz2984": 2230, "mz2985": 2231, "mz2986": 2232, "mz2987": 2233, "mz2988": 2234, "mz2989": 2235, "mz299": 2236, "mz2990": 2237, "mz2991": 2238, "mz2992": 2239, "mz2993": 2240, "mz2994": 2241, "mz2995": 2242, "mz2996": 2243, "mz2997": 2244, "mz2998": 2245, "mz2999": 2246, "mz3": 2247, "mz30": 2248, "mz300": 2249, "mz3000": 2250, "mz3001": 2251, "mz3002": 2252, "mz3003": 2253, "mz3004": 2254, "mz3005": 2255, "mz3006": 2256, "mz3007": 2257, "mz3008": 2258, "mz3009": 2259, "mz301": 2260, "mz3010": 2261, "mz3011": 2262, "mz3012": 2263, "mz3013": 2264, "mz3014": 2265, "mz3015": 2266, "mz3016": 2267, "mz3017": 2268, "mz3018": 2269, "mz3019": 2270, "mz302": 2271, "mz3020": 2272, "mz3021": 2273, "mz3022": 2274, "mz3023": 2275, "mz3024": 2276, "mz3025": 2277, "mz3026": 2278, "mz3027": 2279, "mz3028": 2280, "mz3029": 2281, "mz303": 2282, "mz3030": 2283, "mz3031": 2284, "mz3032": 2285, "mz3033": 2286, "mz3034": 2287, "mz3035": 2288, "mz3036": 2289, "mz3037": 2290, "mz3038": 2291, "mz3039": 2292, "mz304": 2293, "mz3040": 2294, "mz3041": 2295, "mz3042": 2296, "mz3043": 2297, "mz3044": 2298, "mz3045": 2299, "mz3046": 2300, "mz3047": 2301, "mz3048": 2302, "mz3049": 2303, "mz305": 2304, "mz3050": 2305, "mz3051": 2306, "mz3052": 2307, "mz3053": 2308, "mz3054": 2309, "mz3055": 2310, "mz3056": 2311, "mz3057": 2312, "mz3058": 2313, "mz3059": 2314, "mz306": 2315, "mz3060": 2316, "mz3061": 2317, "mz3062": 2318, "mz3063": 2319, "mz3064": 2320, "mz3065": 2321, "mz3066": 2322, "mz3067": 2323, "mz3068": 2324, "mz3069": 2325, "mz307": 2326, "mz3070": 2327, "mz3071": 2328, "mz3072": 2329, "mz3073": 2330, "mz3074": 2331, "mz3075": 2332, "mz3076": 2333, "mz3077": 2334, "mz3078": 2335, "mz3079": 2336, "mz308": 2337, "mz3080": 2338, "mz3081": 2339, "mz3082": 2340, "mz3083": 2341, "mz3084": 2342, "mz3085": 2343, "mz3086": 2344, "mz3087": 2345, "mz3088": 2346, "mz3089": 2347, "mz309": 2348, "mz3090": 2349, "mz3091": 2350, "mz3092": 2351, "mz3093": 2352, "mz3094": 2353, "mz3095": 2354, "mz3096": 2355, "mz3097": 2356, "mz3098": 2357, "mz3099": 2358, "mz31": 2359, "mz310": 2360, "mz3100": 2361, "mz3101": 2362, "mz3102": 2363, "mz3103": 2364, "mz3104": 2365, "mz3105": 2366, "mz3106": 2367, "mz3107": 2368, "mz3108": 2369, "mz3109": 2370, "mz311": 2371, "mz3110": 2372, "mz3111": 2373, "mz3112": 2374, "mz3113": 2375, "mz3114": 2376, "mz3115": 2377, "mz3116": 2378, "mz3117": 2379, "mz3118": 2380, "mz3119": 2381, "mz312": 2382, "mz3120": 2383, "mz3121": 2384, "mz3122": 2385, "mz3123": 2386, "mz3124": 2387, "mz3125": 2388, "mz3126": 2389, "mz3127": 2390, "mz3128": 2391, "mz3129": 2392, "mz313": 2393, "mz3130": 2394, "mz3131": 2395, "mz3132": 2396, "mz3133": 2397, "mz3134": 2398, "mz3135": 2399, "mz3136": 2400, "mz3137": 2401, "mz3138": 2402, "mz3139": 2403, "mz314": 2404, "mz3140": 2405, "mz3141": 2406, "mz3142": 2407, "mz3143": 2408, "mz3144": 2409, "mz3145": 2410, "mz3146": 2411, "mz3147": 2412, "mz3148": 2413, "mz3149": 2414, "mz315": 2415, "mz3150": 2416, "mz3151": 2417, "mz3152": 2418, "mz3153": 2419, "mz3154": 2420, "mz3155": 2421, "mz3156": 2422, "mz3157": 2423, "mz3158": 2424, "mz3159": 2425, "mz316": 2426, "mz3160": 2427, "mz3161": 2428, "mz3162": 2429, "mz3163": 2430, "mz3164": 2431, "mz3165": 2432, "mz3166": 2433, "mz3167": 2434, "mz3168": 2435, "mz3169": 2436, "mz317": 2437, "mz3170": 2438, "mz3171": 2439, "mz3172": 2440, "mz3173": 2441, "mz3174": 2442, "mz3175": 2443, "mz3176": 2444, "mz3177": 2445, "mz3178": 2446, "mz3179": 2447, "mz318": 2448, "mz3180": 2449, "mz3181": 2450, "mz3182": 2451, "mz3183": 2452, "mz3184": 2453, "mz3185": 2454, "mz3186": 2455, "mz3187": 2456, "mz3188": 2457, "mz3189": 2458, "mz319": 2459, "mz3190": 2460, "mz3191": 2461, "mz3192": 2462, "mz3193": 2463, "mz3194": 2464, "mz3195": 2465, "mz3196": 2466, "mz3197": 2467, "mz3198": 2468, "mz3199": 2469, "mz32": 2470, "mz320": 2471, "mz3200": 2472, "mz3201": 2473, "mz3202": 2474, "mz3203": 2475, "mz3204": 2476, "mz3205": 2477, "mz3206": 2478, "mz3207": 2479, "mz3208": 2480, "mz3209": 2481, "mz321": 2482, "mz3210": 2483, "mz3211": 2484, "mz3212": 2485, "mz3213": 2486, "mz3214": 2487, "mz3215": 2488, "mz3216": 2489, "mz3217": 2490, "mz3218": 2491, "mz3219": 2492, "mz322": 2493, "mz3220": 2494, "mz3221": 2495, "mz3222": 2496, "mz3223": 2497, "mz3224": 2498, "mz3225": 2499, "mz3226": 2500, "mz3227": 2501, "mz3228": 2502, "mz3229": 2503, "mz323": 2504, "mz3230": 2505, "mz3231": 2506, "mz3232": 2507, "mz3233": 2508, "mz3234": 2509, "mz3235": 2510, "mz3236": 2511, "mz3237": 2512, "mz3238": 2513, "mz3239": 2514, "mz324": 2515, "mz3240": 2516, "mz3241": 2517, "mz3242": 2518, "mz3243": 2519, "mz3244": 2520, "mz3245": 2521, "mz3246": 2522, "mz3247": 2523, "mz3248": 2524, "mz3249": 2525, "mz325": 2526, "mz3250": 2527, "mz3251": 2528, "mz3252": 2529, "mz3253": 2530, "mz3254": 2531, "mz3255": 2532, "mz3256": 2533, "mz3257": 2534, "mz3258": 2535, "mz3259": 2536, "mz326": 2537, "mz3260": 2538, "mz3261": 2539, "mz3262": 2540, "mz3263": 2541, "mz3264": 2542, "mz3265": 2543, "mz3266": 2544, "mz3267": 2545, "mz3268": 2546, "mz3269": 2547, "mz327": 2548, "mz3270": 2549, "mz3271": 2550, "mz3272": 2551, "mz3273": 2552, "mz3274": 2553, "mz3275": 2554, "mz3276": 2555, "mz3277": 2556, "mz3278": 2557, "mz3279": 2558, "mz328": 2559, "mz3280": 2560, "mz3281": 2561, "mz3282": 2562, "mz3283": 2563, "mz3284": 2564, "mz3285": 2565, "mz3286": 2566, "mz3287": 2567, "mz3288": 2568, "mz3289": 2569, "mz329": 2570, "mz3290": 2571, "mz3291": 2572, "mz3292": 2573, "mz3293": 2574, "mz3294": 2575, "mz3295": 2576, "mz3296": 2577, "mz3297": 2578, "mz3298": 2579, "mz3299": 2580, "mz33": 2581, "mz330": 2582, "mz3300": 2583, "mz3301": 2584, "mz3302": 2585, "mz3303": 2586, "mz3304": 2587, "mz3305": 2588, "mz3306": 2589, "mz3307": 2590, "mz3308": 2591, "mz3309": 2592, "mz331": 2593, "mz3310": 2594, "mz3311": 2595, "mz3312": 2596, "mz3313": 2597, "mz3314": 2598, "mz3315": 2599, "mz3316": 2600, "mz3317": 2601, "mz3318": 2602, "mz3319": 2603, "mz332": 2604, "mz3320": 2605, "mz3321": 2606, "mz3322": 2607, "mz3323": 2608, "mz3324": 2609, "mz3325": 2610, "mz3326": 2611, "mz3327": 2612, "mz3328": 2613, "mz3329": 2614, "mz333": 2615, "mz3330": 2616, "mz3331": 2617, "mz3332": 2618, "mz3333": 2619, "mz3334": 2620, "mz3335": 2621, "mz3336": 2622, "mz3337": 2623, "mz3338": 2624, "mz3339": 2625, "mz334": 2626, "mz3340": 2627, "mz3341": 2628, "mz3342": 2629, "mz3343": 2630, "mz3344": 2631, "mz3345": 2632, "mz3346": 2633, "mz3347": 2634, "mz3348": 2635, "mz3349": 2636, "mz335": 2637, "mz3350": 2638, "mz3351": 2639, "mz3352": 2640, "mz3353": 2641, "mz3354": 2642, "mz3355": 2643, "mz3356": 2644, "mz3357": 2645, "mz3358": 2646, "mz3359": 2647, "mz336": 2648, "mz3360": 2649, "mz3361": 2650, "mz3362": 2651, "mz3363": 2652, "mz3364": 2653, "mz3365": 2654, "mz3366": 2655, "mz3367": 2656, "mz3368": 2657, "mz3369": 2658, "mz337": 2659, "mz3370": 2660, "mz3371": 2661, "mz3372": 2662, "mz3373": 2663, "mz3374": 2664, "mz3375": 2665, "mz3376": 2666, "mz3377": 2667, "mz3378": 2668, "mz3379": 2669, "mz338": 2670, "mz3380": 2671, "mz3381": 2672, "mz3382": 2673, "mz3383": 2674, "mz3384": 2675, "mz3385": 2676, "mz3386": 2677, "mz3387": 2678, "mz3388": 2679, "mz3389": 2680, "mz339": 2681, "mz3390": 2682, "mz3391": 2683, "mz3392": 2684, "mz3393": 2685, "mz3394": 2686, "mz3395": 2687, "mz3396": 2688, "mz3397": 2689, "mz3398": 2690, "mz3399": 2691, "mz34": 2692, "mz340": 2693, "mz3400": 2694, "mz3401": 2695, "mz3402": 2696, "mz3403": 2697, "mz3404": 2698, "mz3405": 2699, "mz3406": 2700, "mz3407": 2701, "mz3408": 2702, "mz3409": 2703, "mz341": 2704, "mz3410": 2705, "mz3411": 2706, "mz3412": 2707, "mz3413": 2708, "mz3414": 2709, "mz3415": 2710, "mz3416": 2711, "mz3417": 2712, "mz3418": 2713, "mz3419": 2714, "mz342": 2715, "mz3420": 2716, "mz3421": 2717, "mz3422": 2718, "mz3423": 2719, "mz3424": 2720, "mz3425": 2721, "mz3426": 2722, "mz3427": 2723, "mz3428": 2724, "mz3429": 2725, "mz343": 2726, "mz3430": 2727, "mz3431": 2728, "mz3432": 2729, "mz3433": 2730, "mz3434": 2731, "mz3435": 2732, "mz3436": 2733, "mz3437": 2734, "mz3438": 2735, "mz3439": 2736, "mz344": 2737, "mz3440": 2738, "mz3441": 2739, "mz3442": 2740, "mz3443": 2741, "mz3444": 2742, "mz3445": 2743, "mz3446": 2744, "mz3447": 2745, "mz3448": 2746, "mz3449": 2747, "mz345": 2748, "mz3450": 2749, "mz3451": 2750, "mz3452": 2751, "mz3453": 2752, "mz3454": 2753, "mz3455": 2754, "mz3456": 2755, "mz3457": 2756, "mz3458": 2757, "mz3459": 2758, "mz346": 2759, "mz3460": 2760, "mz3461": 2761, "mz3462": 2762, "mz3463": 2763, "mz3464": 2764, "mz3465": 2765, "mz3466": 2766, "mz3467": 2767, "mz3468": 2768, "mz3469": 2769, "mz347": 2770, "mz3470": 2771, "mz3471": 2772, "mz3472": 2773, "mz3473": 2774, "mz3474": 2775, "mz3475": 2776, "mz3476": 2777, "mz3477": 2778, "mz3478": 2779, "mz3479": 2780, "mz348": 2781, "mz3480": 2782, "mz3481": 2783, "mz3482": 2784, "mz3483": 2785, "mz3484": 2786, "mz3485": 2787, "mz3486": 2788, "mz3487": 2789, "mz3488": 2790, "mz3489": 2791, "mz349": 2792, "mz3490": 2793, "mz3491": 2794, "mz3492": 2795, "mz3493": 2796, "mz3494": 2797, "mz3495": 2798, "mz3496": 2799, "mz3497": 2800, "mz3498": 2801, "mz3499": 2802, "mz35": 2803, "mz350": 2804, "mz3500": 2805, "mz3501": 2806, "mz3502": 2807, "mz3503": 2808, "mz3504": 2809, "mz3505": 2810, "mz3506": 2811, "mz3507": 2812, "mz3508": 2813, "mz3509": 2814, "mz351": 2815, "mz3510": 2816, "mz3511": 2817, "mz3512": 2818, "mz3513": 2819, "mz3514": 2820, "mz3515": 2821, "mz3516": 2822, "mz3517": 2823, "mz3518": 2824, "mz3519": 2825, "mz352": 2826, "mz3520": 2827, "mz3521": 2828, "mz3522": 2829, "mz3523": 2830, "mz3524": 2831, "mz3525": 2832, "mz3526": 2833, "mz3527": 2834, "mz3528": 2835, "mz3529": 2836, "mz353": 2837, "mz3530": 2838, "mz3531": 2839, "mz3532": 2840, "mz3533": 2841, "mz3534": 2842, "mz3535": 2843, "mz3536": 2844, "mz3537": 2845, "mz3538": 2846, "mz3539": 2847, "mz354": 2848, "mz3540": 2849, "mz3541": 2850, "mz3542": 2851, "mz3543": 2852, "mz3544": 2853, "mz3545": 2854, "mz3546": 2855, "mz3547": 2856, "mz3548": 2857, "mz3549": 2858, "mz355": 2859, "mz3550": 2860, "mz3551": 2861, "mz3552": 2862, "mz3553": 2863, "mz3554": 2864, "mz3555": 2865, "mz3556": 2866, "mz3557": 2867, "mz3558": 2868, "mz3559": 2869, "mz356": 2870, "mz3560": 2871, "mz3561": 2872, "mz3562": 2873, "mz3563": 2874, "mz3564": 2875, "mz3565": 2876, "mz3566": 2877, "mz3567": 2878, "mz3568": 2879, "mz3569": 2880, "mz357": 2881, "mz3570": 2882, "mz3571": 2883, "mz3572": 2884, "mz3573": 2885, "mz3574": 2886, "mz3575": 2887, "mz3576": 2888, "mz3577": 2889, "mz3578": 2890, "mz3579": 2891, "mz358": 2892, "mz3580": 2893, "mz3581": 2894, "mz3582": 2895, "mz3583": 2896, "mz3584": 2897, "mz3585": 2898, "mz3586": 2899, "mz3587": 2900, "mz3588": 2901, "mz3589": 2902, "mz359": 2903, "mz3590": 2904, "mz3591": 2905, "mz3592": 2906, "mz3593": 2907, "mz3594": 2908, "mz3595": 2909, "mz3596": 2910, "mz3597": 2911, "mz3598": 2912, "mz3599": 2913, "mz36": 2914, "mz360": 2915, "mz3600": 2916, "mz3601": 2917, "mz3602": 2918, "mz3603": 2919, "mz3604": 2920, "mz3605": 2921, "mz3606": 2922, "mz3607": 2923, "mz3608": 2924, "mz3609": 2925, "mz361": 2926, "mz3610": 2927, "mz3611": 2928, "mz3612": 2929, "mz3613": 2930, "mz3614": 2931, "mz3615": 2932, "mz3616": 2933, "mz3617": 2934, "mz3618": 2935, "mz3619": 2936, "mz362": 2937, "mz3620": 2938, "mz3621": 2939, "mz3622": 2940, "mz3623": 2941, "mz3624": 2942, "mz3625": 2943, "mz3626": 2944, "mz3627": 2945, "mz3628": 2946, "mz3629": 2947, "mz363": 2948, "mz3630": 2949, "mz3631": 2950, "mz3632": 2951, "mz3633": 2952, "mz3634": 2953, "mz3635": 2954, "mz3636": 2955, "mz3637": 2956, "mz3638": 2957, "mz3639": 2958, "mz364": 2959, "mz3640": 2960, "mz3641": 2961, "mz3642": 2962, "mz3643": 2963, "mz3644": 2964, "mz3645": 2965, "mz3646": 2966, "mz3647": 2967, "mz3648": 2968, "mz3649": 2969, "mz365": 2970, "mz3650": 2971, "mz3651": 2972, "mz3652": 2973, "mz3653": 2974, "mz3654": 2975, "mz3655": 2976, "mz3656": 2977, "mz3657": 2978, "mz3658": 2979, "mz3659": 2980, "mz366": 2981, "mz3660": 2982, "mz3661": 2983, "mz3662": 2984, "mz3663": 2985, "mz3664": 2986, "mz3665": 2987, "mz3666": 2988, "mz3667": 2989, "mz3668": 2990, "mz3669": 2991, "mz367": 2992, "mz3670": 2993, "mz3671": 2994, "mz3672": 2995, "mz3673": 2996, "mz3674": 2997, "mz3675": 2998, "mz3676": 2999, "mz3677": 3000, "mz3678": 3001, "mz3679": 3002, "mz368": 3003, "mz3680": 3004, "mz3681": 3005, "mz3682": 3006, "mz3683": 3007, "mz3684": 3008, "mz3685": 3009, "mz3686": 3010, "mz3687": 3011, "mz3688": 3012, "mz3689": 3013, "mz369": 3014, "mz3690": 3015, "mz3691": 3016, "mz3692": 3017, "mz3693": 3018, "mz3694": 3019, "mz3695": 3020, "mz3696": 3021, "mz3697": 3022, "mz3698": 3023, "mz3699": 3024, "mz37": 3025, "mz370": 3026, "mz3700": 3027, "mz3701": 3028, "mz3702": 3029, "mz3703": 3030, "mz3704": 3031, "mz3705": 3032, "mz3706": 3033, "mz3707": 3034, "mz3708": 3035, "mz3709": 3036, "mz371": 3037, "mz3710": 3038, "mz3711": 3039, "mz3712": 3040, "mz3713": 3041, "mz3714": 3042, "mz3715": 3043, "mz3716": 3044, "mz3717": 3045, "mz3718": 3046, "mz3719": 3047, "mz372": 3048, "mz3720": 3049, "mz3721": 3050, "mz3722": 3051, "mz3723": 3052, "mz3724": 3053, "mz3725": 3054, "mz3726": 3055, "mz3727": 3056, "mz3728": 3057, "mz3729": 3058, "mz373": 3059, "mz3730": 3060, "mz3731": 3061, "mz3732": 3062, "mz3733": 3063, "mz3734": 3064, "mz3735": 3065, "mz3736": 3066, "mz3737": 3067, "mz3738": 3068, "mz3739": 3069, "mz374": 3070, "mz3740": 3071, "mz3741": 3072, "mz3742": 3073, "mz3743": 3074, "mz3744": 3075, "mz3745": 3076, "mz3746": 3077, "mz3747": 3078, "mz3748": 3079, "mz3749": 3080, "mz375": 3081, "mz3750": 3082, "mz3751": 3083, "mz3752": 3084, "mz3753": 3085, "mz3754": 3086, "mz3755": 3087, "mz3756": 3088, "mz3757": 3089, "mz3758": 3090, "mz3759": 3091, "mz376": 3092, "mz3760": 3093, "mz3761": 3094, "mz3762": 3095, "mz3763": 3096, "mz3764": 3097, "mz3765": 3098, "mz3766": 3099, "mz3767": 3100, "mz3768": 3101, "mz3769": 3102, "mz377": 3103, "mz3770": 3104, "mz3771": 3105, "mz3772": 3106, "mz3773": 3107, "mz3774": 3108, "mz3775": 3109, "mz3776": 3110, "mz3777": 3111, "mz3778": 3112, "mz3779": 3113, "mz378": 3114, "mz3780": 3115, "mz3781": 3116, "mz3782": 3117, "mz3783": 3118, "mz3784": 3119, "mz3785": 3120, "mz3786": 3121, "mz3787": 3122, "mz3788": 3123, "mz3789": 3124, "mz379": 3125, "mz3790": 3126, "mz3791": 3127, "mz3792": 3128, "mz3793": 3129, "mz3794": 3130, "mz3795": 3131, "mz3796": 3132, "mz3797": 3133, "mz3798": 3134, "mz3799": 3135, "mz38": 3136, "mz380": 3137, "mz3800": 3138, "mz3801": 3139, "mz3802": 3140, "mz3803": 3141, "mz3804": 3142, "mz3805": 3143, "mz3806": 3144, "mz3807": 3145, "mz3808": 3146, "mz3809": 3147, "mz381": 3148, "mz3810": 3149, "mz3811": 3150, "mz3812": 3151, "mz3813": 3152, "mz3814": 3153, "mz3815": 3154, "mz3816": 3155, "mz3817": 3156, "mz3818": 3157, "mz3819": 3158, "mz382": 3159, "mz3820": 3160, "mz3821": 3161, "mz3822": 3162, "mz3823": 3163, "mz3824": 3164, "mz3825": 3165, "mz3826": 3166, "mz3827": 3167, "mz3828": 3168, "mz3829": 3169, "mz383": 3170, "mz3830": 3171, "mz3831": 3172, "mz3832": 3173, "mz3833": 3174, "mz3834": 3175, "mz3835": 3176, "mz3836": 3177, "mz3837": 3178, "mz3838": 3179, "mz3839": 3180, "mz384": 3181, "mz3840": 3182, "mz3841": 3183, "mz3842": 3184, "mz3843": 3185, "mz3844": 3186, "mz3845": 3187, "mz3846": 3188, "mz3847": 3189, "mz3848": 3190, "mz3849": 3191, "mz385": 3192, "mz3850": 3193, "mz3851": 3194, "mz3852": 3195, "mz3853": 3196, "mz3854": 3197, "mz3855": 3198, "mz3856": 3199, "mz3857": 3200, "mz3858": 3201, "mz3859": 3202, "mz386": 3203, "mz3860": 3204, "mz3861": 3205, "mz3862": 3206, "mz3863": 3207, "mz3864": 3208, "mz3865": 3209, "mz3866": 3210, "mz3867": 3211, "mz3868": 3212, "mz3869": 3213, "mz387": 3214, "mz3870": 3215, "mz3871": 3216, "mz3872": 3217, "mz3873": 3218, "mz3874": 3219, "mz3875": 3220, "mz3876": 3221, "mz3877": 3222, "mz3878": 3223, "mz3879": 3224, "mz388": 3225, "mz3880": 3226, "mz3881": 3227, "mz3882": 3228, "mz3883": 3229, "mz3884": 3230, "mz3885": 3231, "mz3886": 3232, "mz3887": 3233, "mz3888": 3234, "mz3889": 3235, "mz389": 3236, "mz3890": 3237, "mz3891": 3238, "mz3892": 3239, "mz3893": 3240, "mz3894": 3241, "mz3895": 3242, "mz3896": 3243, "mz3897": 3244, "mz3898": 3245, "mz3899": 3246, "mz39": 3247, "mz390": 3248, "mz3900": 3249, "mz3901": 3250, "mz3902": 3251, "mz3903": 3252, "mz3904": 3253, "mz3905": 3254, "mz3906": 3255, "mz3907": 3256, "mz3908": 3257, "mz3909": 3258, "mz391": 3259, "mz3910": 3260, "mz3911": 3261, "mz3912": 3262, "mz3913": 3263, "mz3914": 3264, "mz3915": 3265, "mz3916": 3266, "mz3917": 3267, "mz3918": 3268, "mz3919": 3269, "mz392": 3270, "mz3920": 3271, "mz3921": 3272, "mz3922": 3273, "mz3923": 3274, "mz3924": 3275, "mz3925": 3276, "mz3926": 3277, "mz3927": 3278, "mz3928": 3279, "mz3929": 3280, "mz393": 3281, "mz3930": 3282, "mz3931": 3283, "mz3932": 3284, "mz3933": 3285, "mz3934": 3286, "mz3935": 3287, "mz3936": 3288, "mz3937": 3289, "mz3938": 3290, "mz3939": 3291, "mz394": 3292, "mz3940": 3293, "mz3941": 3294, "mz3942": 3295, "mz3943": 3296, "mz3944": 3297, "mz3945": 3298, "mz3946": 3299, "mz3947": 3300, "mz3948": 3301, "mz3949": 3302, "mz395": 3303, "mz3950": 3304, "mz3951": 3305, "mz3952": 3306, "mz3953": 3307, "mz3954": 3308, "mz3955": 3309, "mz3956": 3310, "mz3957": 3311, "mz3958": 3312, "mz3959": 3313, "mz396": 3314, "mz3960": 3315, "mz3961": 3316, "mz3962": 3317, "mz3963": 3318, "mz3964": 3319, "mz3965": 3320, "mz3966": 3321, "mz3967": 3322, "mz3968": 3323, "mz3969": 3324, "mz397": 3325, "mz3970": 3326, "mz3971": 3327, "mz3972": 3328, "mz3973": 3329, "mz3974": 3330, "mz3975": 3331, "mz3976": 3332, "mz3977": 3333, "mz3978": 3334, "mz3979": 3335, "mz398": 3336, "mz3980": 3337, "mz3981": 3338, "mz3982": 3339, "mz3983": 3340, "mz3984": 3341, "mz3985": 3342, "mz3986": 3343, "mz3987": 3344, "mz3988": 3345, "mz3989": 3346, "mz399": 3347, "mz3990": 3348, "mz3991": 3349, "mz3992": 3350, "mz3993": 3351, "mz3994": 3352, "mz3995": 3353, "mz3996": 3354, "mz3997": 3355, "mz3998": 3356, "mz3999": 3357, "mz4": 3358, "mz40": 3359, "mz400": 3360, "mz4000": 3361, "mz4001": 3362, "mz4002": 3363, "mz4003": 3364, "mz4004": 3365, "mz4005": 3366, "mz4006": 3367, "mz4007": 3368, "mz4008": 3369, "mz4009": 3370, "mz401": 3371, "mz4010": 3372, "mz4011": 3373, "mz4012": 3374, "mz4013": 3375, "mz4014": 3376, "mz4015": 3377, "mz4016": 3378, "mz4017": 3379, "mz4018": 3380, "mz4019": 3381, "mz402": 3382, "mz4020": 3383, "mz4021": 3384, "mz4022": 3385, "mz4023": 3386, "mz4024": 3387, "mz4025": 3388, "mz4026": 3389, "mz4027": 3390, "mz4028": 3391, "mz4029": 3392, "mz403": 3393, "mz4030": 3394, "mz4031": 3395, "mz4032": 3396, "mz4033": 3397, "mz4034": 3398, "mz4035": 3399, "mz4036": 3400, "mz4037": 3401, "mz4038": 3402, "mz4039": 3403, "mz404": 3404, "mz4040": 3405, "mz4041": 3406, "mz4042": 3407, "mz4043": 3408, "mz4044": 3409, "mz4045": 3410, "mz4046": 3411, "mz4047": 3412, "mz4048": 3413, "mz4049": 3414, "mz405": 3415, "mz4050": 3416, "mz4051": 3417, "mz4052": 3418, "mz4053": 3419, "mz4054": 3420, "mz4055": 3421, "mz4056": 3422, "mz4057": 3423, "mz4058": 3424, "mz4059": 3425, "mz406": 3426, "mz4060": 3427, "mz4061": 3428, "mz4062": 3429, "mz4063": 3430, "mz4064": 3431, "mz4065": 3432, "mz4066": 3433, "mz4067": 3434, "mz4068": 3435, "mz4069": 3436, "mz407": 3437, "mz4070": 3438, "mz4071": 3439, "mz4072": 3440, "mz4073": 3441, "mz4074": 3442, "mz4075": 3443, "mz4076": 3444, "mz4077": 3445, "mz4078": 3446, "mz4079": 3447, "mz408": 3448, "mz4080": 3449, "mz4081": 3450, "mz4082": 3451, "mz4083": 3452, "mz4084": 3453, "mz4085": 3454, "mz4086": 3455, "mz4087": 3456, "mz4088": 3457, "mz4089": 3458, "mz409": 3459, "mz4090": 3460, "mz4091": 3461, "mz4092": 3462, "mz4093": 3463, "mz4094": 3464, "mz4095": 3465, "mz4096": 3466, "mz4097": 3467, "mz4098": 3468, "mz4099": 3469, "mz41": 3470, "mz410": 3471, "mz4100": 3472, "mz4101": 3473, "mz4102": 3474, "mz4103": 3475, "mz4104": 3476, "mz4105": 3477, "mz4106": 3478, "mz4107": 3479, "mz4108": 3480, "mz4109": 3481, "mz411": 3482, "mz4110": 3483, "mz4111": 3484, "mz4112": 3485, "mz4113": 3486, "mz4114": 3487, "mz4115": 3488, "mz4116": 3489, "mz4117": 3490, "mz4118": 3491, "mz4119": 3492, "mz412": 3493, "mz4120": 3494, "mz4121": 3495, "mz4122": 3496, "mz4123": 3497, "mz4124": 3498, "mz4125": 3499, "mz4126": 3500, "mz4127": 3501, "mz4128": 3502, "mz4129": 3503, "mz413": 3504, "mz4130": 3505, "mz4131": 3506, "mz4132": 3507, "mz4133": 3508, "mz4134": 3509, "mz4135": 3510, "mz4136": 3511, "mz4137": 3512, "mz4138": 3513, "mz4139": 3514, "mz414": 3515, "mz4140": 3516, "mz4141": 3517, "mz4142": 3518, "mz4143": 3519, "mz4144": 3520, "mz4145": 3521, "mz4146": 3522, "mz4147": 3523, "mz4148": 3524, "mz4149": 3525, "mz415": 3526, "mz4150": 3527, "mz4151": 3528, "mz4152": 3529, "mz4153": 3530, "mz4154": 3531, "mz4155": 3532, "mz4156": 3533, "mz4157": 3534, "mz4158": 3535, "mz4159": 3536, "mz416": 3537, "mz4160": 3538, "mz4161": 3539, "mz4162": 3540, "mz4163": 3541, "mz4164": 3542, "mz4165": 3543, "mz4166": 3544, "mz4167": 3545, "mz4168": 3546, "mz4169": 3547, "mz417": 3548, "mz4170": 3549, "mz4171": 3550, "mz4172": 3551, "mz4173": 3552, "mz4174": 3553, "mz4175": 3554, "mz4176": 3555, "mz4177": 3556, "mz4178": 3557, "mz4179": 3558, "mz418": 3559, "mz4180": 3560, "mz4181": 3561, "mz4182": 3562, "mz4183": 3563, "mz4184": 3564, "mz4185": 3565, "mz4186": 3566, "mz4187": 3567, "mz4188": 3568, "mz4189": 3569, "mz419": 3570, "mz4190": 3571, "mz4191": 3572, "mz4192": 3573, "mz4193": 3574, "mz4194": 3575, "mz4195": 3576, "mz4196": 3577, "mz4197": 3578, "mz4198": 3579, "mz4199": 3580, "mz42": 3581, "mz420": 3582, "mz4200": 3583, "mz4201": 3584, "mz4202": 3585, "mz4203": 3586, "mz4204": 3587, "mz4205": 3588, "mz4206": 3589, "mz4207": 3590, "mz4208": 3591, "mz4209": 3592, "mz421": 3593, "mz4210": 3594, "mz4211": 3595, "mz4212": 3596, "mz4213": 3597, "mz4214": 3598, "mz4215": 3599, "mz4216": 3600, "mz4217": 3601, "mz4218": 3602, "mz4219": 3603, "mz422": 3604, "mz4220": 3605, "mz4221": 3606, "mz4222": 3607, "mz4223": 3608, "mz4224": 3609, "mz4225": 3610, "mz4226": 3611, "mz4227": 3612, "mz4228": 3613, "mz4229": 3614, "mz423": 3615, "mz4230": 3616, "mz4231": 3617, "mz4232": 3618, "mz4233": 3619, "mz4234": 3620, "mz4235": 3621, "mz4236": 3622, "mz4237": 3623, "mz4238": 3624, "mz4239": 3625, "mz424": 3626, "mz4240": 3627, "mz4241": 3628, "mz4242": 3629, "mz4243": 3630, "mz4244": 3631, "mz4245": 3632, "mz4246": 3633, "mz4247": 3634, "mz4248": 3635, "mz4249": 3636, "mz425": 3637, "mz4250": 3638, "mz4251": 3639, "mz4252": 3640, "mz4253": 3641, "mz4254": 3642, "mz4255": 3643, "mz4256": 3644, "mz4257": 3645, "mz4258": 3646, "mz4259": 3647, "mz426": 3648, "mz4260": 3649, "mz4261": 3650, "mz4262": 3651, "mz4263": 3652, "mz4264": 3653, "mz4265": 3654, "mz4266": 3655, "mz4267": 3656, "mz4268": 3657, "mz4269": 3658, "mz427": 3659, "mz4270": 3660, "mz4271": 3661, "mz4272": 3662, "mz4273": 3663, "mz4274": 3664, "mz4275": 3665, "mz4276": 3666, "mz4277": 3667, "mz4278": 3668, "mz4279": 3669, "mz428": 3670, "mz4280": 3671, "mz4281": 3672, "mz4282": 3673, "mz4283": 3674, "mz4284": 3675, "mz4285": 3676, "mz4286": 3677, "mz4287": 3678, "mz4288": 3679, "mz4289": 3680, "mz429": 3681, "mz4290": 3682, "mz4291": 3683, "mz4292": 3684, "mz4293": 3685, "mz4294": 3686, "mz4295": 3687, "mz4296": 3688, "mz4297": 3689, "mz4298": 3690, "mz4299": 3691, "mz43": 3692, "mz430": 3693, "mz4300": 3694, "mz4301": 3695, "mz4302": 3696, "mz4303": 3697, "mz4304": 3698, "mz4305": 3699, "mz4306": 3700, "mz4307": 3701, "mz4308": 3702, "mz4309": 3703, "mz431": 3704, "mz4310": 3705, "mz4311": 3706, "mz4312": 3707, "mz4313": 3708, "mz4314": 3709, "mz4315": 3710, "mz4316": 3711, "mz4317": 3712, "mz4318": 3713, "mz4319": 3714, "mz432": 3715, "mz4320": 3716, "mz4321": 3717, "mz4322": 3718, "mz4323": 3719, "mz4324": 3720, "mz4325": 3721, "mz4326": 3722, "mz4327": 3723, "mz4328": 3724, "mz4329": 3725, "mz433": 3726, "mz4330": 3727, "mz4331": 3728, "mz4332": 3729, "mz4333": 3730, "mz4334": 3731, "mz4335": 3732, "mz4336": 3733, "mz4337": 3734, "mz4338": 3735, "mz4339": 3736, "mz434": 3737, "mz4340": 3738, "mz4341": 3739, "mz4342": 3740, "mz4343": 3741, "mz4344": 3742, "mz4345": 3743, "mz4346": 3744, "mz4347": 3745, "mz4348": 3746, "mz4349": 3747, "mz435": 3748, "mz4350": 3749, "mz4351": 3750, "mz4352": 3751, "mz4353": 3752, "mz4354": 3753, "mz4355": 3754, "mz4356": 3755, "mz4357": 3756, "mz4358": 3757, "mz4359": 3758, "mz436": 3759, "mz4360": 3760, "mz4361": 3761, "mz4362": 3762, "mz4363": 3763, "mz4364": 3764, "mz4365": 3765, "mz4366": 3766, "mz4367": 3767, "mz4368": 3768, "mz4369": 3769, "mz437": 3770, "mz4370": 3771, "mz4371": 3772, "mz4372": 3773, "mz4373": 3774, "mz4374": 3775, "mz4375": 3776, "mz4376": 3777, "mz4377": 3778, "mz4378": 3779, "mz4379": 3780, "mz438": 3781, "mz4380": 3782, "mz4381": 3783, "mz4382": 3784, "mz4383": 3785, "mz4384": 3786, "mz4385": 3787, "mz4386": 3788, "mz4387": 3789, "mz4388": 3790, "mz4389": 3791, "mz439": 3792, "mz4390": 3793, "mz4391": 3794, "mz4392": 3795, "mz4393": 3796, "mz4394": 3797, "mz4395": 3798, "mz4396": 3799, "mz4397": 3800, "mz4398": 3801, "mz4399": 3802, "mz44": 3803, "mz440": 3804, "mz4400": 3805, "mz4401": 3806, "mz4402": 3807, "mz4403": 3808, "mz4404": 3809, "mz4405": 3810, "mz4406": 3811, "mz4407": 3812, "mz4408": 3813, "mz4409": 3814, "mz441": 3815, "mz4410": 3816, "mz4411": 3817, "mz4412": 3818, "mz4413": 3819, "mz4414": 3820, "mz4415": 3821, "mz4416": 3822, "mz4417": 3823, "mz4418": 3824, "mz4419": 3825, "mz442": 3826, "mz4420": 3827, "mz4421": 3828, "mz4422": 3829, "mz4423": 3830, "mz4424": 3831, "mz4425": 3832, "mz4426": 3833, "mz4427": 3834, "mz4428": 3835, "mz4429": 3836, "mz443": 3837, "mz4430": 3838, "mz4431": 3839, "mz4432": 3840, "mz4433": 3841, "mz4434": 3842, "mz4435": 3843, "mz4436": 3844, "mz4437": 3845, "mz4438": 3846, "mz4439": 3847, "mz444": 3848, "mz4440": 3849, "mz4441": 3850, "mz4442": 3851, "mz4443": 3852, "mz4444": 3853, "mz4445": 3854, "mz4446": 3855, "mz4447": 3856, "mz4448": 3857, "mz4449": 3858, "mz445": 3859, "mz4450": 3860, "mz4451": 3861, "mz4452": 3862, "mz4453": 3863, "mz4454": 3864, "mz4455": 3865, "mz4456": 3866, "mz4457": 3867, "mz4458": 3868, "mz4459": 3869, "mz446": 3870, "mz4460": 3871, "mz4461": 3872, "mz4462": 3873, "mz4463": 3874, "mz4464": 3875, "mz4465": 3876, "mz4466": 3877, "mz4467": 3878, "mz4468": 3879, "mz4469": 3880, "mz447": 3881, "mz4470": 3882, "mz4471": 3883, "mz4472": 3884, "mz4473": 3885, "mz4474": 3886, "mz4475": 3887, "mz4476": 3888, "mz4477": 3889, "mz4478": 3890, "mz4479": 3891, "mz448": 3892, "mz4480": 3893, "mz4481": 3894, "mz4482": 3895, "mz4483": 3896, "mz4484": 3897, "mz4485": 3898, "mz4486": 3899, "mz4487": 3900, "mz4488": 3901, "mz4489": 3902, "mz449": 3903, "mz4490": 3904, "mz4491": 3905, "mz4492": 3906, "mz4493": 3907, "mz4494": 3908, "mz4495": 3909, "mz4496": 3910, "mz4497": 3911, "mz4498": 3912, "mz4499": 3913, "mz45": 3914, "mz450": 3915, "mz4500": 3916, "mz4501": 3917, "mz4502": 3918, "mz4503": 3919, "mz4504": 3920, "mz4505": 3921, "mz4506": 3922, "mz4507": 3923, "mz4508": 3924, "mz4509": 3925, "mz451": 3926, "mz4510": 3927, "mz4511": 3928, "mz4512": 3929, "mz4513": 3930, "mz4514": 3931, "mz4515": 3932, "mz4516": 3933, "mz4517": 3934, "mz4518": 3935, "mz4519": 3936, "mz452": 3937, "mz4520": 3938, "mz4521": 3939, "mz4522": 3940, "mz4523": 3941, "mz4524": 3942, "mz4525": 3943, "mz4526": 3944, "mz4527": 3945, "mz4528": 3946, "mz4529": 3947, "mz453": 3948, "mz4530": 3949, "mz4531": 3950, "mz4532": 3951, "mz4533": 3952, "mz4534": 3953, "mz4535": 3954, "mz4536": 3955, "mz4537": 3956, "mz4538": 3957, "mz4539": 3958, "mz454": 3959, "mz4540": 3960, "mz4541": 3961, "mz4542": 3962, "mz4543": 3963, "mz4544": 3964, "mz4545": 3965, "mz4546": 3966, "mz4547": 3967, "mz4548": 3968, "mz4549": 3969, "mz455": 3970, "mz4550": 3971, "mz4551": 3972, "mz4552": 3973, "mz4553": 3974, "mz4554": 3975, "mz4555": 3976, "mz4556": 3977, "mz4557": 3978, "mz4558": 3979, "mz4559": 3980, "mz456": 3981, "mz4560": 3982, "mz4561": 3983, "mz4562": 3984, "mz4563": 3985, "mz4564": 3986, "mz4565": 3987, "mz4566": 3988, "mz4567": 3989, "mz4568": 3990, "mz4569": 3991, "mz457": 3992, "mz4570": 3993, "mz4571": 3994, "mz4572": 3995, "mz4573": 3996, "mz4574": 3997, "mz4575": 3998, "mz4576": 3999, "mz4577": 4000, "mz4578": 4001, "mz4579": 4002, "mz458": 4003, "mz4580": 4004, "mz4581": 4005, "mz4582": 4006, "mz4583": 4007, "mz4584": 4008, "mz4585": 4009, "mz4586": 4010, "mz4587": 4011, "mz4588": 4012, "mz4589": 4013, "mz459": 4014, "mz4590": 4015, "mz4591": 4016, "mz4592": 4017, "mz4593": 4018, "mz4594": 4019, "mz4595": 4020, "mz4596": 4021, "mz4597": 4022, "mz4598": 4023, "mz4599": 4024, "mz46": 4025, "mz460": 4026, "mz4600": 4027, "mz4601": 4028, "mz4602": 4029, "mz4603": 4030, "mz4604": 4031, "mz4605": 4032, "mz4606": 4033, "mz4607": 4034, "mz4608": 4035, "mz4609": 4036, "mz461": 4037, "mz4610": 4038, "mz4611": 4039, "mz4612": 4040, "mz4613": 4041, "mz4614": 4042, "mz4615": 4043, "mz4616": 4044, "mz4617": 4045, "mz4618": 4046, "mz4619": 4047, "mz462": 4048, "mz4620": 4049, "mz4621": 4050, "mz4622": 4051, "mz4623": 4052, "mz4624": 4053, "mz4625": 4054, "mz4626": 4055, "mz4627": 4056, "mz4628": 4057, "mz4629": 4058, "mz463": 4059, "mz4630": 4060, "mz4631": 4061, "mz4632": 4062, "mz4633": 4063, "mz4634": 4064, "mz4635": 4065, "mz4636": 4066, "mz4637": 4067, "mz4638": 4068, "mz4639": 4069, "mz464": 4070, "mz4640": 4071, "mz4641": 4072, "mz4642": 4073, "mz4643": 4074, "mz4644": 4075, "mz4645": 4076, "mz4646": 4077, "mz4647": 4078, "mz4648": 4079, "mz4649": 4080, "mz465": 4081, "mz4650": 4082, "mz4651": 4083, "mz4652": 4084, "mz4653": 4085, "mz4654": 4086, "mz4655": 4087, "mz4656": 4088, "mz4657": 4089, "mz4658": 4090, "mz4659": 4091, "mz466": 4092, "mz4660": 4093, "mz4661": 4094, "mz4662": 4095, "mz4663": 4096, "mz4664": 4097, "mz4665": 4098, "mz4666": 4099, "mz4667": 4100, "mz4668": 4101, "mz4669": 4102, "mz467": 4103, "mz4670": 4104, "mz4671": 4105, "mz4672": 4106, "mz4673": 4107, "mz4674": 4108, "mz4675": 4109, "mz4676": 4110, "mz4677": 4111, "mz4678": 4112, "mz4679": 4113, "mz468": 4114, "mz4680": 4115, "mz4681": 4116, "mz4682": 4117, "mz4683": 4118, "mz4684": 4119, "mz4685": 4120, "mz4686": 4121, "mz4687": 4122, "mz4688": 4123, "mz4689": 4124, "mz469": 4125, "mz4690": 4126, "mz4691": 4127, "mz4692": 4128, "mz4693": 4129, "mz4694": 4130, "mz4695": 4131, "mz4696": 4132, "mz4697": 4133, "mz4698": 4134, "mz4699": 4135, "mz47": 4136, "mz470": 4137, "mz4700": 4138, "mz4701": 4139, "mz4702": 4140, "mz4703": 4141, "mz4704": 4142, "mz4705": 4143, "mz4706": 4144, "mz4707": 4145, "mz4708": 4146, "mz4709": 4147, "mz471": 4148, "mz4710": 4149, "mz4711": 4150, "mz4712": 4151, "mz4713": 4152, "mz4714": 4153, "mz4715": 4154, "mz4716": 4155, "mz4717": 4156, "mz4718": 4157, "mz4719": 4158, "mz472": 4159, "mz4720": 4160, "mz4721": 4161, "mz4722": 4162, "mz4723": 4163, "mz4724": 4164, "mz4725": 4165, "mz4726": 4166, "mz4727": 4167, "mz4728": 4168, "mz4729": 4169, "mz473": 4170, "mz4730": 4171, "mz4731": 4172, "mz4732": 4173, "mz4733": 4174, "mz4734": 4175, "mz4735": 4176, "mz4736": 4177, "mz4737": 4178, "mz4738": 4179, "mz4739": 4180, "mz474": 4181, "mz4740": 4182, "mz4741": 4183, "mz4742": 4184, "mz4743": 4185, "mz4744": 4186, "mz4745": 4187, "mz4746": 4188, "mz4747": 4189, "mz4748": 4190, "mz4749": 4191, "mz475": 4192, "mz4750": 4193, "mz4751": 4194, "mz4752": 4195, "mz4753": 4196, "mz4754": 4197, "mz4755": 4198, "mz4756": 4199, "mz4757": 4200, "mz4758": 4201, "mz4759": 4202, "mz476": 4203, "mz4760": 4204, "mz4761": 4205, "mz4762": 4206, "mz4763": 4207, "mz4764": 4208, "mz4765": 4209, "mz4766": 4210, "mz4767": 4211, "mz4768": 4212, "mz4769": 4213, "mz477": 4214, "mz4770": 4215, "mz4771": 4216, "mz4772": 4217, "mz4773": 4218, "mz4774": 4219, "mz4775": 4220, "mz4776": 4221, "mz4777": 4222, "mz4778": 4223, "mz4779": 4224, "mz478": 4225, "mz4780": 4226, "mz4781": 4227, "mz4782": 4228, "mz4783": 4229, "mz4784": 4230, "mz4785": 4231, "mz4786": 4232, "mz4787": 4233, "mz4788": 4234, "mz4789": 4235, "mz479": 4236, "mz4790": 4237, "mz4791": 4238, "mz4792": 4239, "mz4793": 4240, "mz4794": 4241, "mz4795": 4242, "mz4796": 4243, "mz4797": 4244, "mz4798": 4245, "mz4799": 4246, "mz48": 4247, "mz480": 4248, "mz4800": 4249, "mz4801": 4250, "mz4802": 4251, "mz4803": 4252, "mz4804": 4253, "mz4805": 4254, "mz4806": 4255, "mz4807": 4256, "mz4808": 4257, "mz4809": 4258, "mz481": 4259, "mz4810": 4260, "mz4811": 4261, "mz4812": 4262, "mz4813": 4263, "mz4814": 4264, "mz4815": 4265, "mz4816": 4266, "mz4817": 4267, "mz4818": 4268, "mz4819": 4269, "mz482": 4270, "mz4820": 4271, "mz4821": 4272, "mz4822": 4273, "mz4823": 4274, "mz4824": 4275, "mz4825": 4276, "mz4826": 4277, "mz4827": 4278, "mz4828": 4279, "mz4829": 4280, "mz483": 4281, "mz4830": 4282, "mz4831": 4283, "mz4832": 4284, "mz4833": 4285, "mz4834": 4286, "mz4835": 4287, "mz4836": 4288, "mz4837": 4289, "mz4838": 4290, "mz4839": 4291, "mz484": 4292, "mz4840": 4293, "mz4841": 4294, "mz4842": 4295, "mz4843": 4296, "mz4844": 4297, "mz4845": 4298, "mz4846": 4299, "mz4847": 4300, "mz4848": 4301, "mz4849": 4302, "mz485": 4303, "mz4850": 4304, "mz4851": 4305, "mz4852": 4306, "mz4853": 4307, "mz4854": 4308, "mz4855": 4309, "mz4856": 4310, "mz4857": 4311, "mz4858": 4312, "mz4859": 4313, "mz486": 4314, "mz4860": 4315, "mz4861": 4316, "mz4862": 4317, "mz4863": 4318, "mz4864": 4319, "mz4865": 4320, "mz4866": 4321, "mz4867": 4322, "mz4868": 4323, "mz4869": 4324, "mz487": 4325, "mz4870": 4326, "mz4871": 4327, "mz4872": 4328, "mz4873": 4329, "mz4874": 4330, "mz4875": 4331, "mz4876": 4332, "mz4877": 4333, "mz4878": 4334, "mz4879": 4335, "mz488": 4336, "mz4880": 4337, "mz4881": 4338, "mz4882": 4339, "mz4883": 4340, "mz4884": 4341, "mz4885": 4342, "mz4886": 4343, "mz4887": 4344, "mz4888": 4345, "mz4889": 4346, "mz489": 4347, "mz4890": 4348, "mz4891": 4349, "mz4892": 4350, "mz4893": 4351, "mz4894": 4352, "mz4895": 4353, "mz4896": 4354, "mz4897": 4355, "mz4898": 4356, "mz4899": 4357, "mz49": 4358, "mz490": 4359, "mz4900": 4360, "mz4901": 4361, "mz4902": 4362, "mz4903": 4363, "mz4904": 4364, "mz4905": 4365, "mz4906": 4366, "mz4907": 4367, "mz4908": 4368, "mz4909": 4369, "mz491": 4370, "mz4910": 4371, "mz4911": 4372, "mz4912": 4373, "mz4913": 4374, "mz4914": 4375, "mz4915": 4376, "mz4916": 4377, "mz4917": 4378, "mz4918": 4379, "mz4919": 4380, "mz492": 4381, "mz4920": 4382, "mz4921": 4383, "mz4922": 4384, "mz4923": 4385, "mz4924": 4386, "mz4925": 4387, "mz4926": 4388, "mz4927": 4389, "mz4928": 4390, "mz4929": 4391, "mz493": 4392, "mz4930": 4393, "mz4931": 4394, "mz4932": 4395, "mz4933": 4396, "mz4934": 4397, "mz4935": 4398, "mz4936": 4399, "mz4937": 4400, "mz4938": 4401, "mz4939": 4402, "mz494": 4403, "mz4940": 4404, "mz4941": 4405, "mz4942": 4406, "mz4943": 4407, "mz4944": 4408, "mz4945": 4409, "mz4946": 4410, "mz4947": 4411, "mz4948": 4412, "mz4949": 4413, "mz495": 4414, "mz4950": 4415, "mz4951": 4416, "mz4952": 4417, "mz4953": 4418, "mz4954": 4419, "mz4955": 4420, "mz4956": 4421, "mz4957": 4422, "mz4958": 4423, "mz4959": 4424, "mz496": 4425, "mz4960": 4426, "mz4961": 4427, "mz4962": 4428, "mz4963": 4429, "mz4964": 4430, "mz4965": 4431, "mz4966": 4432, "mz4967": 4433, "mz4968": 4434, "mz4969": 4435, "mz497": 4436, "mz4970": 4437, "mz4971": 4438, "mz4972": 4439, "mz4973": 4440, "mz4974": 4441, "mz4975": 4442, "mz4976": 4443, "mz4977": 4444, "mz4978": 4445, "mz4979": 4446, "mz498": 4447, "mz4980": 4448, "mz4981": 4449, "mz4982": 4450, "mz4983": 4451, "mz4984": 4452, "mz4985": 4453, "mz4986": 4454, "mz4987": 4455, "mz4988": 4456, "mz4989": 4457, "mz499": 4458, "mz4990": 4459, "mz4991": 4460, "mz4992": 4461, "mz4993": 4462, "mz4994": 4463, "mz4995": 4464, "mz4996": 4465, "mz4997": 4466, "mz4998": 4467, "mz4999": 4468, "mz5": 4469, "mz50": 4470, "mz500": 4471, "mz5000": 4472, "mz5001": 4473, "mz5002": 4474, "mz5003": 4475, "mz5004": 4476, "mz5005": 4477, "mz5006": 4478, "mz5007": 4479, "mz5008": 4480, "mz5009": 4481, "mz501": 4482, "mz5010": 4483, "mz5011": 4484, "mz5012": 4485, "mz5013": 4486, "mz5014": 4487, "mz5015": 4488, "mz5016": 4489, "mz5017": 4490, "mz5018": 4491, "mz5019": 4492, "mz502": 4493, "mz5020": 4494, "mz5021": 4495, "mz5022": 4496, "mz5023": 4497, "mz5024": 4498, "mz5025": 4499, "mz5026": 4500, "mz5027": 4501, "mz5028": 4502, "mz5029": 4503, "mz503": 4504, "mz5030": 4505, "mz5031": 4506, "mz5032": 4507, "mz5033": 4508, "mz5034": 4509, "mz5035": 4510, "mz5036": 4511, "mz5037": 4512, "mz5038": 4513, "mz5039": 4514, "mz504": 4515, "mz5040": 4516, "mz5041": 4517, "mz5042": 4518, "mz5043": 4519, "mz5044": 4520, "mz5045": 4521, "mz5046": 4522, "mz5047": 4523, "mz5048": 4524, "mz5049": 4525, "mz505": 4526, "mz5050": 4527, "mz5051": 4528, "mz5052": 4529, "mz5053": 4530, "mz5054": 4531, "mz5055": 4532, "mz5056": 4533, "mz5057": 4534, "mz5058": 4535, "mz5059": 4536, "mz506": 4537, "mz5060": 4538, "mz5061": 4539, "mz5062": 4540, "mz5063": 4541, "mz5064": 4542, "mz5065": 4543, "mz5066": 4544, "mz5067": 4545, "mz5068": 4546, "mz5069": 4547, "mz507": 4548, "mz5070": 4549, "mz5071": 4550, "mz5072": 4551, "mz5073": 4552, "mz5074": 4553, "mz5075": 4554, "mz5076": 4555, "mz5077": 4556, "mz5078": 4557, "mz5079": 4558, "mz508": 4559, "mz5080": 4560, "mz5081": 4561, "mz5082": 4562, "mz5083": 4563, "mz5084": 4564, "mz5085": 4565, "mz5086": 4566, "mz5087": 4567, "mz5088": 4568, "mz5089": 4569, "mz509": 4570, "mz5090": 4571, "mz5091": 4572, "mz5092": 4573, "mz5093": 4574, "mz5094": 4575, "mz5095": 4576, "mz5096": 4577, "mz5097": 4578, "mz5098": 4579, "mz5099": 4580, "mz51": 4581, "mz510": 4582, "mz5100": 4583, "mz5101": 4584, "mz5102": 4585, "mz5103": 4586, "mz5104": 4587, "mz5105": 4588, "mz5106": 4589, "mz5107": 4590, "mz5108": 4591, "mz5109": 4592, "mz511": 4593, "mz5110": 4594, "mz5111": 4595, "mz5112": 4596, "mz5113": 4597, "mz5114": 4598, "mz5115": 4599, "mz5116": 4600, "mz5117": 4601, "mz5118": 4602, "mz5119": 4603, "mz512": 4604, "mz5120": 4605, "mz5121": 4606, "mz5122": 4607, "mz5123": 4608, "mz5124": 4609, "mz5125": 4610, "mz5126": 4611, "mz5127": 4612, "mz5128": 4613, "mz5129": 4614, "mz513": 4615, "mz5130": 4616, "mz5131": 4617, "mz5132": 4618, "mz5133": 4619, "mz5134": 4620, "mz5135": 4621, "mz5136": 4622, "mz5137": 4623, "mz5138": 4624, "mz5139": 4625, "mz514": 4626, "mz5140": 4627, "mz5141": 4628, "mz5142": 4629, "mz5143": 4630, "mz5144": 4631, "mz5145": 4632, "mz5146": 4633, "mz5147": 4634, "mz5148": 4635, "mz5149": 4636, "mz515": 4637, "mz5150": 4638, "mz5151": 4639, "mz5152": 4640, "mz5153": 4641, "mz5154": 4642, "mz5155": 4643, "mz5156": 4644, "mz5157": 4645, "mz5158": 4646, "mz5159": 4647, "mz516": 4648, "mz5160": 4649, "mz5161": 4650, "mz5162": 4651, "mz5163": 4652, "mz5164": 4653, "mz5165": 4654, "mz5166": 4655, "mz5167": 4656, "mz5168": 4657, "mz5169": 4658, "mz517": 4659, "mz5170": 4660, "mz5171": 4661, "mz5172": 4662, "mz5173": 4663, "mz5174": 4664, "mz5175": 4665, "mz5176": 4666, "mz5177": 4667, "mz5178": 4668, "mz5179": 4669, "mz518": 4670, "mz5180": 4671, "mz5181": 4672, "mz5182": 4673, "mz5183": 4674, "mz5184": 4675, "mz5185": 4676, "mz5186": 4677, "mz5187": 4678, "mz5188": 4679, "mz5189": 4680, "mz519": 4681, "mz5190": 4682, "mz5191": 4683, "mz5192": 4684, "mz5193": 4685, "mz5194": 4686, "mz5195": 4687, "mz5196": 4688, "mz5197": 4689, "mz5198": 4690, "mz5199": 4691, "mz52": 4692, "mz520": 4693, "mz5200": 4694, "mz5201": 4695, "mz5202": 4696, "mz5203": 4697, "mz5204": 4698, "mz5205": 4699, "mz5206": 4700, "mz5207": 4701, "mz5208": 4702, "mz5209": 4703, "mz521": 4704, "mz5210": 4705, "mz5211": 4706, "mz5212": 4707, "mz5213": 4708, "mz5214": 4709, "mz5215": 4710, "mz5216": 4711, "mz5217": 4712, "mz5218": 4713, "mz5219": 4714, "mz522": 4715, "mz5220": 4716, "mz5221": 4717, "mz5222": 4718, "mz5223": 4719, "mz5224": 4720, "mz5225": 4721, "mz5226": 4722, "mz5227": 4723, "mz5228": 4724, "mz5229": 4725, "mz523": 4726, "mz5230": 4727, "mz5231": 4728, "mz5232": 4729, "mz5233": 4730, "mz5234": 4731, "mz5235": 4732, "mz5236": 4733, "mz5237": 4734, "mz5238": 4735, "mz5239": 4736, "mz524": 4737, "mz5240": 4738, "mz5241": 4739, "mz5242": 4740, "mz5243": 4741, "mz5244": 4742, "mz5245": 4743, "mz5246": 4744, "mz5247": 4745, "mz5248": 4746, "mz5249": 4747, "mz525": 4748, "mz5250": 4749, "mz5251": 4750, "mz5252": 4751, "mz5253": 4752, "mz5254": 4753, "mz5255": 4754, "mz5256": 4755, "mz5257": 4756, "mz5258": 4757, "mz5259": 4758, "mz526": 4759, "mz5260": 4760, "mz5261": 4761, "mz5262": 4762, "mz5263": 4763, "mz5264": 4764, "mz5265": 4765, "mz5266": 4766, "mz5267": 4767, "mz5268": 4768, "mz5269": 4769, "mz527": 4770, "mz5270": 4771, "mz5271": 4772, "mz5272": 4773, "mz5273": 4774, "mz5274": 4775, "mz5275": 4776, "mz5276": 4777, "mz5277": 4778, "mz5278": 4779, "mz5279": 4780, "mz528": 4781, "mz5280": 4782, "mz5281": 4783, "mz5282": 4784, "mz5283": 4785, "mz5284": 4786, "mz5285": 4787, "mz5286": 4788, "mz5287": 4789, "mz5288": 4790, "mz5289": 4791, "mz529": 4792, "mz5290": 4793, "mz5291": 4794, "mz5292": 4795, "mz5293": 4796, "mz5294": 4797, "mz5295": 4798, "mz5296": 4799, "mz5297": 4800, "mz5298": 4801, "mz5299": 4802, "mz53": 4803, "mz530": 4804, "mz5300": 4805, "mz5301": 4806, "mz5302": 4807, "mz5303": 4808, "mz5304": 4809, "mz5305": 4810, "mz5306": 4811, "mz5307": 4812, "mz5308": 4813, "mz5309": 4814, "mz531": 4815, "mz5310": 4816, "mz5311": 4817, "mz5312": 4818, "mz5313": 4819, "mz5314": 4820, "mz5315": 4821, "mz5316": 4822, "mz5317": 4823, "mz5318": 4824, "mz5319": 4825, "mz532": 4826, "mz5320": 4827, "mz5321": 4828, "mz5322": 4829, "mz5323": 4830, "mz5324": 4831, "mz5325": 4832, "mz5326": 4833, "mz5327": 4834, "mz5328": 4835, "mz5329": 4836, "mz533": 4837, "mz5330": 4838, "mz5331": 4839, "mz5332": 4840, "mz5333": 4841, "mz5334": 4842, "mz5335": 4843, "mz5336": 4844, "mz5337": 4845, "mz5338": 4846, "mz5339": 4847, "mz534": 4848, "mz5340": 4849, "mz5341": 4850, "mz5342": 4851, "mz5343": 4852, "mz5344": 4853, "mz5345": 4854, "mz5346": 4855, "mz5347": 4856, "mz5348": 4857, "mz5349": 4858, "mz535": 4859, "mz5350": 4860, "mz5351": 4861, "mz5352": 4862, "mz5353": 4863, "mz5354": 4864, "mz5355": 4865, "mz5356": 4866, "mz5357": 4867, "mz5358": 4868, "mz5359": 4869, "mz536": 4870, "mz5360": 4871, "mz5361": 4872, "mz5362": 4873, "mz5363": 4874, "mz5364": 4875, "mz5365": 4876, "mz5366": 4877, "mz5367": 4878, "mz5368": 4879, "mz5369": 4880, "mz537": 4881, "mz5370": 4882, "mz5371": 4883, "mz5372": 4884, "mz5373": 4885, "mz5374": 4886, "mz5375": 4887, "mz5376": 4888, "mz5377": 4889, "mz5378": 4890, "mz5379": 4891, "mz538": 4892, "mz5380": 4893, "mz5381": 4894, "mz5382": 4895, "mz5383": 4896, "mz5384": 4897, "mz5385": 4898, "mz5386": 4899, "mz5387": 4900, "mz5388": 4901, "mz5389": 4902, "mz539": 4903, "mz5390": 4904, "mz5391": 4905, "mz5392": 4906, "mz5393": 4907, "mz5394": 4908, "mz5395": 4909, "mz5396": 4910, "mz5397": 4911, "mz5398": 4912, "mz5399": 4913, "mz54": 4914, "mz540": 4915, "mz5400": 4916, "mz5401": 4917, "mz5402": 4918, "mz5403": 4919, "mz5404": 4920, "mz5405": 4921, "mz5406": 4922, "mz5407": 4923, "mz5408": 4924, "mz5409": 4925, "mz541": 4926, "mz5410": 4927, "mz5411": 4928, "mz5412": 4929, "mz5413": 4930, "mz5414": 4931, "mz5415": 4932, "mz5416": 4933, "mz5417": 4934, "mz5418": 4935, "mz5419": 4936, "mz542": 4937, "mz5420": 4938, "mz5421": 4939, "mz5422": 4940, "mz5423": 4941, "mz5424": 4942, "mz5425": 4943, "mz5426": 4944, "mz5427": 4945, "mz5428": 4946, "mz5429": 4947, "mz543": 4948, "mz5430": 4949, "mz5431": 4950, "mz5432": 4951, "mz5433": 4952, "mz5434": 4953, "mz5435": 4954, "mz5436": 4955, "mz5437": 4956, "mz5438": 4957, "mz5439": 4958, "mz544": 4959, "mz5440": 4960, "mz5441": 4961, "mz5442": 4962, "mz5443": 4963, "mz5444": 4964, "mz5445": 4965, "mz5446": 4966, "mz5447": 4967, "mz5448": 4968, "mz5449": 4969, "mz545": 4970, "mz5450": 4971, "mz5451": 4972, "mz5452": 4973, "mz5453": 4974, "mz5454": 4975, "mz5455": 4976, "mz5456": 4977, "mz5457": 4978, "mz5458": 4979, "mz5459": 4980, "mz546": 4981, "mz5460": 4982, "mz5461": 4983, "mz5462": 4984, "mz5463": 4985, "mz5464": 4986, "mz5465": 4987, "mz5466": 4988, "mz5467": 4989, "mz5468": 4990, "mz5469": 4991, "mz547": 4992, "mz5470": 4993, "mz5471": 4994, "mz5472": 4995, "mz5473": 4996, "mz5474": 4997, "mz5475": 4998, "mz5476": 4999, "mz5477": 5000, "mz5478": 5001, "mz5479": 5002, "mz548": 5003, "mz5480": 5004, "mz5481": 5005, "mz5482": 5006, "mz5483": 5007, "mz5484": 5008, "mz5485": 5009, "mz5486": 5010, "mz5487": 5011, "mz5488": 5012, "mz5489": 5013, "mz549": 5014, "mz5490": 5015, "mz5491": 5016, "mz5492": 5017, "mz5493": 5018, "mz5494": 5019, "mz5495": 5020, "mz5496": 5021, "mz5497": 5022, "mz5498": 5023, "mz5499": 5024, "mz55": 5025, "mz550": 5026, "mz5500": 5027, "mz5501": 5028, "mz5502": 5029, "mz5503": 5030, "mz5504": 5031, "mz5505": 5032, "mz5506": 5033, "mz5507": 5034, "mz5508": 5035, "mz5509": 5036, "mz551": 5037, "mz5510": 5038, "mz5511": 5039, "mz5512": 5040, "mz5513": 5041, "mz5514": 5042, "mz5515": 5043, "mz5516": 5044, "mz5517": 5045, "mz5518": 5046, "mz5519": 5047, "mz552": 5048, "mz5520": 5049, "mz5521": 5050, "mz5522": 5051, "mz5523": 5052, "mz5524": 5053, "mz5525": 5054, "mz5526": 5055, "mz5527": 5056, "mz5528": 5057, "mz5529": 5058, "mz553": 5059, "mz5530": 5060, "mz5531": 5061, "mz5532": 5062, "mz5533": 5063, "mz5534": 5064, "mz5535": 5065, "mz5536": 5066, "mz5537": 5067, "mz5538": 5068, "mz5539": 5069, "mz554": 5070, "mz5540": 5071, "mz5541": 5072, "mz5542": 5073, "mz5543": 5074, "mz5544": 5075, "mz5545": 5076, "mz5546": 5077, "mz5547": 5078, "mz5548": 5079, "mz5549": 5080, "mz555": 5081, "mz5550": 5082, "mz5551": 5083, "mz5552": 5084, "mz5553": 5085, "mz5554": 5086, "mz5555": 5087, "mz5556": 5088, "mz5557": 5089, "mz5558": 5090, "mz5559": 5091, "mz556": 5092, "mz5560": 5093, "mz5561": 5094, "mz5562": 5095, "mz5563": 5096, "mz5564": 5097, "mz5565": 5098, "mz5566": 5099, "mz5567": 5100, "mz5568": 5101, "mz5569": 5102, "mz557": 5103, "mz5570": 5104, "mz5571": 5105, "mz5572": 5106, "mz5573": 5107, "mz5574": 5108, "mz5575": 5109, "mz5576": 5110, "mz5577": 5111, "mz5578": 5112, "mz5579": 5113, "mz558": 5114, "mz5580": 5115, "mz5581": 5116, "mz5582": 5117, "mz5583": 5118, "mz5584": 5119, "mz5585": 5120, "mz5586": 5121, "mz5587": 5122, "mz5588": 5123, "mz5589": 5124, "mz559": 5125, "mz5590": 5126, "mz5591": 5127, "mz5592": 5128, "mz5593": 5129, "mz5594": 5130, "mz5595": 5131, "mz5596": 5132, "mz5597": 5133, "mz5598": 5134, "mz5599": 5135, "mz56": 5136, "mz560": 5137, "mz5600": 5138, "mz5601": 5139, "mz5602": 5140, "mz5603": 5141, "mz5604": 5142, "mz5605": 5143, "mz5606": 5144, "mz5607": 5145, "mz5608": 5146, "mz5609": 5147, "mz561": 5148, "mz5610": 5149, "mz5611": 5150, "mz5612": 5151, "mz5613": 5152, "mz5614": 5153, "mz5615": 5154, "mz5616": 5155, "mz5617": 5156, "mz5618": 5157, "mz5619": 5158, "mz562": 5159, "mz5620": 5160, "mz5621": 5161, "mz5622": 5162, "mz5623": 5163, "mz5624": 5164, "mz5625": 5165, "mz5626": 5166, "mz5627": 5167, "mz5628": 5168, "mz5629": 5169, "mz563": 5170, "mz5630": 5171, "mz5631": 5172, "mz5632": 5173, "mz5633": 5174, "mz5634": 5175, "mz5635": 5176, "mz5636": 5177, "mz5637": 5178, "mz5638": 5179, "mz5639": 5180, "mz564": 5181, "mz5640": 5182, "mz5641": 5183, "mz5642": 5184, "mz5643": 5185, "mz5644": 5186, "mz5645": 5187, "mz5646": 5188, "mz5647": 5189, "mz5648": 5190, "mz5649": 5191, "mz565": 5192, "mz5650": 5193, "mz5651": 5194, "mz5652": 5195, "mz5653": 5196, "mz5654": 5197, "mz5655": 5198, "mz5656": 5199, "mz5657": 5200, "mz5658": 5201, "mz5659": 5202, "mz566": 5203, "mz5660": 5204, "mz5661": 5205, "mz5662": 5206, "mz5663": 5207, "mz5664": 5208, "mz5665": 5209, "mz5666": 5210, "mz5667": 5211, "mz5668": 5212, "mz5669": 5213, "mz567": 5214, "mz5670": 5215, "mz5671": 5216, "mz5672": 5217, "mz5673": 5218, "mz5674": 5219, "mz5675": 5220, "mz5676": 5221, "mz5677": 5222, "mz5678": 5223, "mz5679": 5224, "mz568": 5225, "mz5680": 5226, "mz5681": 5227, "mz5682": 5228, "mz5683": 5229, "mz5684": 5230, "mz5685": 5231, "mz5686": 5232, "mz5687": 5233, "mz5688": 5234, "mz5689": 5235, "mz569": 5236, "mz5690": 5237, "mz5691": 5238, "mz5692": 5239, "mz5693": 5240, "mz5694": 5241, "mz5695": 5242, "mz5696": 5243, "mz5697": 5244, "mz5698": 5245, "mz5699": 5246, "mz57": 5247, "mz570": 5248, "mz5700": 5249, "mz5701": 5250, "mz5702": 5251, "mz5703": 5252, "mz5704": 5253, "mz5705": 5254, "mz5706": 5255, "mz5707": 5256, "mz5708": 5257, "mz5709": 5258, "mz571": 5259, "mz5710": 5260, "mz5711": 5261, "mz5712": 5262, "mz5713": 5263, "mz5714": 5264, "mz5715": 5265, "mz5716": 5266, "mz5717": 5267, "mz5718": 5268, "mz5719": 5269, "mz572": 5270, "mz5720": 5271, "mz5721": 5272, "mz5722": 5273, "mz5723": 5274, "mz5724": 5275, "mz5725": 5276, "mz5726": 5277, "mz5727": 5278, "mz5728": 5279, "mz5729": 5280, "mz573": 5281, "mz5730": 5282, "mz5731": 5283, "mz5732": 5284, "mz5733": 5285, "mz5734": 5286, "mz5735": 5287, "mz5736": 5288, "mz5737": 5289, "mz5738": 5290, "mz5739": 5291, "mz574": 5292, "mz5740": 5293, "mz5741": 5294, "mz5742": 5295, "mz5743": 5296, "mz5744": 5297, "mz5745": 5298, "mz5746": 5299, "mz5747": 5300, "mz5748": 5301, "mz5749": 5302, "mz575": 5303, "mz5750": 5304, "mz5751": 5305, "mz5752": 5306, "mz5753": 5307, "mz5754": 5308, "mz5755": 5309, "mz5756": 5310, "mz5757": 5311, "mz5758": 5312, "mz5759": 5313, "mz576": 5314, "mz5760": 5315, "mz5761": 5316, "mz5762": 5317, "mz5763": 5318, "mz5764": 5319, "mz5765": 5320, "mz5766": 5321, "mz5767": 5322, "mz5768": 5323, "mz5769": 5324, "mz577": 5325, "mz5770": 5326, "mz5771": 5327, "mz5772": 5328, "mz5773": 5329, "mz5774": 5330, "mz5775": 5331, "mz5776": 5332, "mz5777": 5333, "mz5778": 5334, "mz5779": 5335, "mz578": 5336, "mz5780": 5337, "mz5781": 5338, "mz5782": 5339, "mz5783": 5340, "mz5784": 5341, "mz5785": 5342, "mz5786": 5343, "mz5787": 5344, "mz5788": 5345, "mz5789": 5346, "mz579": 5347, "mz5790": 5348, "mz5791": 5349, "mz5792": 5350, "mz5793": 5351, "mz5794": 5352, "mz5795": 5353, "mz5796": 5354, "mz5797": 5355, "mz5798": 5356, "mz5799": 5357, "mz58": 5358, "mz580": 5359, "mz5800": 5360, "mz5801": 5361, "mz5802": 5362, "mz5803": 5363, "mz5804": 5364, "mz5805": 5365, "mz5806": 5366, "mz5807": 5367, "mz5808": 5368, "mz5809": 5369, "mz581": 5370, "mz5810": 5371, "mz5811": 5372, "mz5812": 5373, "mz5813": 5374, "mz5814": 5375, "mz5815": 5376, "mz5816": 5377, "mz5817": 5378, "mz5818": 5379, "mz5819": 5380, "mz582": 5381, "mz5820": 5382, "mz5821": 5383, "mz5822": 5384, "mz5823": 5385, "mz5824": 5386, "mz5825": 5387, "mz5826": 5388, "mz5827": 5389, "mz5828": 5390, "mz5829": 5391, "mz583": 5392, "mz5830": 5393, "mz5831": 5394, "mz5832": 5395, "mz5833": 5396, "mz5834": 5397, "mz5835": 5398, "mz5836": 5399, "mz5837": 5400, "mz5838": 5401, "mz5839": 5402, "mz584": 5403, "mz5840": 5404, "mz5841": 5405, "mz5842": 5406, "mz5843": 5407, "mz5844": 5408, "mz5845": 5409, "mz5846": 5410, "mz5847": 5411, "mz5848": 5412, "mz5849": 5413, "mz585": 5414, "mz5850": 5415, "mz5851": 5416, "mz5852": 5417, "mz5853": 5418, "mz5854": 5419, "mz5855": 5420, "mz5856": 5421, "mz5857": 5422, "mz5858": 5423, "mz5859": 5424, "mz586": 5425, "mz5860": 5426, "mz5861": 5427, "mz5862": 5428, "mz5863": 5429, "mz5864": 5430, "mz5865": 5431, "mz5866": 5432, "mz5867": 5433, "mz5868": 5434, "mz5869": 5435, "mz587": 5436, "mz5870": 5437, "mz5871": 5438, "mz5872": 5439, "mz5873": 5440, "mz5874": 5441, "mz5875": 5442, "mz5876": 5443, "mz5877": 5444, "mz5878": 5445, "mz5879": 5446, "mz588": 5447, "mz5880": 5448, "mz5881": 5449, "mz5882": 5450, "mz5883": 5451, "mz5884": 5452, "mz5885": 5453, "mz5886": 5454, "mz5887": 5455, "mz5888": 5456, "mz5889": 5457, "mz589": 5458, "mz5890": 5459, "mz5891": 5460, "mz5892": 5461, "mz5893": 5462, "mz5894": 5463, "mz5895": 5464, "mz5896": 5465, "mz5897": 5466, "mz5898": 5467, "mz5899": 5468, "mz59": 5469, "mz590": 5470, "mz5900": 5471, "mz5901": 5472, "mz5902": 5473, "mz5903": 5474, "mz5904": 5475, "mz5905": 5476, "mz5906": 5477, "mz5907": 5478, "mz5908": 5479, "mz5909": 5480, "mz591": 5481, "mz5910": 5482, "mz5911": 5483, "mz5912": 5484, "mz5913": 5485, "mz5914": 5486, "mz5915": 5487, "mz5916": 5488, "mz5917": 5489, "mz5918": 5490, "mz5919": 5491, "mz592": 5492, "mz5920": 5493, "mz5921": 5494, "mz5922": 5495, "mz5923": 5496, "mz5924": 5497, "mz5925": 5498, "mz5926": 5499, "mz5927": 5500, "mz5928": 5501, "mz5929": 5502, "mz593": 5503, "mz5930": 5504, "mz5931": 5505, "mz5932": 5506, "mz5933": 5507, "mz5934": 5508, "mz5935": 5509, "mz5936": 5510, "mz5937": 5511, "mz5938": 5512, "mz5939": 5513, "mz594": 5514, "mz5940": 5515, "mz5941": 5516, "mz5942": 5517, "mz5943": 5518, "mz5944": 5519, "mz5945": 5520, "mz5946": 5521, "mz5947": 5522, "mz5948": 5523, "mz5949": 5524, "mz595": 5525, "mz5950": 5526, "mz5951": 5527, "mz5952": 5528, "mz5953": 5529, "mz5954": 5530, "mz5955": 5531, "mz5956": 5532, "mz5957": 5533, "mz5958": 5534, "mz5959": 5535, "mz596": 5536, "mz5960": 5537, "mz5961": 5538, "mz5962": 5539, "mz5963": 5540, "mz5964": 5541, "mz5965": 5542, "mz5966": 5543, "mz5967": 5544, "mz5968": 5545, "mz5969": 5546, "mz597": 5547, "mz5970": 5548, "mz5971": 5549, "mz5972": 5550, "mz5973": 5551, "mz5974": 5552, "mz5975": 5553, "mz5976": 5554, "mz5977": 5555, "mz5978": 5556, "mz5979": 5557, "mz598": 5558, "mz5980": 5559, "mz5981": 5560, "mz5982": 5561, "mz5983": 5562, "mz5984": 5563, "mz5985": 5564, "mz5986": 5565, "mz5987": 5566, "mz5988": 5567, "mz5989": 5568, "mz599": 5569, "mz5990": 5570, "mz5991": 5571, "mz5992": 5572, "mz5993": 5573, "mz5994": 5574, "mz5995": 5575, "mz5996": 5576, "mz5997": 5577, "mz5998": 5578, "mz5999": 5579, "mz6": 5580, "mz60": 5581, "mz600": 5582, "mz6000": 5583, "mz6001": 5584, "mz6002": 5585, "mz6003": 5586, "mz6004": 5587, "mz6005": 5588, "mz6006": 5589, "mz6007": 5590, "mz6008": 5591, "mz6009": 5592, "mz601": 5593, "mz6010": 5594, "mz6011": 5595, "mz6012": 5596, "mz6013": 5597, "mz6014": 5598, "mz6015": 5599, "mz6016": 5600, "mz6017": 5601, "mz6018": 5602, "mz6019": 5603, "mz602": 5604, "mz6020": 5605, "mz6021": 5606, "mz6022": 5607, "mz6023": 5608, "mz6024": 5609, "mz6025": 5610, "mz6026": 5611, "mz6027": 5612, "mz6028": 5613, "mz6029": 5614, "mz603": 5615, "mz6030": 5616, "mz6031": 5617, "mz6032": 5618, "mz6033": 5619, "mz6034": 5620, "mz6035": 5621, "mz6036": 5622, "mz6037": 5623, "mz6038": 5624, "mz6039": 5625, "mz604": 5626, "mz6040": 5627, "mz6041": 5628, "mz6042": 5629, "mz6043": 5630, "mz6044": 5631, "mz6045": 5632, "mz6046": 5633, "mz6047": 5634, "mz6048": 5635, "mz6049": 5636, "mz605": 5637, "mz6050": 5638, "mz6051": 5639, "mz6052": 5640, "mz6053": 5641, "mz6054": 5642, "mz6055": 5643, "mz6056": 5644, "mz6057": 5645, "mz6058": 5646, "mz6059": 5647, "mz606": 5648, "mz6060": 5649, "mz6061": 5650, "mz6062": 5651, "mz6063": 5652, "mz6064": 5653, "mz6065": 5654, "mz6066": 5655, "mz6067": 5656, "mz6068": 5657, "mz6069": 5658, "mz607": 5659, "mz6070": 5660, "mz6071": 5661, "mz6072": 5662, "mz6073": 5663, "mz6074": 5664, "mz6075": 5665, "mz6076": 5666, "mz6077": 5667, "mz6078": 5668, "mz6079": 5669, "mz608": 5670, "mz6080": 5671, "mz6081": 5672, "mz6082": 5673, "mz6083": 5674, "mz6084": 5675, "mz6085": 5676, "mz6086": 5677, "mz6087": 5678, "mz6088": 5679, "mz6089": 5680, "mz609": 5681, "mz6090": 5682, "mz6091": 5683, "mz6092": 5684, "mz6093": 5685, "mz6094": 5686, "mz6095": 5687, "mz6096": 5688, "mz6097": 5689, "mz6098": 5690, "mz6099": 5691, "mz61": 5692, "mz610": 5693, "mz6100": 5694, "mz6101": 5695, "mz6102": 5696, "mz6103": 5697, "mz6104": 5698, "mz6105": 5699, "mz6106": 5700, "mz6107": 5701, "mz6108": 5702, "mz6109": 5703, "mz611": 5704, "mz6110": 5705, "mz6111": 5706, "mz6112": 5707, "mz6113": 5708, "mz6114": 5709, "mz6115": 5710, "mz6116": 5711, "mz6117": 5712, "mz6118": 5713, "mz6119": 5714, "mz612": 5715, "mz6120": 5716, "mz6121": 5717, "mz6122": 5718, "mz6123": 5719, "mz6124": 5720, "mz6125": 5721, "mz6126": 5722, "mz6127": 5723, "mz6128": 5724, "mz6129": 5725, "mz613": 5726, "mz6130": 5727, "mz6131": 5728, "mz6132": 5729, "mz6133": 5730, "mz6134": 5731, "mz6135": 5732, "mz6136": 5733, "mz6137": 5734, "mz6138": 5735, "mz6139": 5736, "mz614": 5737, "mz6140": 5738, "mz6141": 5739, "mz6142": 5740, "mz6143": 5741, "mz6144": 5742, "mz6145": 5743, "mz6146": 5744, "mz6147": 5745, "mz6148": 5746, "mz6149": 5747, "mz615": 5748, "mz6150": 5749, "mz6151": 5750, "mz6152": 5751, "mz6153": 5752, "mz6154": 5753, "mz6155": 5754, "mz6156": 5755, "mz6157": 5756, "mz6158": 5757, "mz6159": 5758, "mz616": 5759, "mz6160": 5760, "mz6161": 5761, "mz6162": 5762, "mz6163": 5763, "mz6164": 5764, "mz6165": 5765, "mz6166": 5766, "mz6167": 5767, "mz6168": 5768, "mz6169": 5769, "mz617": 5770, "mz6170": 5771, "mz6171": 5772, "mz6172": 5773, "mz6173": 5774, "mz6174": 5775, "mz6175": 5776, "mz6176": 5777, "mz6177": 5778, "mz6178": 5779, "mz6179": 5780, "mz618": 5781, "mz6180": 5782, "mz6181": 5783, "mz6182": 5784, "mz6183": 5785, "mz6184": 5786, "mz6185": 5787, "mz6186": 5788, "mz6187": 5789, "mz6188": 5790, "mz6189": 5791, "mz619": 5792, "mz6190": 5793, "mz6191": 5794, "mz6192": 5795, "mz6193": 5796, "mz6194": 5797, "mz6195": 5798, "mz6196": 5799, "mz6197": 5800, "mz6198": 5801, "mz6199": 5802, "mz62": 5803, "mz620": 5804, "mz6200": 5805, "mz6201": 5806, "mz6202": 5807, "mz6203": 5808, "mz6204": 5809, "mz6205": 5810, "mz6206": 5811, "mz6207": 5812, "mz6208": 5813, "mz6209": 5814, "mz621": 5815, "mz6210": 5816, "mz6211": 5817, "mz6212": 5818, "mz6213": 5819, "mz6214": 5820, "mz6215": 5821, "mz6216": 5822, "mz6217": 5823, "mz6218": 5824, "mz6219": 5825, "mz622": 5826, "mz6220": 5827, "mz6221": 5828, "mz6222": 5829, "mz6223": 5830, "mz6224": 5831, "mz6225": 5832, "mz6226": 5833, "mz6227": 5834, "mz6228": 5835, "mz6229": 5836, "mz623": 5837, "mz6230": 5838, "mz6231": 5839, "mz6232": 5840, "mz6233": 5841, "mz6234": 5842, "mz6235": 5843, "mz6236": 5844, "mz6237": 5845, "mz6238": 5846, "mz6239": 5847, "mz624": 5848, "mz6240": 5849, "mz6241": 5850, "mz6242": 5851, "mz6243": 5852, "mz6244": 5853, "mz6245": 5854, "mz6246": 5855, "mz6247": 5856, "mz6248": 5857, "mz6249": 5858, "mz625": 5859, "mz6250": 5860, "mz6251": 5861, "mz6252": 5862, "mz6253": 5863, "mz6254": 5864, "mz6255": 5865, "mz6256": 5866, "mz6257": 5867, "mz6258": 5868, "mz6259": 5869, "mz626": 5870, "mz6260": 5871, "mz6261": 5872, "mz6262": 5873, "mz6263": 5874, "mz6264": 5875, "mz6265": 5876, "mz6266": 5877, "mz6267": 5878, "mz6268": 5879, "mz6269": 5880, "mz627": 5881, "mz6270": 5882, "mz6271": 5883, "mz6272": 5884, "mz6273": 5885, "mz6274": 5886, "mz6275": 5887, "mz6276": 5888, "mz6277": 5889, "mz6278": 5890, "mz6279": 5891, "mz628": 5892, "mz6280": 5893, "mz6281": 5894, "mz6282": 5895, "mz6283": 5896, "mz6284": 5897, "mz6285": 5898, "mz6286": 5899, "mz6287": 5900, "mz6288": 5901, "mz6289": 5902, "mz629": 5903, "mz6290": 5904, "mz6291": 5905, "mz6292": 5906, "mz6293": 5907, "mz6294": 5908, "mz6295": 5909, "mz6296": 5910, "mz6297": 5911, "mz6298": 5912, "mz6299": 5913, "mz63": 5914, "mz630": 5915, "mz6300": 5916, "mz6301": 5917, "mz6302": 5918, "mz6303": 5919, "mz6304": 5920, "mz6305": 5921, "mz6306": 5922, "mz6307": 5923, "mz6308": 5924, "mz6309": 5925, "mz631": 5926, "mz6310": 5927, "mz6311": 5928, "mz6312": 5929, "mz6313": 5930, "mz6314": 5931, "mz6315": 5932, "mz6316": 5933, "mz6317": 5934, "mz6318": 5935, "mz6319": 5936, "mz632": 5937, "mz6320": 5938, "mz6321": 5939, "mz6322": 5940, "mz6323": 5941, "mz6324": 5942, "mz6325": 5943, "mz6326": 5944, "mz6327": 5945, "mz6328": 5946, "mz6329": 5947, "mz633": 5948, "mz6330": 5949, "mz6331": 5950, "mz6332": 5951, "mz6333": 5952, "mz6334": 5953, "mz6335": 5954, "mz6336": 5955, "mz6337": 5956, "mz6338": 5957, "mz6339": 5958, "mz634": 5959, "mz6340": 5960, "mz6341": 5961, "mz6342": 5962, "mz6343": 5963, "mz6344": 5964, "mz6345": 5965, "mz6346": 5966, "mz6347": 5967, "mz6348": 5968, "mz6349": 5969, "mz635": 5970, "mz6350": 5971, "mz6351": 5972, "mz6352": 5973, "mz6353": 5974, "mz6354": 5975, "mz6355": 5976, "mz6356": 5977, "mz6357": 5978, "mz6358": 5979, "mz6359": 5980, "mz636": 5981, "mz6360": 5982, "mz6361": 5983, "mz6362": 5984, "mz6363": 5985, "mz6364": 5986, "mz6365": 5987, "mz6366": 5988, "mz6367": 5989, "mz6368": 5990, "mz6369": 5991, "mz637": 5992, "mz6370": 5993, "mz6371": 5994, "mz6372": 5995, "mz6373": 5996, "mz6374": 5997, "mz6375": 5998, "mz6376": 5999, "mz6377": 6000, "mz6378": 6001, "mz6379": 6002, "mz638": 6003, "mz6380": 6004, "mz6381": 6005, "mz6382": 6006, "mz6383": 6007, "mz6384": 6008, "mz6385": 6009, "mz6386": 6010, "mz6387": 6011, "mz6388": 6012, "mz6389": 6013, "mz639": 6014, "mz6390": 6015, "mz6391": 6016, "mz6392": 6017, "mz6393": 6018, "mz6394": 6019, "mz6395": 6020, "mz6396": 6021, "mz6397": 6022, "mz6398": 6023, "mz6399": 6024, "mz64": 6025, "mz640": 6026, "mz6400": 6027, "mz6401": 6028, "mz6402": 6029, "mz6403": 6030, "mz6404": 6031, "mz6405": 6032, "mz6406": 6033, "mz6407": 6034, "mz6408": 6035, "mz6409": 6036, "mz641": 6037, "mz6410": 6038, "mz6411": 6039, "mz6412": 6040, "mz6413": 6041, "mz6414": 6042, "mz6415": 6043, "mz6416": 6044, "mz6417": 6045, "mz6418": 6046, "mz6419": 6047, "mz642": 6048, "mz6420": 6049, "mz6421": 6050, "mz6422": 6051, "mz6423": 6052, "mz6424": 6053, "mz6425": 6054, "mz6426": 6055, "mz6427": 6056, "mz6428": 6057, "mz6429": 6058, "mz643": 6059, "mz6430": 6060, "mz6431": 6061, "mz6432": 6062, "mz6433": 6063, "mz6434": 6064, "mz6435": 6065, "mz6436": 6066, "mz6437": 6067, "mz6438": 6068, "mz6439": 6069, "mz644": 6070, "mz6440": 6071, "mz6441": 6072, "mz6442": 6073, "mz6443": 6074, "mz6444": 6075, "mz6445": 6076, "mz6446": 6077, "mz6447": 6078, "mz6448": 6079, "mz6449": 6080, "mz645": 6081, "mz6450": 6082, "mz6451": 6083, "mz6452": 6084, "mz6453": 6085, "mz6454": 6086, "mz6455": 6087, "mz6456": 6088, "mz6457": 6089, "mz6458": 6090, "mz6459": 6091, "mz646": 6092, "mz6460": 6093, "mz6461": 6094, "mz6462": 6095, "mz6463": 6096, "mz6464": 6097, "mz6465": 6098, "mz6466": 6099, "mz6467": 6100, "mz6468": 6101, "mz6469": 6102, "mz647": 6103, "mz6470": 6104, "mz6471": 6105, "mz6472": 6106, "mz6473": 6107, "mz6474": 6108, "mz6475": 6109, "mz6476": 6110, "mz6477": 6111, "mz6478": 6112, "mz6479": 6113, "mz648": 6114, "mz6480": 6115, "mz6481": 6116, "mz6482": 6117, "mz6483": 6118, "mz6484": 6119, "mz6485": 6120, "mz6486": 6121, "mz6487": 6122, "mz6488": 6123, "mz6489": 6124, "mz649": 6125, "mz6490": 6126, "mz6491": 6127, "mz6492": 6128, "mz6493": 6129, "mz6494": 6130, "mz6495": 6131, "mz6496": 6132, "mz6497": 6133, "mz6498": 6134, "mz6499": 6135, "mz65": 6136, "mz650": 6137, "mz6500": 6138, "mz6501": 6139, "mz6502": 6140, "mz6503": 6141, "mz6504": 6142, "mz6505": 6143, "mz6506": 6144, "mz6507": 6145, "mz6508": 6146, "mz6509": 6147, "mz651": 6148, "mz6510": 6149, "mz6511": 6150, "mz6512": 6151, "mz6513": 6152, "mz6514": 6153, "mz6515": 6154, "mz6516": 6155, "mz6517": 6156, "mz6518": 6157, "mz6519": 6158, "mz652": 6159, "mz6520": 6160, "mz6521": 6161, "mz6522": 6162, "mz6523": 6163, "mz6524": 6164, "mz6525": 6165, "mz6526": 6166, "mz6527": 6167, "mz6528": 6168, "mz6529": 6169, "mz653": 6170, "mz6530": 6171, "mz6531": 6172, "mz6532": 6173, "mz6533": 6174, "mz6534": 6175, "mz6535": 6176, "mz6536": 6177, "mz6537": 6178, "mz6538": 6179, "mz6539": 6180, "mz654": 6181, "mz6540": 6182, "mz6541": 6183, "mz6542": 6184, "mz6543": 6185, "mz6544": 6186, "mz6545": 6187, "mz6546": 6188, "mz6547": 6189, "mz6548": 6190, "mz6549": 6191, "mz655": 6192, "mz6550": 6193, "mz6551": 6194, "mz6552": 6195, "mz6553": 6196, "mz6554": 6197, "mz6555": 6198, "mz6556": 6199, "mz6557": 6200, "mz6558": 6201, "mz6559": 6202, "mz656": 6203, "mz6560": 6204, "mz6561": 6205, "mz6562": 6206, "mz6563": 6207, "mz6564": 6208, "mz6565": 6209, "mz6566": 6210, "mz6567": 6211, "mz6568": 6212, "mz6569": 6213, "mz657": 6214, "mz6570": 6215, "mz6571": 6216, "mz6572": 6217, "mz6573": 6218, "mz6574": 6219, "mz6575": 6220, "mz6576": 6221, "mz6577": 6222, "mz6578": 6223, "mz6579": 6224, "mz658": 6225, "mz6580": 6226, "mz6581": 6227, "mz6582": 6228, "mz6583": 6229, "mz6584": 6230, "mz6585": 6231, "mz6586": 6232, "mz6587": 6233, "mz6588": 6234, "mz6589": 6235, "mz659": 6236, "mz6590": 6237, "mz6591": 6238, "mz6592": 6239, "mz6593": 6240, "mz6594": 6241, "mz6595": 6242, "mz6596": 6243, "mz6597": 6244, "mz6598": 6245, "mz6599": 6246, "mz66": 6247, "mz660": 6248, "mz6600": 6249, "mz6601": 6250, "mz6602": 6251, "mz6603": 6252, "mz6604": 6253, "mz6605": 6254, "mz6606": 6255, "mz6607": 6256, "mz6608": 6257, "mz6609": 6258, "mz661": 6259, "mz6610": 6260, "mz6611": 6261, "mz6612": 6262, "mz6613": 6263, "mz6614": 6264, "mz6615": 6265, "mz6616": 6266, "mz6617": 6267, "mz6618": 6268, "mz6619": 6269, "mz662": 6270, "mz6620": 6271, "mz6621": 6272, "mz6622": 6273, "mz6623": 6274, "mz6624": 6275, "mz6625": 6276, "mz6626": 6277, "mz6627": 6278, "mz6628": 6279, "mz6629": 6280, "mz663": 6281, "mz6630": 6282, "mz6631": 6283, "mz6632": 6284, "mz6633": 6285, "mz6634": 6286, "mz6635": 6287, "mz6636": 6288, "mz6637": 6289, "mz6638": 6290, "mz6639": 6291, "mz664": 6292, "mz6640": 6293, "mz6641": 6294, "mz6642": 6295, "mz6643": 6296, "mz6644": 6297, "mz6645": 6298, "mz6646": 6299, "mz6647": 6300, "mz6648": 6301, "mz6649": 6302, "mz665": 6303, "mz6650": 6304, "mz6651": 6305, "mz6652": 6306, "mz6653": 6307, "mz6654": 6308, "mz6655": 6309, "mz6656": 6310, "mz6657": 6311, "mz6658": 6312, "mz6659": 6313, "mz666": 6314, "mz6660": 6315, "mz6661": 6316, "mz6662": 6317, "mz6663": 6318, "mz6664": 6319, "mz6665": 6320, "mz6666": 6321, "mz6667": 6322, "mz6668": 6323, "mz6669": 6324, "mz667": 6325, "mz6670": 6326, "mz6671": 6327, "mz6672": 6328, "mz6673": 6329, "mz6674": 6330, "mz6675": 6331, "mz6676": 6332, "mz6677": 6333, "mz6678": 6334, "mz6679": 6335, "mz668": 6336, "mz6680": 6337, "mz6681": 6338, "mz6682": 6339, "mz6683": 6340, "mz6684": 6341, "mz6685": 6342, "mz6686": 6343, "mz6687": 6344, "mz6688": 6345, "mz6689": 6346, "mz669": 6347, "mz6690": 6348, "mz6691": 6349, "mz6692": 6350, "mz6693": 6351, "mz6694": 6352, "mz6695": 6353, "mz6696": 6354, "mz6697": 6355, "mz6698": 6356, "mz6699": 6357, "mz67": 6358, "mz670": 6359, "mz6700": 6360, "mz6701": 6361, "mz6702": 6362, "mz6703": 6363, "mz6704": 6364, "mz6705": 6365, "mz6706": 6366, "mz6707": 6367, "mz6708": 6368, "mz6709": 6369, "mz671": 6370, "mz6710": 6371, "mz6711": 6372, "mz6712": 6373, "mz6713": 6374, "mz6714": 6375, "mz6715": 6376, "mz6716": 6377, "mz6717": 6378, "mz6718": 6379, "mz6719": 6380, "mz672": 6381, "mz6720": 6382, "mz6721": 6383, "mz6722": 6384, "mz6723": 6385, "mz6724": 6386, "mz6725": 6387, "mz6726": 6388, "mz6727": 6389, "mz6728": 6390, "mz6729": 6391, "mz673": 6392, "mz6730": 6393, "mz6731": 6394, "mz6732": 6395, "mz6733": 6396, "mz6734": 6397, "mz6735": 6398, "mz6736": 6399, "mz6737": 6400, "mz6738": 6401, "mz6739": 6402, "mz674": 6403, "mz6740": 6404, "mz6741": 6405, "mz6742": 6406, "mz6743": 6407, "mz6744": 6408, "mz6745": 6409, "mz6746": 6410, "mz6747": 6411, "mz6748": 6412, "mz6749": 6413, "mz675": 6414, "mz6750": 6415, "mz6751": 6416, "mz6752": 6417, "mz6753": 6418, "mz6754": 6419, "mz6755": 6420, "mz6756": 6421, "mz6757": 6422, "mz6758": 6423, "mz6759": 6424, "mz676": 6425, "mz6760": 6426, "mz6761": 6427, "mz6762": 6428, "mz6763": 6429, "mz6764": 6430, "mz6765": 6431, "mz6766": 6432, "mz6767": 6433, "mz6768": 6434, "mz6769": 6435, "mz677": 6436, "mz6770": 6437, "mz6771": 6438, "mz6772": 6439, "mz6773": 6440, "mz6774": 6441, "mz6775": 6442, "mz6776": 6443, "mz6777": 6444, "mz6778": 6445, "mz6779": 6446, "mz678": 6447, "mz6780": 6448, "mz6781": 6449, "mz6782": 6450, "mz6783": 6451, "mz6784": 6452, "mz6785": 6453, "mz6786": 6454, "mz6787": 6455, "mz6788": 6456, "mz6789": 6457, "mz679": 6458, "mz6790": 6459, "mz6791": 6460, "mz6792": 6461, "mz6793": 6462, "mz6794": 6463, "mz6795": 6464, "mz6796": 6465, "mz6797": 6466, "mz6798": 6467, "mz6799": 6468, "mz68": 6469, "mz680": 6470, "mz6800": 6471, "mz6801": 6472, "mz6802": 6473, "mz6803": 6474, "mz6804": 6475, "mz6805": 6476, "mz6806": 6477, "mz6807": 6478, "mz6808": 6479, "mz6809": 6480, "mz681": 6481, "mz6810": 6482, "mz6811": 6483, "mz6812": 6484, "mz6813": 6485, "mz6814": 6486, "mz6815": 6487, "mz6816": 6488, "mz6817": 6489, "mz6818": 6490, "mz6819": 6491, "mz682": 6492, "mz6820": 6493, "mz6821": 6494, "mz6822": 6495, "mz6823": 6496, "mz6824": 6497, "mz6825": 6498, "mz6826": 6499, "mz6827": 6500, "mz6828": 6501, "mz6829": 6502, "mz683": 6503, "mz6830": 6504, "mz6831": 6505, "mz6832": 6506, "mz6833": 6507, "mz6834": 6508, "mz6835": 6509, "mz6836": 6510, "mz6837": 6511, "mz6838": 6512, "mz6839": 6513, "mz684": 6514, "mz6840": 6515, "mz6841": 6516, "mz6842": 6517, "mz6843": 6518, "mz6844": 6519, "mz6845": 6520, "mz6846": 6521, "mz6847": 6522, "mz6848": 6523, "mz6849": 6524, "mz685": 6525, "mz6850": 6526, "mz6851": 6527, "mz6852": 6528, "mz6853": 6529, "mz6854": 6530, "mz6855": 6531, "mz6856": 6532, "mz6857": 6533, "mz6858": 6534, "mz6859": 6535, "mz686": 6536, "mz6860": 6537, "mz6861": 6538, "mz6862": 6539, "mz6863": 6540, "mz6864": 6541, "mz6865": 6542, "mz6866": 6543, "mz6867": 6544, "mz6868": 6545, "mz6869": 6546, "mz687": 6547, "mz6870": 6548, "mz6871": 6549, "mz6872": 6550, "mz6873": 6551, "mz6874": 6552, "mz6875": 6553, "mz6876": 6554, "mz6877": 6555, "mz6878": 6556, "mz6879": 6557, "mz688": 6558, "mz6880": 6559, "mz6881": 6560, "mz6882": 6561, "mz6883": 6562, "mz6884": 6563, "mz6885": 6564, "mz6886": 6565, "mz6887": 6566, "mz6888": 6567, "mz6889": 6568, "mz689": 6569, "mz6890": 6570, "mz6891": 6571, "mz6892": 6572, "mz6893": 6573, "mz6894": 6574, "mz6895": 6575, "mz6896": 6576, "mz6897": 6577, "mz6898": 6578, "mz6899": 6579, "mz69": 6580, "mz690": 6581, "mz6900": 6582, "mz6901": 6583, "mz6902": 6584, "mz6903": 6585, "mz6904": 6586, "mz6905": 6587, "mz6906": 6588, "mz6907": 6589, "mz6908": 6590, "mz6909": 6591, "mz691": 6592, "mz6910": 6593, "mz6911": 6594, "mz6912": 6595, "mz6913": 6596, "mz6914": 6597, "mz6915": 6598, "mz6916": 6599, "mz6917": 6600, "mz6918": 6601, "mz6919": 6602, "mz692": 6603, "mz6920": 6604, "mz6921": 6605, "mz6922": 6606, "mz6923": 6607, "mz6924": 6608, "mz6925": 6609, "mz6926": 6610, "mz6927": 6611, "mz6928": 6612, "mz6929": 6613, "mz693": 6614, "mz6930": 6615, "mz6931": 6616, "mz6932": 6617, "mz6933": 6618, "mz6934": 6619, "mz6935": 6620, "mz6936": 6621, "mz6937": 6622, "mz6938": 6623, "mz6939": 6624, "mz694": 6625, "mz6940": 6626, "mz6941": 6627, "mz6942": 6628, "mz6943": 6629, "mz6944": 6630, "mz6945": 6631, "mz6946": 6632, "mz6947": 6633, "mz6948": 6634, "mz6949": 6635, "mz695": 6636, "mz6950": 6637, "mz6951": 6638, "mz6952": 6639, "mz6953": 6640, "mz6954": 6641, "mz6955": 6642, "mz6956": 6643, "mz6957": 6644, "mz6958": 6645, "mz6959": 6646, "mz696": 6647, "mz6960": 6648, "mz6961": 6649, "mz6962": 6650, "mz6963": 6651, "mz6964": 6652, "mz6965": 6653, "mz6966": 6654, "mz6967": 6655, "mz6968": 6656, "mz6969": 6657, "mz697": 6658, "mz6970": 6659, "mz6971": 6660, "mz6972": 6661, "mz6973": 6662, "mz6974": 6663, "mz6975": 6664, "mz6976": 6665, "mz6977": 6666, "mz6978": 6667, "mz6979": 6668, "mz698": 6669, "mz6980": 6670, "mz6981": 6671, "mz6982": 6672, "mz6983": 6673, "mz6984": 6674, "mz6985": 6675, "mz6986": 6676, "mz6987": 6677, "mz6988": 6678, "mz6989": 6679, "mz699": 6680, "mz6990": 6681, "mz6991": 6682, "mz6992": 6683, "mz6993": 6684, "mz6994": 6685, "mz6995": 6686, "mz6996": 6687, "mz6997": 6688, "mz6998": 6689, "mz6999": 6690, "mz7": 6691, "mz70": 6692, "mz700": 6693, "mz7000": 6694, "mz7001": 6695, "mz7002": 6696, "mz7003": 6697, "mz7004": 6698, "mz7005": 6699, "mz7006": 6700, "mz7007": 6701, "mz7008": 6702, "mz7009": 6703, "mz701": 6704, "mz7010": 6705, "mz7011": 6706, "mz7012": 6707, "mz7013": 6708, "mz7014": 6709, "mz7015": 6710, "mz7016": 6711, "mz7017": 6712, "mz7018": 6713, "mz7019": 6714, "mz702": 6715, "mz7020": 6716, "mz7021": 6717, "mz7022": 6718, "mz7023": 6719, "mz7024": 6720, "mz7025": 6721, "mz7026": 6722, "mz7027": 6723, "mz7028": 6724, "mz7029": 6725, "mz703": 6726, "mz7030": 6727, "mz7031": 6728, "mz7032": 6729, "mz7033": 6730, "mz7034": 6731, "mz7035": 6732, "mz7036": 6733, "mz7037": 6734, "mz7038": 6735, "mz7039": 6736, "mz704": 6737, "mz7040": 6738, "mz7041": 6739, "mz7042": 6740, "mz7043": 6741, "mz7044": 6742, "mz7045": 6743, "mz7046": 6744, "mz7047": 6745, "mz7048": 6746, "mz7049": 6747, "mz705": 6748, "mz7050": 6749, "mz7051": 6750, "mz7052": 6751, "mz7053": 6752, "mz7054": 6753, "mz7055": 6754, "mz7056": 6755, "mz7057": 6756, "mz7058": 6757, "mz7059": 6758, "mz706": 6759, "mz7060": 6760, "mz7061": 6761, "mz7062": 6762, "mz7063": 6763, "mz7064": 6764, "mz7065": 6765, "mz7066": 6766, "mz7067": 6767, "mz7068": 6768, "mz7069": 6769, "mz707": 6770, "mz7070": 6771, "mz7071": 6772, "mz7072": 6773, "mz7073": 6774, "mz7074": 6775, "mz7075": 6776, "mz7076": 6777, "mz7077": 6778, "mz7078": 6779, "mz7079": 6780, "mz708": 6781, "mz7080": 6782, "mz7081": 6783, "mz7082": 6784, "mz7083": 6785, "mz7084": 6786, "mz7085": 6787, "mz7086": 6788, "mz7087": 6789, "mz7088": 6790, "mz7089": 6791, "mz709": 6792, "mz7090": 6793, "mz7091": 6794, "mz7092": 6795, "mz7093": 6796, "mz7094": 6797, "mz7095": 6798, "mz7096": 6799, "mz7097": 6800, "mz7098": 6801, "mz7099": 6802, "mz71": 6803, "mz710": 6804, "mz7100": 6805, "mz7101": 6806, "mz7102": 6807, "mz7103": 6808, "mz7104": 6809, "mz7105": 6810, "mz7106": 6811, "mz7107": 6812, "mz7108": 6813, "mz7109": 6814, "mz711": 6815, "mz7110": 6816, "mz7111": 6817, "mz7112": 6818, "mz7113": 6819, "mz7114": 6820, "mz7115": 6821, "mz7116": 6822, "mz7117": 6823, "mz7118": 6824, "mz7119": 6825, "mz712": 6826, "mz7120": 6827, "mz7121": 6828, "mz7122": 6829, "mz7123": 6830, "mz7124": 6831, "mz7125": 6832, "mz7126": 6833, "mz7127": 6834, "mz7128": 6835, "mz7129": 6836, "mz713": 6837, "mz7130": 6838, "mz7131": 6839, "mz7132": 6840, "mz7133": 6841, "mz7134": 6842, "mz7135": 6843, "mz7136": 6844, "mz7137": 6845, "mz7138": 6846, "mz7139": 6847, "mz714": 6848, "mz7140": 6849, "mz7141": 6850, "mz7142": 6851, "mz7143": 6852, "mz7144": 6853, "mz7145": 6854, "mz7146": 6855, "mz7147": 6856, "mz7148": 6857, "mz7149": 6858, "mz715": 6859, "mz7150": 6860, "mz7151": 6861, "mz7152": 6862, "mz7153": 6863, "mz7154": 6864, "mz7155": 6865, "mz7156": 6866, "mz7157": 6867, "mz7158": 6868, "mz7159": 6869, "mz716": 6870, "mz7160": 6871, "mz7161": 6872, "mz7162": 6873, "mz7163": 6874, "mz7164": 6875, "mz7165": 6876, "mz7166": 6877, "mz7167": 6878, "mz7168": 6879, "mz7169": 6880, "mz717": 6881, "mz7170": 6882, "mz7171": 6883, "mz7172": 6884, "mz7173": 6885, "mz7174": 6886, "mz7175": 6887, "mz7176": 6888, "mz7177": 6889, "mz7178": 6890, "mz7179": 6891, "mz718": 6892, "mz7180": 6893, "mz7181": 6894, "mz7182": 6895, "mz7183": 6896, "mz7184": 6897, "mz7185": 6898, "mz7186": 6899, "mz7187": 6900, "mz7188": 6901, "mz7189": 6902, "mz719": 6903, "mz7190": 6904, "mz7191": 6905, "mz7192": 6906, "mz7193": 6907, "mz7194": 6908, "mz7195": 6909, "mz7196": 6910, "mz7197": 6911, "mz7198": 6912, "mz7199": 6913, "mz72": 6914, "mz720": 6915, "mz7200": 6916, "mz7201": 6917, "mz7202": 6918, "mz7203": 6919, "mz7204": 6920, "mz7205": 6921, "mz7206": 6922, "mz7207": 6923, "mz7208": 6924, "mz7209": 6925, "mz721": 6926, "mz7210": 6927, "mz7211": 6928, "mz7212": 6929, "mz7213": 6930, "mz7214": 6931, "mz7215": 6932, "mz7216": 6933, "mz7217": 6934, "mz7218": 6935, "mz7219": 6936, "mz722": 6937, "mz7220": 6938, "mz7221": 6939, "mz7222": 6940, "mz7223": 6941, "mz7224": 6942, "mz7225": 6943, "mz7226": 6944, "mz7227": 6945, "mz7228": 6946, "mz7229": 6947, "mz723": 6948, "mz7230": 6949, "mz7231": 6950, "mz7232": 6951, "mz7233": 6952, "mz7234": 6953, "mz7235": 6954, "mz7236": 6955, "mz7237": 6956, "mz7238": 6957, "mz7239": 6958, "mz724": 6959, "mz7240": 6960, "mz7241": 6961, "mz7242": 6962, "mz7243": 6963, "mz7244": 6964, "mz7245": 6965, "mz7246": 6966, "mz7247": 6967, "mz7248": 6968, "mz7249": 6969, "mz725": 6970, "mz7250": 6971, "mz7251": 6972, "mz7252": 6973, "mz7253": 6974, "mz7254": 6975, "mz7255": 6976, "mz7256": 6977, "mz7257": 6978, "mz7258": 6979, "mz7259": 6980, "mz726": 6981, "mz7260": 6982, "mz7261": 6983, "mz7262": 6984, "mz7263": 6985, "mz7264": 6986, "mz7265": 6987, "mz7266": 6988, "mz7267": 6989, "mz7268": 6990, "mz7269": 6991, "mz727": 6992, "mz7270": 6993, "mz7271": 6994, "mz7272": 6995, "mz7273": 6996, "mz7274": 6997, "mz7275": 6998, "mz7276": 6999, "mz7277": 7000, "mz7278": 7001, "mz7279": 7002, "mz728": 7003, "mz7280": 7004, "mz7281": 7005, "mz7282": 7006, "mz7283": 7007, "mz7284": 7008, "mz7285": 7009, "mz7286": 7010, "mz7287": 7011, "mz7288": 7012, "mz7289": 7013, "mz729": 7014, "mz7290": 7015, "mz7291": 7016, "mz7292": 7017, "mz7293": 7018, "mz7294": 7019, "mz7295": 7020, "mz7296": 7021, "mz7297": 7022, "mz7298": 7023, "mz7299": 7024, "mz73": 7025, "mz730": 7026, "mz7300": 7027, "mz7301": 7028, "mz7302": 7029, "mz7303": 7030, "mz7304": 7031, "mz7305": 7032, "mz7306": 7033, "mz7307": 7034, "mz7308": 7035, "mz7309": 7036, "mz731": 7037, "mz7310": 7038, "mz7311": 7039, "mz7312": 7040, "mz7313": 7041, "mz7314": 7042, "mz7315": 7043, "mz7316": 7044, "mz7317": 7045, "mz7318": 7046, "mz7319": 7047, "mz732": 7048, "mz7320": 7049, "mz7321": 7050, "mz7322": 7051, "mz7323": 7052, "mz7324": 7053, "mz7325": 7054, "mz7326": 7055, "mz7327": 7056, "mz7328": 7057, "mz7329": 7058, "mz733": 7059, "mz7330": 7060, "mz7331": 7061, "mz7332": 7062, "mz7333": 7063, "mz7334": 7064, "mz7335": 7065, "mz7336": 7066, "mz7337": 7067, "mz7338": 7068, "mz7339": 7069, "mz734": 7070, "mz7340": 7071, "mz7341": 7072, "mz7342": 7073, "mz7343": 7074, "mz7344": 7075, "mz7345": 7076, "mz7346": 7077, "mz7347": 7078, "mz7348": 7079, "mz7349": 7080, "mz735": 7081, "mz7350": 7082, "mz7351": 7083, "mz7352": 7084, "mz7353": 7085, "mz7354": 7086, "mz7355": 7087, "mz7356": 7088, "mz7357": 7089, "mz7358": 7090, "mz7359": 7091, "mz736": 7092, "mz7360": 7093, "mz7361": 7094, "mz7362": 7095, "mz7363": 7096, "mz7364": 7097, "mz7365": 7098, "mz7366": 7099, "mz7367": 7100, "mz7368": 7101, "mz7369": 7102, "mz737": 7103, "mz7370": 7104, "mz7371": 7105, "mz7372": 7106, "mz7373": 7107, "mz7374": 7108, "mz7375": 7109, "mz7376": 7110, "mz7377": 7111, "mz7378": 7112, "mz7379": 7113, "mz738": 7114, "mz7380": 7115, "mz7381": 7116, "mz7382": 7117, "mz7383": 7118, "mz7384": 7119, "mz7385": 7120, "mz7386": 7121, "mz7387": 7122, "mz7388": 7123, "mz7389": 7124, "mz739": 7125, "mz7390": 7126, "mz7391": 7127, "mz7392": 7128, "mz7393": 7129, "mz7394": 7130, "mz7395": 7131, "mz7396": 7132, "mz7397": 7133, "mz7398": 7134, "mz7399": 7135, "mz74": 7136, "mz740": 7137, "mz7400": 7138, "mz7401": 7139, "mz7402": 7140, "mz7403": 7141, "mz7404": 7142, "mz7405": 7143, "mz7406": 7144, "mz7407": 7145, "mz7408": 7146, "mz7409": 7147, "mz741": 7148, "mz7410": 7149, "mz7411": 7150, "mz7412": 7151, "mz7413": 7152, "mz7414": 7153, "mz7415": 7154, "mz7416": 7155, "mz7417": 7156, "mz7418": 7157, "mz7419": 7158, "mz742": 7159, "mz7420": 7160, "mz7421": 7161, "mz7422": 7162, "mz7423": 7163, "mz7424": 7164, "mz7425": 7165, "mz7426": 7166, "mz7427": 7167, "mz7428": 7168, "mz7429": 7169, "mz743": 7170, "mz7430": 7171, "mz7431": 7172, "mz7432": 7173, "mz7433": 7174, "mz7434": 7175, "mz7435": 7176, "mz7436": 7177, "mz7437": 7178, "mz7438": 7179, "mz7439": 7180, "mz744": 7181, "mz7440": 7182, "mz7441": 7183, "mz7442": 7184, "mz7443": 7185, "mz7444": 7186, "mz7445": 7187, "mz7446": 7188, "mz7447": 7189, "mz7448": 7190, "mz7449": 7191, "mz745": 7192, "mz7450": 7193, "mz7451": 7194, "mz7452": 7195, "mz7453": 7196, "mz7454": 7197, "mz7455": 7198, "mz7456": 7199, "mz7457": 7200, "mz7458": 7201, "mz7459": 7202, "mz746": 7203, "mz7460": 7204, "mz7461": 7205, "mz7462": 7206, "mz7463": 7207, "mz7464": 7208, "mz7465": 7209, "mz7466": 7210, "mz7467": 7211, "mz7468": 7212, "mz7469": 7213, "mz747": 7214, "mz7470": 7215, "mz7471": 7216, "mz7472": 7217, "mz7473": 7218, "mz7474": 7219, "mz7475": 7220, "mz7476": 7221, "mz7477": 7222, "mz7478": 7223, "mz7479": 7224, "mz748": 7225, "mz7480": 7226, "mz7481": 7227, "mz7482": 7228, "mz7483": 7229, "mz7484": 7230, "mz7485": 7231, "mz7486": 7232, "mz7487": 7233, "mz7488": 7234, "mz7489": 7235, "mz749": 7236, "mz7490": 7237, "mz7491": 7238, "mz7492": 7239, "mz7493": 7240, "mz7494": 7241, "mz7495": 7242, "mz7496": 7243, "mz7497": 7244, "mz7498": 7245, "mz7499": 7246, "mz75": 7247, "mz750": 7248, "mz7500": 7249, "mz7501": 7250, "mz7502": 7251, "mz7503": 7252, "mz7504": 7253, "mz7505": 7254, "mz7506": 7255, "mz7507": 7256, "mz7508": 7257, "mz7509": 7258, "mz751": 7259, "mz7510": 7260, "mz7511": 7261, "mz7512": 7262, "mz7513": 7263, "mz7514": 7264, "mz7515": 7265, "mz7516": 7266, "mz7517": 7267, "mz7518": 7268, "mz7519": 7269, "mz752": 7270, "mz7520": 7271, "mz7521": 7272, "mz7522": 7273, "mz7523": 7274, "mz7524": 7275, "mz7525": 7276, "mz7526": 7277, "mz7527": 7278, "mz7528": 7279, "mz7529": 7280, "mz753": 7281, "mz7530": 7282, "mz7531": 7283, "mz7532": 7284, "mz7533": 7285, "mz7534": 7286, "mz7535": 7287, "mz7536": 7288, "mz7537": 7289, "mz7538": 7290, "mz7539": 7291, "mz754": 7292, "mz7540": 7293, "mz7541": 7294, "mz7542": 7295, "mz7543": 7296, "mz7544": 7297, "mz7545": 7298, "mz7546": 7299, "mz7547": 7300, "mz7548": 7301, "mz7549": 7302, "mz755": 7303, "mz7550": 7304, "mz7551": 7305, "mz7552": 7306, "mz7553": 7307, "mz7554": 7308, "mz7555": 7309, "mz7556": 7310, "mz7557": 7311, "mz7558": 7312, "mz7559": 7313, "mz756": 7314, "mz7560": 7315, "mz7561": 7316, "mz7562": 7317, "mz7563": 7318, "mz7564": 7319, "mz7565": 7320, "mz7566": 7321, "mz7567": 7322, "mz7568": 7323, "mz7569": 7324, "mz757": 7325, "mz7570": 7326, "mz7571": 7327, "mz7572": 7328, "mz7573": 7329, "mz7574": 7330, "mz7575": 7331, "mz7576": 7332, "mz7577": 7333, "mz7578": 7334, "mz7579": 7335, "mz758": 7336, "mz7580": 7337, "mz7581": 7338, "mz7582": 7339, "mz7583": 7340, "mz7584": 7341, "mz7585": 7342, "mz7586": 7343, "mz7587": 7344, "mz7588": 7345, "mz7589": 7346, "mz759": 7347, "mz7590": 7348, "mz7591": 7349, "mz7592": 7350, "mz7593": 7351, "mz7594": 7352, "mz7595": 7353, "mz7596": 7354, "mz7597": 7355, "mz7598": 7356, "mz7599": 7357, "mz76": 7358, "mz760": 7359, "mz7600": 7360, "mz7601": 7361, "mz7602": 7362, "mz7603": 7363, "mz7604": 7364, "mz7605": 7365, "mz7606": 7366, "mz7607": 7367, "mz7608": 7368, "mz7609": 7369, "mz761": 7370, "mz7610": 7371, "mz7611": 7372, "mz7612": 7373, "mz7613": 7374, "mz7614": 7375, "mz7615": 7376, "mz7616": 7377, "mz7617": 7378, "mz7618": 7379, "mz7619": 7380, "mz762": 7381, "mz7620": 7382, "mz7621": 7383, "mz7622": 7384, "mz7623": 7385, "mz7624": 7386, "mz7625": 7387, "mz7626": 7388, "mz7627": 7389, "mz7628": 7390, "mz7629": 7391, "mz763": 7392, "mz7630": 7393, "mz7631": 7394, "mz7632": 7395, "mz7633": 7396, "mz7634": 7397, "mz7635": 7398, "mz7636": 7399, "mz7637": 7400, "mz7638": 7401, "mz7639": 7402, "mz764": 7403, "mz7640": 7404, "mz7641": 7405, "mz7642": 7406, "mz7643": 7407, "mz7644": 7408, "mz7645": 7409, "mz7646": 7410, "mz7647": 7411, "mz7648": 7412, "mz7649": 7413, "mz765": 7414, "mz7650": 7415, "mz7651": 7416, "mz7652": 7417, "mz7653": 7418, "mz7654": 7419, "mz7655": 7420, "mz7656": 7421, "mz7657": 7422, "mz7658": 7423, "mz7659": 7424, "mz766": 7425, "mz7660": 7426, "mz7661": 7427, "mz7662": 7428, "mz7663": 7429, "mz7664": 7430, "mz7665": 7431, "mz7666": 7432, "mz7667": 7433, "mz7668": 7434, "mz7669": 7435, "mz767": 7436, "mz7670": 7437, "mz7671": 7438, "mz7672": 7439, "mz7673": 7440, "mz7674": 7441, "mz7675": 7442, "mz7676": 7443, "mz7677": 7444, "mz7678": 7445, "mz7679": 7446, "mz768": 7447, "mz7680": 7448, "mz7681": 7449, "mz7682": 7450, "mz7683": 7451, "mz7684": 7452, "mz7685": 7453, "mz7686": 7454, "mz7687": 7455, "mz7688": 7456, "mz7689": 7457, "mz769": 7458, "mz7690": 7459, "mz7691": 7460, "mz7692": 7461, "mz7693": 7462, "mz7694": 7463, "mz7695": 7464, "mz7696": 7465, "mz7697": 7466, "mz7698": 7467, "mz7699": 7468, "mz77": 7469, "mz770": 7470, "mz7700": 7471, "mz7701": 7472, "mz7702": 7473, "mz7703": 7474, "mz7704": 7475, "mz7705": 7476, "mz7706": 7477, "mz7707": 7478, "mz7708": 7479, "mz7709": 7480, "mz771": 7481, "mz7710": 7482, "mz7711": 7483, "mz7712": 7484, "mz7713": 7485, "mz7714": 7486, "mz7715": 7487, "mz7716": 7488, "mz7717": 7489, "mz7718": 7490, "mz7719": 7491, "mz772": 7492, "mz7720": 7493, "mz7721": 7494, "mz7722": 7495, "mz7723": 7496, "mz7724": 7497, "mz7725": 7498, "mz7726": 7499, "mz7727": 7500, "mz7728": 7501, "mz7729": 7502, "mz773": 7503, "mz7730": 7504, "mz7731": 7505, "mz7732": 7506, "mz7733": 7507, "mz7734": 7508, "mz7735": 7509, "mz7736": 7510, "mz7737": 7511, "mz7738": 7512, "mz7739": 7513, "mz774": 7514, "mz7740": 7515, "mz7741": 7516, "mz7742": 7517, "mz7743": 7518, "mz7744": 7519, "mz7745": 7520, "mz7746": 7521, "mz7747": 7522, "mz7748": 7523, "mz7749": 7524, "mz775": 7525, "mz7750": 7526, "mz7751": 7527, "mz7752": 7528, "mz7753": 7529, "mz7754": 7530, "mz7755": 7531, "mz7756": 7532, "mz7757": 7533, "mz7758": 7534, "mz7759": 7535, "mz776": 7536, "mz7760": 7537, "mz7761": 7538, "mz7762": 7539, "mz7763": 7540, "mz7764": 7541, "mz7765": 7542, "mz7766": 7543, "mz7767": 7544, "mz7768": 7545, "mz7769": 7546, "mz777": 7547, "mz7770": 7548, "mz7771": 7549, "mz7772": 7550, "mz7773": 7551, "mz7774": 7552, "mz7775": 7553, "mz7776": 7554, "mz7777": 7555, "mz7778": 7556, "mz7779": 7557, "mz778": 7558, "mz7780": 7559, "mz7781": 7560, "mz7782": 7561, "mz7783": 7562, "mz7784": 7563, "mz7785": 7564, "mz7786": 7565, "mz7787": 7566, "mz7788": 7567, "mz7789": 7568, "mz779": 7569, "mz7790": 7570, "mz7791": 7571, "mz7792": 7572, "mz7793": 7573, "mz7794": 7574, "mz7795": 7575, "mz7796": 7576, "mz7797": 7577, "mz7798": 7578, "mz7799": 7579, "mz78": 7580, "mz780": 7581, "mz7800": 7582, "mz7801": 7583, "mz7802": 7584, "mz7803": 7585, "mz7804": 7586, "mz7805": 7587, "mz7806": 7588, "mz7807": 7589, "mz7808": 7590, "mz7809": 7591, "mz781": 7592, "mz7810": 7593, "mz7811": 7594, "mz7812": 7595, "mz7813": 7596, "mz7814": 7597, "mz7815": 7598, "mz7816": 7599, "mz7817": 7600, "mz7818": 7601, "mz7819": 7602, "mz782": 7603, "mz7820": 7604, "mz7821": 7605, "mz7822": 7606, "mz7823": 7607, "mz7824": 7608, "mz7825": 7609, "mz7826": 7610, "mz7827": 7611, "mz7828": 7612, "mz7829": 7613, "mz783": 7614, "mz7830": 7615, "mz7831": 7616, "mz7832": 7617, "mz7833": 7618, "mz7834": 7619, "mz7835": 7620, "mz7836": 7621, "mz7837": 7622, "mz7838": 7623, "mz7839": 7624, "mz784": 7625, "mz7840": 7626, "mz7841": 7627, "mz7842": 7628, "mz7843": 7629, "mz7844": 7630, "mz7845": 7631, "mz7846": 7632, "mz7847": 7633, "mz7848": 7634, "mz7849": 7635, "mz785": 7636, "mz7850": 7637, "mz7851": 7638, "mz7852": 7639, "mz7853": 7640, "mz7854": 7641, "mz7855": 7642, "mz7856": 7643, "mz7857": 7644, "mz7858": 7645, "mz7859": 7646, "mz786": 7647, "mz7860": 7648, "mz7861": 7649, "mz7862": 7650, "mz7863": 7651, "mz7864": 7652, "mz7865": 7653, "mz7866": 7654, "mz7867": 7655, "mz7868": 7656, "mz7869": 7657, "mz787": 7658, "mz7870": 7659, "mz7871": 7660, "mz7872": 7661, "mz7873": 7662, "mz7874": 7663, "mz7875": 7664, "mz7876": 7665, "mz7877": 7666, "mz7878": 7667, "mz7879": 7668, "mz788": 7669, "mz7880": 7670, "mz7881": 7671, "mz7882": 7672, "mz7883": 7673, "mz7884": 7674, "mz7885": 7675, "mz7886": 7676, "mz7887": 7677, "mz7888": 7678, "mz7889": 7679, "mz789": 7680, "mz7890": 7681, "mz7891": 7682, "mz7892": 7683, "mz7893": 7684, "mz7894": 7685, "mz7895": 7686, "mz7896": 7687, "mz7897": 7688, "mz7898": 7689, "mz7899": 7690, "mz79": 7691, "mz790": 7692, "mz7900": 7693, "mz7901": 7694, "mz7902": 7695, "mz7903": 7696, "mz7904": 7697, "mz7905": 7698, "mz7906": 7699, "mz7907": 7700, "mz7908": 7701, "mz7909": 7702, "mz791": 7703, "mz7910": 7704, "mz7911": 7705, "mz7912": 7706, "mz7913": 7707, "mz7914": 7708, "mz7915": 7709, "mz7916": 7710, "mz7917": 7711, "mz7918": 7712, "mz7919": 7713, "mz792": 7714, "mz7920": 7715, "mz7921": 7716, "mz7922": 7717, "mz7923": 7718, "mz7924": 7719, "mz7925": 7720, "mz7926": 7721, "mz7927": 7722, "mz7928": 7723, "mz7929": 7724, "mz793": 7725, "mz7930": 7726, "mz7931": 7727, "mz7932": 7728, "mz7933": 7729, "mz7934": 7730, "mz7935": 7731, "mz7936": 7732, "mz7937": 7733, "mz7938": 7734, "mz7939": 7735, "mz794": 7736, "mz7940": 7737, "mz7941": 7738, "mz7942": 7739, "mz7943": 7740, "mz7944": 7741, "mz7945": 7742, "mz7946": 7743, "mz7947": 7744, "mz7948": 7745, "mz7949": 7746, "mz795": 7747, "mz7950": 7748, "mz7951": 7749, "mz7952": 7750, "mz7953": 7751, "mz7954": 7752, "mz7955": 7753, "mz7956": 7754, "mz7957": 7755, "mz7958": 7756, "mz7959": 7757, "mz796": 7758, "mz7960": 7759, "mz7961": 7760, "mz7962": 7761, "mz7963": 7762, "mz7964": 7763, "mz7965": 7764, "mz7966": 7765, "mz7967": 7766, "mz7968": 7767, "mz7969": 7768, "mz797": 7769, "mz7970": 7770, "mz7971": 7771, "mz7972": 7772, "mz7973": 7773, "mz7974": 7774, "mz7975": 7775, "mz7976": 7776, "mz7977": 7777, "mz7978": 7778, "mz7979": 7779, "mz798": 7780, "mz7980": 7781, "mz7981": 7782, "mz7982": 7783, "mz7983": 7784, "mz7984": 7785, "mz7985": 7786, "mz7986": 7787, "mz7987": 7788, "mz7988": 7789, "mz7989": 7790, "mz799": 7791, "mz7990": 7792, "mz7991": 7793, "mz7992": 7794, "mz7993": 7795, "mz7994": 7796, "mz7995": 7797, "mz7996": 7798, "mz7997": 7799, "mz7998": 7800, "mz7999": 7801, "mz8": 7802, "mz80": 7803, "mz800": 7804, "mz8000": 7805, "mz8001": 7806, "mz8002": 7807, "mz8003": 7808, "mz8004": 7809, "mz8005": 7810, "mz8006": 7811, "mz8007": 7812, "mz8008": 7813, "mz8009": 7814, "mz801": 7815, "mz8010": 7816, "mz8011": 7817, "mz8012": 7818, "mz8013": 7819, "mz8014": 7820, "mz8015": 7821, "mz8016": 7822, "mz8017": 7823, "mz8018": 7824, "mz8019": 7825, "mz802": 7826, "mz8020": 7827, "mz8021": 7828, "mz8022": 7829, "mz8023": 7830, "mz8024": 7831, "mz8025": 7832, "mz8026": 7833, "mz8027": 7834, "mz8028": 7835, "mz8029": 7836, "mz803": 7837, "mz8030": 7838, "mz8031": 7839, "mz8032": 7840, "mz8033": 7841, "mz8034": 7842, "mz8035": 7843, "mz8036": 7844, "mz8037": 7845, "mz8038": 7846, "mz8039": 7847, "mz804": 7848, "mz8040": 7849, "mz8041": 7850, "mz8042": 7851, "mz8043": 7852, "mz8044": 7853, "mz8045": 7854, "mz8046": 7855, "mz8047": 7856, "mz8048": 7857, "mz8049": 7858, "mz805": 7859, "mz8050": 7860, "mz8051": 7861, "mz8052": 7862, "mz8053": 7863, "mz8054": 7864, "mz8055": 7865, "mz8056": 7866, "mz8057": 7867, "mz8058": 7868, "mz8059": 7869, "mz806": 7870, "mz8060": 7871, "mz8061": 7872, "mz8062": 7873, "mz8063": 7874, "mz8064": 7875, "mz8065": 7876, "mz8066": 7877, "mz8067": 7878, "mz8068": 7879, "mz8069": 7880, "mz807": 7881, "mz8070": 7882, "mz8071": 7883, "mz8072": 7884, "mz8073": 7885, "mz8074": 7886, "mz8075": 7887, "mz8076": 7888, "mz8077": 7889, "mz8078": 7890, "mz8079": 7891, "mz808": 7892, "mz8080": 7893, "mz8081": 7894, "mz8082": 7895, "mz8083": 7896, "mz8084": 7897, "mz8085": 7898, "mz8086": 7899, "mz8087": 7900, "mz8088": 7901, "mz8089": 7902, "mz809": 7903, "mz8090": 7904, "mz8091": 7905, "mz8092": 7906, "mz8093": 7907, "mz8094": 7908, "mz8095": 7909, "mz8096": 7910, "mz8097": 7911, "mz8098": 7912, "mz8099": 7913, "mz81": 7914, "mz810": 7915, "mz8100": 7916, "mz8101": 7917, "mz8102": 7918, "mz8103": 7919, "mz8104": 7920, "mz8105": 7921, "mz8106": 7922, "mz8107": 7923, "mz8108": 7924, "mz8109": 7925, "mz811": 7926, "mz8110": 7927, "mz8111": 7928, "mz8112": 7929, "mz8113": 7930, "mz8114": 7931, "mz8115": 7932, "mz8116": 7933, "mz8117": 7934, "mz8118": 7935, "mz8119": 7936, "mz812": 7937, "mz8120": 7938, "mz8121": 7939, "mz8122": 7940, "mz8123": 7941, "mz8124": 7942, "mz8125": 7943, "mz8126": 7944, "mz8127": 7945, "mz8128": 7946, "mz8129": 7947, "mz813": 7948, "mz8130": 7949, "mz8131": 7950, "mz8132": 7951, "mz8133": 7952, "mz8134": 7953, "mz8135": 7954, "mz8136": 7955, "mz8137": 7956, "mz8138": 7957, "mz8139": 7958, "mz814": 7959, "mz8140": 7960, "mz8141": 7961, "mz8142": 7962, "mz8143": 7963, "mz8144": 7964, "mz8145": 7965, "mz8146": 7966, "mz8147": 7967, "mz8148": 7968, "mz8149": 7969, "mz815": 7970, "mz8150": 7971, "mz8151": 7972, "mz8152": 7973, "mz8153": 7974, "mz8154": 7975, "mz8155": 7976, "mz8156": 7977, "mz8157": 7978, "mz8158": 7979, "mz8159": 7980, "mz816": 7981, "mz8160": 7982, "mz8161": 7983, "mz8162": 7984, "mz8163": 7985, "mz8164": 7986, "mz8165": 7987, "mz8166": 7988, "mz8167": 7989, "mz8168": 7990, "mz8169": 7991, "mz817": 7992, "mz8170": 7993, "mz8171": 7994, "mz8172": 7995, "mz8173": 7996, "mz8174": 7997, "mz8175": 7998, "mz8176": 7999, "mz8177": 8000, "mz8178": 8001, "mz8179": 8002, "mz818": 8003, "mz8180": 8004, "mz8181": 8005, "mz8182": 8006, "mz8183": 8007, "mz8184": 8008, "mz8185": 8009, "mz8186": 8010, "mz8187": 8011, "mz8188": 8012, "mz8189": 8013, "mz819": 8014, "mz8190": 8015, "mz8191": 8016, "mz8192": 8017, "mz8193": 8018, "mz8194": 8019, "mz8195": 8020, "mz8196": 8021, "mz8197": 8022, "mz8198": 8023, "mz8199": 8024, "mz82": 8025, "mz820": 8026, "mz8200": 8027, "mz8201": 8028, "mz8202": 8029, "mz8203": 8030, "mz8204": 8031, "mz8205": 8032, "mz8206": 8033, "mz8207": 8034, "mz8208": 8035, "mz8209": 8036, "mz821": 8037, "mz8210": 8038, "mz8211": 8039, "mz8212": 8040, "mz8213": 8041, "mz8214": 8042, "mz8215": 8043, "mz8216": 8044, "mz8217": 8045, "mz8218": 8046, "mz8219": 8047, "mz822": 8048, "mz8220": 8049, "mz8221": 8050, "mz8222": 8051, "mz8223": 8052, "mz8224": 8053, "mz8225": 8054, "mz8226": 8055, "mz8227": 8056, "mz8228": 8057, "mz8229": 8058, "mz823": 8059, "mz8230": 8060, "mz8231": 8061, "mz8232": 8062, "mz8233": 8063, "mz8234": 8064, "mz8235": 8065, "mz8236": 8066, "mz8237": 8067, "mz8238": 8068, "mz8239": 8069, "mz824": 8070, "mz8240": 8071, "mz8241": 8072, "mz8242": 8073, "mz8243": 8074, "mz8244": 8075, "mz8245": 8076, "mz8246": 8077, "mz8247": 8078, "mz8248": 8079, "mz8249": 8080, "mz825": 8081, "mz8250": 8082, "mz8251": 8083, "mz8252": 8084, "mz8253": 8085, "mz8254": 8086, "mz8255": 8087, "mz8256": 8088, "mz8257": 8089, "mz8258": 8090, "mz8259": 8091, "mz826": 8092, "mz8260": 8093, "mz8261": 8094, "mz8262": 8095, "mz8263": 8096, "mz8264": 8097, "mz8265": 8098, "mz8266": 8099, "mz8267": 8100, "mz8268": 8101, "mz8269": 8102, "mz827": 8103, "mz8270": 8104, "mz8271": 8105, "mz8272": 8106, "mz8273": 8107, "mz8274": 8108, "mz8275": 8109, "mz8276": 8110, "mz8277": 8111, "mz8278": 8112, "mz8279": 8113, "mz828": 8114, "mz8280": 8115, "mz8281": 8116, "mz8282": 8117, "mz8283": 8118, "mz8284": 8119, "mz8285": 8120, "mz8286": 8121, "mz8287": 8122, "mz8288": 8123, "mz8289": 8124, "mz829": 8125, "mz8290": 8126, "mz8291": 8127, "mz8292": 8128, "mz8293": 8129, "mz8294": 8130, "mz8295": 8131, "mz8296": 8132, "mz8297": 8133, "mz8298": 8134, "mz8299": 8135, "mz83": 8136, "mz830": 8137, "mz8300": 8138, "mz8301": 8139, "mz8302": 8140, "mz8303": 8141, "mz8304": 8142, "mz8305": 8143, "mz8306": 8144, "mz8307": 8145, "mz8308": 8146, "mz8309": 8147, "mz831": 8148, "mz8310": 8149, "mz8311": 8150, "mz8312": 8151, "mz8313": 8152, "mz8314": 8153, "mz8315": 8154, "mz8316": 8155, "mz8317": 8156, "mz8318": 8157, "mz8319": 8158, "mz832": 8159, "mz8320": 8160, "mz8321": 8161, "mz8322": 8162, "mz8323": 8163, "mz8324": 8164, "mz8325": 8165, "mz8326": 8166, "mz8327": 8167, "mz8328": 8168, "mz8329": 8169, "mz833": 8170, "mz8330": 8171, "mz8331": 8172, "mz8332": 8173, "mz8333": 8174, "mz8334": 8175, "mz8335": 8176, "mz8336": 8177, "mz8337": 8178, "mz8338": 8179, "mz8339": 8180, "mz834": 8181, "mz8340": 8182, "mz8341": 8183, "mz8342": 8184, "mz8343": 8185, "mz8344": 8186, "mz8345": 8187, "mz8346": 8188, "mz8347": 8189, "mz8348": 8190, "mz8349": 8191, "mz835": 8192, "mz8350": 8193, "mz8351": 8194, "mz8352": 8195, "mz8353": 8196, "mz8354": 8197, "mz8355": 8198, "mz8356": 8199, "mz8357": 8200, "mz8358": 8201, "mz8359": 8202, "mz836": 8203, "mz8360": 8204, "mz8361": 8205, "mz8362": 8206, "mz8363": 8207, "mz8364": 8208, "mz8365": 8209, "mz8366": 8210, "mz8367": 8211, "mz8368": 8212, "mz8369": 8213, "mz837": 8214, "mz8370": 8215, "mz8371": 8216, "mz8372": 8217, "mz8373": 8218, "mz8374": 8219, "mz8375": 8220, "mz8376": 8221, "mz8377": 8222, "mz8378": 8223, "mz8379": 8224, "mz838": 8225, "mz8380": 8226, "mz8381": 8227, "mz8382": 8228, "mz8383": 8229, "mz8384": 8230, "mz8385": 8231, "mz8386": 8232, "mz8387": 8233, "mz8388": 8234, "mz8389": 8235, "mz839": 8236, "mz8390": 8237, "mz8391": 8238, "mz8392": 8239, "mz8393": 8240, "mz8394": 8241, "mz8395": 8242, "mz8396": 8243, "mz8397": 8244, "mz8398": 8245, "mz8399": 8246, "mz84": 8247, "mz840": 8248, "mz8400": 8249, "mz8401": 8250, "mz8402": 8251, "mz8403": 8252, "mz8404": 8253, "mz8405": 8254, "mz8406": 8255, "mz8407": 8256, "mz8408": 8257, "mz8409": 8258, "mz841": 8259, "mz8410": 8260, "mz8411": 8261, "mz8412": 8262, "mz8413": 8263, "mz8414": 8264, "mz8415": 8265, "mz8416": 8266, "mz8417": 8267, "mz8418": 8268, "mz8419": 8269, "mz842": 8270, "mz8420": 8271, "mz8421": 8272, "mz8422": 8273, "mz8423": 8274, "mz8424": 8275, "mz8425": 8276, "mz8426": 8277, "mz8427": 8278, "mz8428": 8279, "mz8429": 8280, "mz843": 8281, "mz8430": 8282, "mz8431": 8283, "mz8432": 8284, "mz8433": 8285, "mz8434": 8286, "mz8435": 8287, "mz8436": 8288, "mz8437": 8289, "mz8438": 8290, "mz8439": 8291, "mz844": 8292, "mz8440": 8293, "mz8441": 8294, "mz8442": 8295, "mz8443": 8296, "mz8444": 8297, "mz8445": 8298, "mz8446": 8299, "mz8447": 8300, "mz8448": 8301, "mz8449": 8302, "mz845": 8303, "mz8450": 8304, "mz8451": 8305, "mz8452": 8306, "mz8453": 8307, "mz8454": 8308, "mz8455": 8309, "mz8456": 8310, "mz8457": 8311, "mz8458": 8312, "mz8459": 8313, "mz846": 8314, "mz8460": 8315, "mz8461": 8316, "mz8462": 8317, "mz8463": 8318, "mz8464": 8319, "mz8465": 8320, "mz8466": 8321, "mz8467": 8322, "mz8468": 8323, "mz8469": 8324, "mz847": 8325, "mz8470": 8326, "mz8471": 8327, "mz8472": 8328, "mz8473": 8329, "mz8474": 8330, "mz8475": 8331, "mz8476": 8332, "mz8477": 8333, "mz8478": 8334, "mz8479": 8335, "mz848": 8336, "mz8480": 8337, "mz8481": 8338, "mz8482": 8339, "mz8483": 8340, "mz8484": 8341, "mz8485": 8342, "mz8486": 8343, "mz8487": 8344, "mz8488": 8345, "mz8489": 8346, "mz849": 8347, "mz8490": 8348, "mz8491": 8349, "mz8492": 8350, "mz8493": 8351, "mz8494": 8352, "mz8495": 8353, "mz8496": 8354, "mz8497": 8355, "mz8498": 8356, "mz8499": 8357, "mz85": 8358, "mz850": 8359, "mz8500": 8360, "mz8501": 8361, "mz8502": 8362, "mz8503": 8363, "mz8504": 8364, "mz8505": 8365, "mz8506": 8366, "mz8507": 8367, "mz8508": 8368, "mz8509": 8369, "mz851": 8370, "mz8510": 8371, "mz8511": 8372, "mz8512": 8373, "mz8513": 8374, "mz8514": 8375, "mz8515": 8376, "mz8516": 8377, "mz8517": 8378, "mz8518": 8379, "mz8519": 8380, "mz852": 8381, "mz8520": 8382, "mz8521": 8383, "mz8522": 8384, "mz8523": 8385, "mz8524": 8386, "mz8525": 8387, "mz8526": 8388, "mz8527": 8389, "mz8528": 8390, "mz8529": 8391, "mz853": 8392, "mz8530": 8393, "mz8531": 8394, "mz8532": 8395, "mz8533": 8396, "mz8534": 8397, "mz8535": 8398, "mz8536": 8399, "mz8537": 8400, "mz8538": 8401, "mz8539": 8402, "mz854": 8403, "mz8540": 8404, "mz8541": 8405, "mz8542": 8406, "mz8543": 8407, "mz8544": 8408, "mz8545": 8409, "mz8546": 8410, "mz8547": 8411, "mz8548": 8412, "mz8549": 8413, "mz855": 8414, "mz8550": 8415, "mz8551": 8416, "mz8552": 8417, "mz8553": 8418, "mz8554": 8419, "mz8555": 8420, "mz8556": 8421, "mz8557": 8422, "mz8558": 8423, "mz8559": 8424, "mz856": 8425, "mz8560": 8426, "mz8561": 8427, "mz8562": 8428, "mz8563": 8429, "mz8564": 8430, "mz8565": 8431, "mz8566": 8432, "mz8567": 8433, "mz8568": 8434, "mz8569": 8435, "mz857": 8436, "mz8570": 8437, "mz8571": 8438, "mz8572": 8439, "mz8573": 8440, "mz8574": 8441, "mz8575": 8442, "mz8576": 8443, "mz8577": 8444, "mz8578": 8445, "mz8579": 8446, "mz858": 8447, "mz8580": 8448, "mz8581": 8449, "mz8582": 8450, "mz8583": 8451, "mz8584": 8452, "mz8585": 8453, "mz8586": 8454, "mz8587": 8455, "mz8588": 8456, "mz8589": 8457, "mz859": 8458, "mz8590": 8459, "mz8591": 8460, "mz8592": 8461, "mz8593": 8462, "mz8594": 8463, "mz8595": 8464, "mz8596": 8465, "mz8597": 8466, "mz8598": 8467, "mz8599": 8468, "mz86": 8469, "mz860": 8470, "mz8600": 8471, "mz8601": 8472, "mz8602": 8473, "mz8603": 8474, "mz8604": 8475, "mz8605": 8476, "mz8606": 8477, "mz8607": 8478, "mz8608": 8479, "mz8609": 8480, "mz861": 8481, "mz8610": 8482, "mz8611": 8483, "mz8612": 8484, "mz8613": 8485, "mz8614": 8486, "mz8615": 8487, "mz8616": 8488, "mz8617": 8489, "mz8618": 8490, "mz8619": 8491, "mz862": 8492, "mz8620": 8493, "mz8621": 8494, "mz8622": 8495, "mz8623": 8496, "mz8624": 8497, "mz8625": 8498, "mz8626": 8499, "mz8627": 8500, "mz8628": 8501, "mz8629": 8502, "mz863": 8503, "mz8630": 8504, "mz8631": 8505, "mz8632": 8506, "mz8633": 8507, "mz8634": 8508, "mz8635": 8509, "mz8636": 8510, "mz8637": 8511, "mz8638": 8512, "mz8639": 8513, "mz864": 8514, "mz8640": 8515, "mz8641": 8516, "mz8642": 8517, "mz8643": 8518, "mz8644": 8519, "mz8645": 8520, "mz8646": 8521, "mz8647": 8522, "mz8648": 8523, "mz8649": 8524, "mz865": 8525, "mz8650": 8526, "mz8651": 8527, "mz8652": 8528, "mz8653": 8529, "mz8654": 8530, "mz8655": 8531, "mz8656": 8532, "mz8657": 8533, "mz8658": 8534, "mz8659": 8535, "mz866": 8536, "mz8660": 8537, "mz8661": 8538, "mz8662": 8539, "mz8663": 8540, "mz8664": 8541, "mz8665": 8542, "mz8666": 8543, "mz8667": 8544, "mz8668": 8545, "mz8669": 8546, "mz867": 8547, "mz8670": 8548, "mz8671": 8549, "mz8672": 8550, "mz8673": 8551, "mz8674": 8552, "mz8675": 8553, "mz8676": 8554, "mz8677": 8555, "mz8678": 8556, "mz8679": 8557, "mz868": 8558, "mz8680": 8559, "mz8681": 8560, "mz8682": 8561, "mz8683": 8562, "mz8684": 8563, "mz8685": 8564, "mz8686": 8565, "mz8687": 8566, "mz8688": 8567, "mz8689": 8568, "mz869": 8569, "mz8690": 8570, "mz8691": 8571, "mz8692": 8572, "mz8693": 8573, "mz8694": 8574, "mz8695": 8575, "mz8696": 8576, "mz8697": 8577, "mz8698": 8578, "mz8699": 8579, "mz87": 8580, "mz870": 8581, "mz8700": 8582, "mz8701": 8583, "mz8702": 8584, "mz8703": 8585, "mz8704": 8586, "mz8705": 8587, "mz8706": 8588, "mz8707": 8589, "mz8708": 8590, "mz8709": 8591, "mz871": 8592, "mz8710": 8593, "mz8711": 8594, "mz8712": 8595, "mz8713": 8596, "mz8714": 8597, "mz8715": 8598, "mz8716": 8599, "mz8717": 8600, "mz8718": 8601, "mz8719": 8602, "mz872": 8603, "mz8720": 8604, "mz8721": 8605, "mz8722": 8606, "mz8723": 8607, "mz8724": 8608, "mz8725": 8609, "mz8726": 8610, "mz8727": 8611, "mz8728": 8612, "mz8729": 8613, "mz873": 8614, "mz8730": 8615, "mz8731": 8616, "mz8732": 8617, "mz8733": 8618, "mz8734": 8619, "mz8735": 8620, "mz8736": 8621, "mz8737": 8622, "mz8738": 8623, "mz8739": 8624, "mz874": 8625, "mz8740": 8626, "mz8741": 8627, "mz8742": 8628, "mz8743": 8629, "mz8744": 8630, "mz8745": 8631, "mz8746": 8632, "mz8747": 8633, "mz8748": 8634, "mz8749": 8635, "mz875": 8636, "mz8750": 8637, "mz8751": 8638, "mz8752": 8639, "mz8753": 8640, "mz8754": 8641, "mz8755": 8642, "mz8756": 8643, "mz8757": 8644, "mz8758": 8645, "mz8759": 8646, "mz876": 8647, "mz8760": 8648, "mz8761": 8649, "mz8762": 8650, "mz8763": 8651, "mz8764": 8652, "mz8765": 8653, "mz8766": 8654, "mz8767": 8655, "mz8768": 8656, "mz8769": 8657, "mz877": 8658, "mz8770": 8659, "mz8771": 8660, "mz8772": 8661, "mz8773": 8662, "mz8774": 8663, "mz8775": 8664, "mz8776": 8665, "mz8777": 8666, "mz8778": 8667, "mz8779": 8668, "mz878": 8669, "mz8780": 8670, "mz8781": 8671, "mz8782": 8672, "mz8783": 8673, "mz8784": 8674, "mz8785": 8675, "mz8786": 8676, "mz8787": 8677, "mz8788": 8678, "mz8789": 8679, "mz879": 8680, "mz8790": 8681, "mz8791": 8682, "mz8792": 8683, "mz8793": 8684, "mz8794": 8685, "mz8795": 8686, "mz8796": 8687, "mz8797": 8688, "mz8798": 8689, "mz8799": 8690, "mz88": 8691, "mz880": 8692, "mz8800": 8693, "mz8801": 8694, "mz8802": 8695, "mz8803": 8696, "mz8804": 8697, "mz8805": 8698, "mz8806": 8699, "mz8807": 8700, "mz8808": 8701, "mz8809": 8702, "mz881": 8703, "mz8810": 8704, "mz8811": 8705, "mz8812": 8706, "mz8813": 8707, "mz8814": 8708, "mz8815": 8709, "mz8816": 8710, "mz8817": 8711, "mz8818": 8712, "mz8819": 8713, "mz882": 8714, "mz8820": 8715, "mz8821": 8716, "mz8822": 8717, "mz8823": 8718, "mz8824": 8719, "mz8825": 8720, "mz8826": 8721, "mz8827": 8722, "mz8828": 8723, "mz8829": 8724, "mz883": 8725, "mz8830": 8726, "mz8831": 8727, "mz8832": 8728, "mz8833": 8729, "mz8834": 8730, "mz8835": 8731, "mz8836": 8732, "mz8837": 8733, "mz8838": 8734, "mz8839": 8735, "mz884": 8736, "mz8840": 8737, "mz8841": 8738, "mz8842": 8739, "mz8843": 8740, "mz8844": 8741, "mz8845": 8742, "mz8846": 8743, "mz8847": 8744, "mz8848": 8745, "mz8849": 8746, "mz885": 8747, "mz8850": 8748, "mz8851": 8749, "mz8852": 8750, "mz8853": 8751, "mz8854": 8752, "mz8855": 8753, "mz8856": 8754, "mz8857": 8755, "mz8858": 8756, "mz8859": 8757, "mz886": 8758, "mz8860": 8759, "mz8861": 8760, "mz8862": 8761, "mz8863": 8762, "mz8864": 8763, "mz8865": 8764, "mz8866": 8765, "mz8867": 8766, "mz8868": 8767, "mz8869": 8768, "mz887": 8769, "mz8870": 8770, "mz8871": 8771, "mz8872": 8772, "mz8873": 8773, "mz8874": 8774, "mz8875": 8775, "mz8876": 8776, "mz8877": 8777, "mz8878": 8778, "mz8879": 8779, "mz888": 8780, "mz8880": 8781, "mz8881": 8782, "mz8882": 8783, "mz8883": 8784, "mz8884": 8785, "mz8885": 8786, "mz8886": 8787, "mz8887": 8788, "mz8888": 8789, "mz8889": 8790, "mz889": 8791, "mz8890": 8792, "mz8891": 8793, "mz8892": 8794, "mz8893": 8795, "mz8894": 8796, "mz8895": 8797, "mz8896": 8798, "mz8897": 8799, "mz8898": 8800, "mz8899": 8801, "mz89": 8802, "mz890": 8803, "mz8900": 8804, "mz8901": 8805, "mz8902": 8806, "mz8903": 8807, "mz8904": 8808, "mz8905": 8809, "mz8906": 8810, "mz8907": 8811, "mz8908": 8812, "mz8909": 8813, "mz891": 8814, "mz8910": 8815, "mz8911": 8816, "mz8912": 8817, "mz8913": 8818, "mz8914": 8819, "mz8915": 8820, "mz8916": 8821, "mz8917": 8822, "mz8918": 8823, "mz8919": 8824, "mz892": 8825, "mz8920": 8826, "mz8921": 8827, "mz8922": 8828, "mz8923": 8829, "mz8924": 8830, "mz8925": 8831, "mz8926": 8832, "mz8927": 8833, "mz8928": 8834, "mz8929": 8835, "mz893": 8836, "mz8930": 8837, "mz8931": 8838, "mz8932": 8839, "mz8933": 8840, "mz8934": 8841, "mz8935": 8842, "mz8936": 8843, "mz8937": 8844, "mz8938": 8845, "mz8939": 8846, "mz894": 8847, "mz8940": 8848, "mz8941": 8849, "mz8942": 8850, "mz8943": 8851, "mz8944": 8852, "mz8945": 8853, "mz8946": 8854, "mz8947": 8855, "mz8948": 8856, "mz8949": 8857, "mz895": 8858, "mz8950": 8859, "mz8951": 8860, "mz8952": 8861, "mz8953": 8862, "mz8954": 8863, "mz8955": 8864, "mz8956": 8865, "mz8957": 8866, "mz8958": 8867, "mz8959": 8868, "mz896": 8869, "mz8960": 8870, "mz8961": 8871, "mz8962": 8872, "mz8963": 8873, "mz8964": 8874, "mz8965": 8875, "mz8966": 8876, "mz8967": 8877, "mz8968": 8878, "mz8969": 8879, "mz897": 8880, "mz8970": 8881, "mz8971": 8882, "mz8972": 8883, "mz8973": 8884, "mz8974": 8885, "mz8975": 8886, "mz8976": 8887, "mz8977": 8888, "mz8978": 8889, "mz8979": 8890, "mz898": 8891, "mz8980": 8892, "mz8981": 8893, "mz8982": 8894, "mz8983": 8895, "mz8984": 8896, "mz8985": 8897, "mz8986": 8898, "mz8987": 8899, "mz8988": 8900, "mz8989": 8901, "mz899": 8902, "mz8990": 8903, "mz8991": 8904, "mz8992": 8905, "mz8993": 8906, "mz8994": 8907, "mz8995": 8908, "mz8996": 8909, "mz8997": 8910, "mz8998": 8911, "mz8999": 8912, "mz9": 8913, "mz90": 8914, "mz900": 8915, "mz9000": 8916, "mz9001": 8917, "mz9002": 8918, "mz9003": 8919, "mz9004": 8920, "mz9005": 8921, "mz9006": 8922, "mz9007": 8923, "mz9008": 8924, "mz9009": 8925, "mz901": 8926, "mz9010": 8927, "mz9011": 8928, "mz9012": 8929, "mz9013": 8930, "mz9014": 8931, "mz9015": 8932, "mz9016": 8933, "mz9017": 8934, "mz9018": 8935, "mz9019": 8936, "mz902": 8937, "mz9020": 8938, "mz9021": 8939, "mz9022": 8940, "mz9023": 8941, "mz9024": 8942, "mz9025": 8943, "mz9026": 8944, "mz9027": 8945, "mz9028": 8946, "mz9029": 8947, "mz903": 8948, "mz9030": 8949, "mz9031": 8950, "mz9032": 8951, "mz9033": 8952, "mz9034": 8953, "mz9035": 8954, "mz9036": 8955, "mz9037": 8956, "mz9038": 8957, "mz9039": 8958, "mz904": 8959, "mz9040": 8960, "mz9041": 8961, "mz9042": 8962, "mz9043": 8963, "mz9044": 8964, "mz9045": 8965, "mz9046": 8966, "mz9047": 8967, "mz9048": 8968, "mz9049": 8969, "mz905": 8970, "mz9050": 8971, "mz9051": 8972, "mz9052": 8973, "mz9053": 8974, "mz9054": 8975, "mz9055": 8976, "mz9056": 8977, "mz9057": 8978, "mz9058": 8979, "mz9059": 8980, "mz906": 8981, "mz9060": 8982, "mz9061": 8983, "mz9062": 8984, "mz9063": 8985, "mz9064": 8986, "mz9065": 8987, "mz9066": 8988, "mz9067": 8989, "mz9068": 8990, "mz9069": 8991, "mz907": 8992, "mz9070": 8993, "mz9071": 8994, "mz9072": 8995, "mz9073": 8996, "mz9074": 8997, "mz9075": 8998, "mz9076": 8999, "mz9077": 9000, "mz9078": 9001, "mz9079": 9002, "mz908": 9003, "mz9080": 9004, "mz9081": 9005, "mz9082": 9006, "mz9083": 9007, "mz9084": 9008, "mz9085": 9009, "mz9086": 9010, "mz9087": 9011, "mz9088": 9012, "mz9089": 9013, "mz909": 9014, "mz9090": 9015, "mz9091": 9016, "mz9092": 9017, "mz9093": 9018, "mz9094": 9019, "mz9095": 9020, "mz9096": 9021, "mz9097": 9022, "mz9098": 9023, "mz9099": 9024, "mz91": 9025, "mz910": 9026, "mz9100": 9027, "mz9101": 9028, "mz9102": 9029, "mz9103": 9030, "mz9104": 9031, "mz9105": 9032, "mz9106": 9033, "mz9107": 9034, "mz9108": 9035, "mz9109": 9036, "mz911": 9037, "mz9110": 9038, "mz9111": 9039, "mz9112": 9040, "mz9113": 9041, "mz9114": 9042, "mz9115": 9043, "mz9116": 9044, "mz9117": 9045, "mz9118": 9046, "mz9119": 9047, "mz912": 9048, "mz9120": 9049, "mz9121": 9050, "mz9122": 9051, "mz9123": 9052, "mz9124": 9053, "mz9125": 9054, "mz9126": 9055, "mz9127": 9056, "mz9128": 9057, "mz9129": 9058, "mz913": 9059, "mz9130": 9060, "mz9131": 9061, "mz9132": 9062, "mz9133": 9063, "mz9134": 9064, "mz9135": 9065, "mz9136": 9066, "mz9137": 9067, "mz9138": 9068, "mz9139": 9069, "mz914": 9070, "mz9140": 9071, "mz9141": 9072, "mz9142": 9073, "mz9143": 9074, "mz9144": 9075, "mz9145": 9076, "mz9146": 9077, "mz9147": 9078, "mz9148": 9079, "mz9149": 9080, "mz915": 9081, "mz9150": 9082, "mz9151": 9083, "mz9152": 9084, "mz9153": 9085, "mz9154": 9086, "mz9155": 9087, "mz9156": 9088, "mz9157": 9089, "mz9158": 9090, "mz9159": 9091, "mz916": 9092, "mz9160": 9093, "mz9161": 9094, "mz9162": 9095, "mz9163": 9096, "mz9164": 9097, "mz9165": 9098, "mz9166": 9099, "mz9167": 9100, "mz9168": 9101, "mz9169": 9102, "mz917": 9103, "mz9170": 9104, "mz9171": 9105, "mz9172": 9106, "mz9173": 9107, "mz9174": 9108, "mz9175": 9109, "mz9176": 9110, "mz9177": 9111, "mz9178": 9112, "mz9179": 9113, "mz918": 9114, "mz9180": 9115, "mz9181": 9116, "mz9182": 9117, "mz9183": 9118, "mz9184": 9119, "mz9185": 9120, "mz9186": 9121, "mz9187": 9122, "mz9188": 9123, "mz9189": 9124, "mz919": 9125, "mz9190": 9126, "mz9191": 9127, "mz9192": 9128, "mz9193": 9129, "mz9194": 9130, "mz9195": 9131, "mz9196": 9132, "mz9197": 9133, "mz9198": 9134, "mz9199": 9135, "mz92": 9136, "mz920": 9137, "mz9200": 9138, "mz9201": 9139, "mz9202": 9140, "mz9203": 9141, "mz9204": 9142, "mz9205": 9143, "mz9206": 9144, "mz9207": 9145, "mz9208": 9146, "mz9209": 9147, "mz921": 9148, "mz9210": 9149, "mz9211": 9150, "mz9212": 9151, "mz9213": 9152, "mz9214": 9153, "mz9215": 9154, "mz9216": 9155, "mz9217": 9156, "mz9218": 9157, "mz9219": 9158, "mz922": 9159, "mz9220": 9160, "mz9221": 9161, "mz9222": 9162, "mz9223": 9163, "mz9224": 9164, "mz9225": 9165, "mz9226": 9166, "mz9227": 9167, "mz9228": 9168, "mz9229": 9169, "mz923": 9170, "mz9230": 9171, "mz9231": 9172, "mz9232": 9173, "mz9233": 9174, "mz9234": 9175, "mz9235": 9176, "mz9236": 9177, "mz9237": 9178, "mz9238": 9179, "mz9239": 9180, "mz924": 9181, "mz9240": 9182, "mz9241": 9183, "mz9242": 9184, "mz9243": 9185, "mz9244": 9186, "mz9245": 9187, "mz9246": 9188, "mz9247": 9189, "mz9248": 9190, "mz9249": 9191, "mz925": 9192, "mz9250": 9193, "mz9251": 9194, "mz9252": 9195, "mz9253": 9196, "mz9254": 9197, "mz9255": 9198, "mz9256": 9199, "mz9257": 9200, "mz9258": 9201, "mz9259": 9202, "mz926": 9203, "mz9260": 9204, "mz9261": 9205, "mz9262": 9206, "mz9263": 9207, "mz9264": 9208, "mz9265": 9209, "mz9266": 9210, "mz9267": 9211, "mz9268": 9212, "mz9269": 9213, "mz927": 9214, "mz9270": 9215, "mz9271": 9216, "mz9272": 9217, "mz9273": 9218, "mz9274": 9219, "mz9275": 9220, "mz9276": 9221, "mz9277": 9222, "mz9278": 9223, "mz9279": 9224, "mz928": 9225, "mz9280": 9226, "mz9281": 9227, "mz9282": 9228, "mz9283": 9229, "mz9284": 9230, "mz9285": 9231, "mz9286": 9232, "mz9287": 9233, "mz9288": 9234, "mz9289": 9235, "mz929": 9236, "mz9290": 9237, "mz9291": 9238, "mz9292": 9239, "mz9293": 9240, "mz9294": 9241, "mz9295": 9242, "mz9296": 9243, "mz9297": 9244, "mz9298": 9245, "mz9299": 9246, "mz93": 9247, "mz930": 9248, "mz9300": 9249, "mz9301": 9250, "mz9302": 9251, "mz9303": 9252, "mz9304": 9253, "mz9305": 9254, "mz9306": 9255, "mz9307": 9256, "mz9308": 9257, "mz9309": 9258, "mz931": 9259, "mz9310": 9260, "mz9311": 9261, "mz9312": 9262, "mz9313": 9263, "mz9314": 9264, "mz9315": 9265, "mz9316": 9266, "mz9317": 9267, "mz9318": 9268, "mz9319": 9269, "mz932": 9270, "mz9320": 9271, "mz9321": 9272, "mz9322": 9273, "mz9323": 9274, "mz9324": 9275, "mz9325": 9276, "mz9326": 9277, "mz9327": 9278, "mz9328": 9279, "mz9329": 9280, "mz933": 9281, "mz9330": 9282, "mz9331": 9283, "mz9332": 9284, "mz9333": 9285, "mz9334": 9286, "mz9335": 9287, "mz9336": 9288, "mz9337": 9289, "mz9338": 9290, "mz9339": 9291, "mz934": 9292, "mz9340": 9293, "mz9341": 9294, "mz9342": 9295, "mz9343": 9296, "mz9344": 9297, "mz9345": 9298, "mz9346": 9299, "mz9347": 9300, "mz9348": 9301, "mz9349": 9302, "mz935": 9303, "mz9350": 9304, "mz9351": 9305, "mz9352": 9306, "mz9353": 9307, "mz9354": 9308, "mz9355": 9309, "mz9356": 9310, "mz9357": 9311, "mz9358": 9312, "mz9359": 9313, "mz936": 9314, "mz9360": 9315, "mz9361": 9316, "mz9362": 9317, "mz9363": 9318, "mz9364": 9319, "mz9365": 9320, "mz9366": 9321, "mz9367": 9322, "mz9368": 9323, "mz9369": 9324, "mz937": 9325, "mz9370": 9326, "mz9371": 9327, "mz9372": 9328, "mz9373": 9329, "mz9374": 9330, "mz9375": 9331, "mz9376": 9332, "mz9377": 9333, "mz9378": 9334, "mz9379": 9335, "mz938": 9336, "mz9380": 9337, "mz9381": 9338, "mz9382": 9339, "mz9383": 9340, "mz9384": 9341, "mz9385": 9342, "mz9386": 9343, "mz9387": 9344, "mz9388": 9345, "mz9389": 9346, "mz939": 9347, "mz9390": 9348, "mz9391": 9349, "mz9392": 9350, "mz9393": 9351, "mz9394": 9352, "mz9395": 9353, "mz9396": 9354, "mz9397": 9355, "mz9398": 9356, "mz9399": 9357, "mz94": 9358, "mz940": 9359, "mz9400": 9360, "mz9401": 9361, "mz9402": 9362, "mz9403": 9363, "mz9404": 9364, "mz9405": 9365, "mz9406": 9366, "mz9407": 9367, "mz9408": 9368, "mz9409": 9369, "mz941": 9370, "mz9410": 9371, "mz9411": 9372, "mz9412": 9373, "mz9413": 9374, "mz9414": 9375, "mz9415": 9376, "mz9416": 9377, "mz9417": 9378, "mz9418": 9379, "mz9419": 9380, "mz942": 9381, "mz9420": 9382, "mz9421": 9383, "mz9422": 9384, "mz9423": 9385, "mz9424": 9386, "mz9425": 9387, "mz9426": 9388, "mz9427": 9389, "mz9428": 9390, "mz9429": 9391, "mz943": 9392, "mz9430": 9393, "mz9431": 9394, "mz9432": 9395, "mz9433": 9396, "mz9434": 9397, "mz9435": 9398, "mz9436": 9399, "mz9437": 9400, "mz9438": 9401, "mz9439": 9402, "mz944": 9403, "mz9440": 9404, "mz9441": 9405, "mz9442": 9406, "mz9443": 9407, "mz9444": 9408, "mz9445": 9409, "mz9446": 9410, "mz9447": 9411, "mz9448": 9412, "mz9449": 9413, "mz945": 9414, "mz9450": 9415, "mz9451": 9416, "mz9452": 9417, "mz9453": 9418, "mz9454": 9419, "mz9455": 9420, "mz9456": 9421, "mz9457": 9422, "mz9458": 9423, "mz9459": 9424, "mz946": 9425, "mz9460": 9426, "mz9461": 9427, "mz9462": 9428, "mz9463": 9429, "mz9464": 9430, "mz9465": 9431, "mz9466": 9432, "mz9467": 9433, "mz9468": 9434, "mz9469": 9435, "mz947": 9436, "mz9470": 9437, "mz9471": 9438, "mz9472": 9439, "mz9473": 9440, "mz9474": 9441, "mz9475": 9442, "mz9476": 9443, "mz9477": 9444, "mz9478": 9445, "mz9479": 9446, "mz948": 9447, "mz9480": 9448, "mz9481": 9449, "mz9482": 9450, "mz9483": 9451, "mz9484": 9452, "mz9485": 9453, "mz9486": 9454, "mz9487": 9455, "mz9488": 9456, "mz9489": 9457, "mz949": 9458, "mz9490": 9459, "mz9491": 9460, "mz9492": 9461, "mz9493": 9462, "mz9494": 9463, "mz9495": 9464, "mz9496": 9465, "mz9497": 9466, "mz9498": 9467, "mz9499": 9468, "mz95": 9469, "mz950": 9470, "mz9500": 9471, "mz9501": 9472, "mz9502": 9473, "mz9503": 9474, "mz9504": 9475, "mz9505": 9476, "mz9506": 9477, "mz9507": 9478, "mz9508": 9479, "mz9509": 9480, "mz951": 9481, "mz9510": 9482, "mz9511": 9483, "mz9512": 9484, "mz9513": 9485, "mz9514": 9486, "mz9515": 9487, "mz9516": 9488, "mz9517": 9489, "mz9518": 9490, "mz9519": 9491, "mz952": 9492, "mz9520": 9493, "mz9521": 9494, "mz9522": 9495, "mz9523": 9496, "mz9524": 9497, "mz9525": 9498, "mz9526": 9499, "mz9527": 9500, "mz9528": 9501, "mz9529": 9502, "mz953": 9503, "mz9530": 9504, "mz9531": 9505, "mz9532": 9506, "mz9533": 9507, "mz9534": 9508, "mz9535": 9509, "mz9536": 9510, "mz9537": 9511, "mz9538": 9512, "mz9539": 9513, "mz954": 9514, "mz9540": 9515, "mz9541": 9516, "mz9542": 9517, "mz9543": 9518, "mz9544": 9519, "mz9545": 9520, "mz9546": 9521, "mz9547": 9522, "mz9548": 9523, "mz9549": 9524, "mz955": 9525, "mz9550": 9526, "mz9551": 9527, "mz9552": 9528, "mz9553": 9529, "mz9554": 9530, "mz9555": 9531, "mz9556": 9532, "mz9557": 9533, "mz9558": 9534, "mz9559": 9535, "mz956": 9536, "mz9560": 9537, "mz9561": 9538, "mz9562": 9539, "mz9563": 9540, "mz9564": 9541, "mz9565": 9542, "mz9566": 9543, "mz9567": 9544, "mz9568": 9545, "mz9569": 9546, "mz957": 9547, "mz9570": 9548, "mz9571": 9549, "mz9572": 9550, "mz9573": 9551, "mz9574": 9552, "mz9575": 9553, "mz9576": 9554, "mz9577": 9555, "mz9578": 9556, "mz9579": 9557, "mz958": 9558, "mz9580": 9559, "mz9581": 9560, "mz9582": 9561, "mz9583": 9562, "mz9584": 9563, "mz9585": 9564, "mz9586": 9565, "mz9587": 9566, "mz9588": 9567, "mz9589": 9568, "mz959": 9569, "mz9590": 9570, "mz9591": 9571, "mz9592": 9572, "mz9593": 9573, "mz9594": 9574, "mz9595": 9575, "mz9596": 9576, "mz9597": 9577, "mz9598": 9578, "mz9599": 9579, "mz96": 9580, "mz960": 9581, "mz9600": 9582, "mz9601": 9583, "mz9602": 9584, "mz9603": 9585, "mz9604": 9586, "mz9605": 9587, "mz9606": 9588, "mz9607": 9589, "mz9608": 9590, "mz9609": 9591, "mz961": 9592, "mz9610": 9593, "mz9611": 9594, "mz9612": 9595, "mz9613": 9596, "mz9614": 9597, "mz9615": 9598, "mz9616": 9599, "mz9617": 9600, "mz9618": 9601, "mz9619": 9602, "mz962": 9603, "mz9620": 9604, "mz9621": 9605, "mz9622": 9606, "mz9623": 9607, "mz9624": 9608, "mz9625": 9609, "mz9626": 9610, "mz9627": 9611, "mz9628": 9612, "mz9629": 9613, "mz963": 9614, "mz9630": 9615, "mz9631": 9616, "mz9632": 9617, "mz9633": 9618, "mz9634": 9619, "mz9635": 9620, "mz9636": 9621, "mz9637": 9622, "mz9638": 9623, "mz9639": 9624, "mz964": 9625, "mz9640": 9626, "mz9641": 9627, "mz9642": 9628, "mz9643": 9629, "mz9644": 9630, "mz9645": 9631, "mz9646": 9632, "mz9647": 9633, "mz9648": 9634, "mz9649": 9635, "mz965": 9636, "mz9650": 9637, "mz9651": 9638, "mz9652": 9639, "mz9653": 9640, "mz9654": 9641, "mz9655": 9642, "mz9656": 9643, "mz9657": 9644, "mz9658": 9645, "mz9659": 9646, "mz966": 9647, "mz9660": 9648, "mz9661": 9649, "mz9662": 9650, "mz9663": 9651, "mz9664": 9652, "mz9665": 9653, "mz9666": 9654, "mz9667": 9655, "mz9668": 9656, "mz9669": 9657, "mz967": 9658, "mz9670": 9659, "mz9671": 9660, "mz9672": 9661, "mz9673": 9662, "mz9674": 9663, "mz9675": 9664, "mz9676": 9665, "mz9677": 9666, "mz9678": 9667, "mz9679": 9668, "mz968": 9669, "mz9680": 9670, "mz9681": 9671, "mz9682": 9672, "mz9683": 9673, "mz9684": 9674, "mz9685": 9675, "mz9686": 9676, "mz9687": 9677, "mz9688": 9678, "mz9689": 9679, "mz969": 9680, "mz9690": 9681, "mz9691": 9682, "mz9692": 9683, "mz9693": 9684, "mz9694": 9685, "mz9695": 9686, "mz9696": 9687, "mz9697": 9688, "mz9698": 9689, "mz9699": 9690, "mz97": 9691, "mz970": 9692, "mz9700": 9693, "mz9701": 9694, "mz9702": 9695, "mz9703": 9696, "mz9704": 9697, "mz9705": 9698, "mz9706": 9699, "mz9707": 9700, "mz9708": 9701, "mz9709": 9702, "mz971": 9703, "mz9710": 9704, "mz9711": 9705, "mz9712": 9706, "mz9713": 9707, "mz9714": 9708, "mz9715": 9709, "mz9716": 9710, "mz9717": 9711, "mz9718": 9712, "mz9719": 9713, "mz972": 9714, "mz9720": 9715, "mz9721": 9716, "mz9722": 9717, "mz9723": 9718, "mz9724": 9719, "mz9725": 9720, "mz9726": 9721, "mz9727": 9722, "mz9728": 9723, "mz9729": 9724, "mz973": 9725, "mz9730": 9726, "mz9731": 9727, "mz9732": 9728, "mz9733": 9729, "mz9734": 9730, "mz9735": 9731, "mz9736": 9732, "mz9737": 9733, "mz9738": 9734, "mz9739": 9735, "mz974": 9736, "mz9740": 9737, "mz9741": 9738, "mz9742": 9739, "mz9743": 9740, "mz9744": 9741, "mz9745": 9742, "mz9746": 9743, "mz9747": 9744, "mz9748": 9745, "mz9749": 9746, "mz975": 9747, "mz9750": 9748, "mz9751": 9749, "mz9752": 9750, "mz9753": 9751, "mz9754": 9752, "mz9755": 9753, "mz9756": 9754, "mz9757": 9755, "mz9758": 9756, "mz9759": 9757, "mz976": 9758, "mz9760": 9759, "mz9761": 9760, "mz9762": 9761, "mz9763": 9762, "mz9764": 9763, "mz9765": 9764, "mz9766": 9765, "mz9767": 9766, "mz9768": 9767, "mz9769": 9768, "mz977": 9769, "mz9770": 9770, "mz9771": 9771, "mz9772": 9772, "mz9773": 9773, "mz9774": 9774, "mz9775": 9775, "mz9776": 9776, "mz9777": 9777, "mz9778": 9778, "mz9779": 9779, "mz978": 9780, "mz9780": 9781, "mz9781": 9782, "mz9782": 9783, "mz9783": 9784, "mz9784": 9785, "mz9785": 9786, "mz9786": 9787, "mz9787": 9788, "mz9788": 9789, "mz9789": 9790, "mz979": 9791, "mz9790": 9792, "mz9791": 9793, "mz9792": 9794, "mz9793": 9795, "mz9794": 9796, "mz9795": 9797, "mz9796": 9798, "mz9797": 9799, "mz9798": 9800, "mz9799": 9801, "mz98": 9802, "mz980": 9803, "mz9800": 9804, "mz9801": 9805, "mz9802": 9806, "mz9803": 9807, "mz9804": 9808, "mz9805": 9809, "mz9806": 9810, "mz9807": 9811, "mz9808": 9812, "mz9809": 9813, "mz981": 9814, "mz9810": 9815, "mz9811": 9816, "mz9812": 9817, "mz9813": 9818, "mz9814": 9819, "mz9815": 9820, "mz9816": 9821, "mz9817": 9822, "mz9818": 9823, "mz9819": 9824, "mz982": 9825, "mz9820": 9826, "mz9821": 9827, "mz9822": 9828, "mz9823": 9829, "mz9824": 9830, "mz9825": 9831, "mz9826": 9832, "mz9827": 9833, "mz9828": 9834, "mz9829": 9835, "mz983": 9836, "mz9830": 9837, "mz9831": 9838, "mz9832": 9839, "mz9833": 9840, "mz9834": 9841, "mz9835": 9842, "mz9836": 9843, "mz9837": 9844, "mz9838": 9845, "mz9839": 9846, "mz984": 9847, "mz9840": 9848, "mz9841": 9849, "mz9842": 9850, "mz9843": 9851, "mz9844": 9852, "mz9845": 9853, "mz9846": 9854, "mz9847": 9855, "mz9848": 9856, "mz9849": 9857, "mz985": 9858, "mz9850": 9859, "mz9851": 9860, "mz9852": 9861, "mz9853": 9862, "mz9854": 9863, "mz9855": 9864, "mz9856": 9865, "mz9857": 9866, "mz9858": 9867, "mz9859": 9868, "mz986": 9869, "mz9860": 9870, "mz9861": 9871, "mz9862": 9872, "mz9863": 9873, "mz9864": 9874, "mz9865": 9875, "mz9866": 9876, "mz9867": 9877, "mz9868": 9878, "mz9869": 9879, "mz987": 9880, "mz988": 9881, "mz989": 9882, "mz99": 9883, "mz990": 9884, "mz991": 9885, "mz992": 9886, "mz993": 9887, "mz994": 9888, "mz995": 9889, "mz996": 9890, "mz997": 9891, "mz998": 9892, "mz999": 9893, "native": 9894, "negative": 9895, "octopole": 9896, "orbitrap": 9897, "other_frag": 9898, "other_ion": 9899, "other_lc": 9900, "other_mod": 9901, "other_mode": 9902, "other_trap": 9903, "other_type": 9904, "permethylated": 9905, "positive": 9906, "reduced": 9907, "rt0": 9908, "rt1": 9909, "rt10": 9910, "rt100": 9911, "rt101": 9912, "rt11": 9913, "rt12": 9914, "rt13": 9915, "rt14": 9916, "rt15": 9917, "rt16": 9918, "rt17": 9919, "rt18": 9920, "rt19": 9921, "rt2": 9922, "rt20": 9923, "rt21": 9924, "rt22": 9925, "rt23": 9926, "rt24": 9927, "rt25": 9928, "rt26": 9929, "rt27": 9930, "rt28": 9931, "rt29": 9932, "rt3": 9933, "rt30": 9934, "rt31": 9935, "rt32": 9936, "rt33": 9937, "rt34": 9938, "rt35": 9939, "rt36": 9940, "rt37": 9941, "rt38": 9942, "rt39": 9943, "rt4": 9944, "rt40": 9945, "rt41": 9946, "rt42": 9947, "rt43": 9948, "rt44": 9949, "rt45": 9950, "rt46": 9951, "rt47": 9952, "rt48": 9953, "rt49": 9954, "rt5": 9955, "rt50": 9956, "rt51": 9957, "rt52": 9958, "rt53": 9959, "rt54": 9960, "rt55": 9961, "rt56": 9962, "rt57": 9963, "rt58": 9964, "rt59": 9965, "rt6": 9966, "rt60": 9967, "rt61": 9968, "rt62": 9969, "rt63": 9970, "rt64": 9971, "rt65": 9972, "rt66": 9973, "rt67": 9974, "rt68": 9975, "rt69": 9976, "rt7": 9977, "rt70": 9978, "rt71": 9979, "rt72": 9980, "rt73": 9981, "rt74": 9982, "rt75": 9983, "rt76": 9984, "rt77": 9985, "rt78": 9986, "rt79": 9987, "rt8": 9988, "rt80": 9989, "rt81": 9990, "rt82": 9991, "rt83": 9992, "rt84": 9993, "rt85": 9994, "rt86": 9995, "rt87": 9996, "rt88": 9997, "rt89": 9998, "rt9": 9999, "rt90": 10000, "rt91": 10001, "rt92": 10002, "rt93": 10003, "rt94": 10004, "rt95": 10005, "rt96": 10006, "rt97": 10007, "rt98": 10008, "rt99": 10009}