{"<pad>": 0, "<s>": 1, "</s>": 2, "<sep>": 3, "<cls>": 4, "<unk>": 5, "<mask>": 6, "2AA": 7, "orbitrap": 8, "lipids": 9, "other_mod": 10, "Rapifluor": 11, "other_type": 12, "other_ion": 13, "HCD": 14, "N": 15, "TOF": 16, "other_trap": 17, "reduced": 18, "O": 19, "positive": 20, "PA": 21, "free": 22, "octopole": 23, "other_frag": 24, "MSD": 25, "ESI": 26, "HILIC": 27, "MGC": 28, "C18": 29, "MALDI": 30, "negative": 31, "permethylated": 32, "other_lc": 33, "PGC": 34, "native": 35, "linear": 36, "amazon": 37, "CID": 38, "other_mode": 39, "mz0": 40, "mz1": 41, "mz2": 42, "mz3": 43, "mz4": 44, "mz5": 45, "mz6": 46, "mz7": 47, "mz8": 48, "mz9": 49, "mz10": 50, "mz11": 51, "mz12": 52, "mz13": 53, "mz14": 54, "mz15": 55, "mz16": 56, "mz17": 57, "mz18": 58, "mz19": 59, "mz20": 60, "mz21": 61, "mz22": 62, "mz23": 63, "mz24": 64, "mz25": 65, "mz26": 66, "mz27": 67, "mz28": 68, "mz29": 69, "mz30": 70, "mz31": 71, "mz32": 72, "mz33": 73, "mz34": 74, "mz35": 75, "mz36": 76, "mz37": 77, "mz38": 78, "mz39": 79, "mz40": 80, "mz41": 81, "mz42": 82, "mz43": 83, "mz44": 84, "mz45": 85, "mz46": 86, "mz47": 87, "mz48": 88, "mz49": 89, "mz50": 90, "mz51": 91, "mz52": 92, "mz53": 93, "mz54": 94, "mz55": 95, "mz56": 96, "mz57": 97, "mz58": 98, "mz59": 99, "mz60": 100, "mz61": 101, "mz62": 102, "mz63": 103, "mz64": 104, "mz65": 105, "mz66": 106, "mz67": 107, "mz68": 108, "mz69": 109, "mz70": 110, "mz71": 111, "mz72": 112, "mz73": 113, "mz74": 114, "mz75": 115, "mz76": 116, "mz77": 117, "mz78": 118, "mz79": 119, "mz80": 120, "mz81": 121, "mz82": 122, "mz83": 123, "mz84": 124, "mz85": 125, "mz86": 126, "mz87": 127, "mz88": 128, "mz89": 129, "mz90": 130, "mz91": 131, "mz92": 132, "mz93": 133, "mz94": 134, "mz95": 135, "mz96": 136, "mz97": 137, "mz98": 138, "mz99": 139, "mz100": 140, "mz101": 141, "mz102": 142, "mz103": 143, "mz104": 144, "mz105": 145, "mz106": 146, "mz107": 147, "mz108": 148, "mz109": 149, "mz110": 150, "mz111": 151, "mz112": 152, "mz113": 153, "mz114": 154, "mz115": 155, "mz116": 156, "mz117": 157, "mz118": 158, "mz119": 159, "mz120": 160, "mz121": 161, "mz122": 162, "mz123": 163, "mz124": 164, "mz125": 165, "mz126": 166, "mz127": 167, "mz128": 168, "mz129": 169, "mz130": 170, "mz131": 171, "mz132": 172, "mz133": 173, "mz134": 174, "mz135": 175, "mz136": 176, "mz137": 177, "mz138": 178, "mz139": 179, "mz140": 180, "mz141": 181, "mz142": 182, "mz143": 183, "mz144": 184, "mz145": 185, "mz146": 186, "mz147": 187, "mz148": 188, "mz149": 189, "mz150": 190, "mz151": 191, "mz152": 192, "mz153": 193, "mz154": 194, "mz155": 195, "mz156": 196, "mz157": 197, "mz158": 198, "mz159": 199, "mz160": 200, "mz161": 201, "mz162": 202, "mz163": 203, "mz164": 204, "mz165": 205, "mz166": 206, "mz167": 207, "mz168": 208, "mz169": 209, "mz170": 210, "mz171": 211, "mz172": 212, "mz173": 213, "mz174": 214, "mz175": 215, "mz176": 216, "mz177": 217, "mz178": 218, "mz179": 219, "mz180": 220, "mz181": 221, "mz182": 222, "mz183": 223, "mz184": 224, "mz185": 225, "mz186": 226, "mz187": 227, "mz188": 228, "mz189": 229, "mz190": 230, "mz191": 231, "mz192": 232, "mz193": 233, "mz194": 234, "mz195": 235, "mz196": 236, "mz197": 237, "mz198": 238, "mz199": 239, "mz200": 240, "mz201": 241, "mz202": 242, "mz203": 243, "mz204": 244, "mz205": 245, "mz206": 246, "mz207": 247, "mz208": 248, "mz209": 249, "mz210": 250, "mz211": 251, "mz212": 252, "mz213": 253, "mz214": 254, "mz215": 255, "mz216": 256, "mz217": 257, "mz218": 258, "mz219": 259, "mz220": 260, "mz221": 261, "mz222": 262, "mz223": 263, "mz224": 264, "mz225": 265, "mz226": 266, "mz227": 267, "mz228": 268, "mz229": 269, "mz230": 270, "mz231": 271, "mz232": 272, "mz233": 273, "mz234": 274, "mz235": 275, "mz236": 276, "mz237": 277, "mz238": 278, "mz239": 279, "mz240": 280, "mz241": 281, "mz242": 282, "mz243": 283, "mz244": 284, "mz245": 285, "mz246": 286, "mz247": 287, "mz248": 288, "mz249": 289, "mz250": 290, "mz251": 291, "mz252": 292, "mz253": 293, "mz254": 294, "mz255": 295, "mz256": 296, "mz257": 297, "mz258": 298, "mz259": 299, "mz260": 300, "mz261": 301, "mz262": 302, "mz263": 303, "mz264": 304, "mz265": 305, "mz266": 306, "mz267": 307, "mz268": 308, "mz269": 309, "mz270": 310, "mz271": 311, "mz272": 312, "mz273": 313, "mz274": 314, "mz275": 315, "mz276": 316, "mz277": 317, "mz278": 318, "mz279": 319, "mz280": 320, "mz281": 321, "mz282": 322, "mz283": 323, "mz284": 324, "mz285": 325, "mz286": 326, "mz287": 327, "mz288": 328, "mz289": 329, "mz290": 330, "mz291": 331, "mz292": 332, "mz293": 333, "mz294": 334, "mz295": 335, "mz296": 336, "mz297": 337, "mz298": 338, "mz299": 339, "mz300": 340, "mz301": 341, "mz302": 342, "mz303": 343, "mz304": 344, "mz305": 345, "mz306": 346, "mz307": 347, "mz308": 348, "mz309": 349, "mz310": 350, "mz311": 351, "mz312": 352, "mz313": 353, "mz314": 354, "mz315": 355, "mz316": 356, "mz317": 357, "mz318": 358, "mz319": 359, "mz320": 360, "mz321": 361, "mz322": 362, "mz323": 363, "mz324": 364, "mz325": 365, "mz326": 366, "mz327": 367, "mz328": 368, "mz329": 369, "mz330": 370, "mz331": 371, "mz332": 372, "mz333": 373, "mz334": 374, "mz335": 375, "mz336": 376, "mz337": 377, "mz338": 378, "mz339": 379, "mz340": 380, "mz341": 381, "mz342": 382, "mz343": 383, "mz344": 384, "mz345": 385, "mz346": 386, "mz347": 387, "mz348": 388, "mz349": 389, "mz350": 390, "mz351": 391, "mz352": 392, "mz353": 393, "mz354": 394, "mz355": 395, "mz356": 396, "mz357": 397, "mz358": 398, "mz359": 399, "mz360": 400, "mz361": 401, "mz362": 402, "mz363": 403, "mz364": 404, "mz365": 405, "mz366": 406, "mz367": 407, "mz368": 408, "mz369": 409, "mz370": 410, "mz371": 411, "mz372": 412, "mz373": 413, "mz374": 414, "mz375": 415, "mz376": 416, "mz377": 417, "mz378": 418, "mz379": 419, "mz380": 420, "mz381": 421, "mz382": 422, "mz383": 423, "mz384": 424, "mz385": 425, "mz386": 426, "mz387": 427, "mz388": 428, "mz389": 429, "mz390": 430, "mz391": 431, "mz392": 432, "mz393": 433, "mz394": 434, "mz395": 435, "mz396": 436, "mz397": 437, "mz398": 438, "mz399": 439, "mz400": 440, "mz401": 441, "mz402": 442, "mz403": 443, "mz404": 444, "mz405": 445, "mz406": 446, "mz407": 447, "mz408": 448, "mz409": 449, "mz410": 450, "mz411": 451, "mz412": 452, "mz413": 453, "mz414": 454, "mz415": 455, "mz416": 456, "mz417": 457, "mz418": 458, "mz419": 459, "mz420": 460, "mz421": 461, "mz422": 462, "mz423": 463, "mz424": 464, "mz425": 465, "mz426": 466, "mz427": 467, "mz428": 468, "mz429": 469, "mz430": 470, "mz431": 471, "mz432": 472, "mz433": 473, "mz434": 474, "mz435": 475, "mz436": 476, "mz437": 477, "mz438": 478, "mz439": 479, "mz440": 480, "mz441": 481, "mz442": 482, "mz443": 483, "mz444": 484, "mz445": 485, "mz446": 486, "mz447": 487, "mz448": 488, "mz449": 489, "mz450": 490, "mz451": 491, "mz452": 492, "mz453": 493, "mz454": 494, "mz455": 495, "mz456": 496, "mz457": 497, "mz458": 498, "mz459": 499, "mz460": 500, "mz461": 501, "mz462": 502, "mz463": 503, "mz464": 504, "mz465": 505, "mz466": 506, "mz467": 507, "mz468": 508, "mz469": 509, "mz470": 510, "mz471": 511, "mz472": 512, "mz473": 513, "mz474": 514, "mz475": 515, "mz476": 516, "mz477": 517, "mz478": 518, "mz479": 519, "mz480": 520, "mz481": 521, "mz482": 522, "mz483": 523, "mz484": 524, "mz485": 525, "mz486": 526, "mz487": 527, "mz488": 528, "mz489": 529, "mz490": 530, "mz491": 531, "mz492": 532, "mz493": 533, "mz494": 534, "mz495": 535, "mz496": 536, "mz497": 537, "mz498": 538, "mz499": 539, "mz500": 540, "mz501": 541, "mz502": 542, "mz503": 543, "mz504": 544, "mz505": 545, "mz506": 546, "mz507": 547, "mz508": 548, "mz509": 549, "mz510": 550, "mz511": 551, "mz512": 552, "mz513": 553, "mz514": 554, "mz515": 555, "mz516": 556, "mz517": 557, "mz518": 558, "mz519": 559, "mz520": 560, "mz521": 561, "mz522": 562, "mz523": 563, "mz524": 564, "mz525": 565, "mz526": 566, "mz527": 567, "mz528": 568, "mz529": 569, "mz530": 570, "mz531": 571, "mz532": 572, "mz533": 573, "mz534": 574, "mz535": 575, "mz536": 576, "mz537": 577, "mz538": 578, "mz539": 579, "mz540": 580, "mz541": 581, "mz542": 582, "mz543": 583, "mz544": 584, "mz545": 585, "mz546": 586, "mz547": 587, "mz548": 588, "mz549": 589, "mz550": 590, "mz551": 591, "mz552": 592, "mz553": 593, "mz554": 594, "mz555": 595, "mz556": 596, "mz557": 597, "mz558": 598, "mz559": 599, "mz560": 600, "mz561": 601, "mz562": 602, "mz563": 603, "mz564": 604, "mz565": 605, "mz566": 606, "mz567": 607, "mz568": 608, "mz569": 609, "mz570": 610, "mz571": 611, "mz572": 612, "mz573": 613, "mz574": 614, "mz575": 615, "mz576": 616, "mz577": 617, "mz578": 618, "mz579": 619, "mz580": 620, "mz581": 621, "mz582": 622, "mz583": 623, "mz584": 624, "mz585": 625, "mz586": 626, "mz587": 627, "mz588": 628, "mz589": 629, "mz590": 630, "mz591": 631, "mz592": 632, "mz593": 633, "mz594": 634, "mz595": 635, "mz596": 636, "mz597": 637, "mz598": 638, "mz599": 639, "mz600": 640, "mz601": 641, "mz602": 642, "mz603": 643, "mz604": 644, "mz605": 645, "mz606": 646, "mz607": 647, "mz608": 648, "mz609": 649, "mz610": 650, "mz611": 651, "mz612": 652, "mz613": 653, "mz614": 654, "mz615": 655, "mz616": 656, "mz617": 657, "mz618": 658, "mz619": 659, "mz620": 660, "mz621": 661, "mz622": 662, "mz623": 663, "mz624": 664, "mz625": 665, "mz626": 666, "mz627": 667, "mz628": 668, "mz629": 669, "mz630": 670, "mz631": 671, "mz632": 672, "mz633": 673, "mz634": 674, "mz635": 675, "mz636": 676, "mz637": 677, "mz638": 678, "mz639": 679, "mz640": 680, "mz641": 681, "mz642": 682, "mz643": 683, "mz644": 684, "mz645": 685, "mz646": 686, "mz647": 687, "mz648": 688, "mz649": 689, "mz650": 690, "mz651": 691, "mz652": 692, "mz653": 693, "mz654": 694, "mz655": 695, "mz656": 696, "mz657": 697, "mz658": 698, "mz659": 699, "mz660": 700, "mz661": 701, "mz662": 702, "mz663": 703, "mz664": 704, "mz665": 705, "mz666": 706, "mz667": 707, "mz668": 708, "mz669": 709, "mz670": 710, "mz671": 711, "mz672": 712, "mz673": 713, "mz674": 714, "mz675": 715, "mz676": 716, "mz677": 717, "mz678": 718, "mz679": 719, "mz680": 720, "mz681": 721, "mz682": 722, "mz683": 723, "mz684": 724, "mz685": 725, "mz686": 726, "mz687": 727, "mz688": 728, "mz689": 729, "mz690": 730, "mz691": 731, "mz692": 732, "mz693": 733, "mz694": 734, "mz695": 735, "mz696": 736, "mz697": 737, "mz698": 738, "mz699": 739, "mz700": 740, "mz701": 741, "mz702": 742, "mz703": 743, "mz704": 744, "mz705": 745, "mz706": 746, "mz707": 747, "mz708": 748, "mz709": 749, "mz710": 750, "mz711": 751, "mz712": 752, "mz713": 753, "mz714": 754, "mz715": 755, "mz716": 756, "mz717": 757, "mz718": 758, "mz719": 759, "mz720": 760, "mz721": 761, "mz722": 762, "mz723": 763, "mz724": 764, "mz725": 765, "mz726": 766, "mz727": 767, "mz728": 768, "mz729": 769, "mz730": 770, "mz731": 771, "mz732": 772, "mz733": 773, "mz734": 774, "mz735": 775, "mz736": 776, "mz737": 777, "mz738": 778, "mz739": 779, "mz740": 780, "mz741": 781, "mz742": 782, "mz743": 783, "mz744": 784, "mz745": 785, "mz746": 786, "mz747": 787, "mz748": 788, "mz749": 789, "mz750": 790, "mz751": 791, "mz752": 792, "mz753": 793, "mz754": 794, "mz755": 795, "mz756": 796, "mz757": 797, "mz758": 798, "mz759": 799, "mz760": 800, "mz761": 801, "mz762": 802, "mz763": 803, "mz764": 804, "mz765": 805, "mz766": 806, "mz767": 807, "mz768": 808, "mz769": 809, "mz770": 810, "mz771": 811, "mz772": 812, "mz773": 813, "mz774": 814, "mz775": 815, "mz776": 816, "mz777": 817, "mz778": 818, "mz779": 819, "mz780": 820, "mz781": 821, "mz782": 822, "mz783": 823, "mz784": 824, "mz785": 825, "mz786": 826, "mz787": 827, "mz788": 828, "mz789": 829, "mz790": 830, "mz791": 831, "mz792": 832, "mz793": 833, "mz794": 834, "mz795": 835, "mz796": 836, "mz797": 837, "mz798": 838, "mz799": 839, "mz800": 840, "mz801": 841, "mz802": 842, "mz803": 843, "mz804": 844, "mz805": 845, "mz806": 846, "mz807": 847, "mz808": 848, "mz809": 849, "mz810": 850, "mz811": 851, "mz812": 852, "mz813": 853, "mz814": 854, "mz815": 855, "mz816": 856, "mz817": 857, "mz818": 858, "mz819": 859, "mz820": 860, "mz821": 861, "mz822": 862, "mz823": 863, "mz824": 864, "mz825": 865, "mz826": 866, "mz827": 867, "mz828": 868, "mz829": 869, "mz830": 870, "mz831": 871, "mz832": 872, "mz833": 873, "mz834": 874, "mz835": 875, "mz836": 876, "mz837": 877, "mz838": 878, "mz839": 879, "mz840": 880, "mz841": 881, "mz842": 882, "mz843": 883, "mz844": 884, "mz845": 885, "mz846": 886, "mz847": 887, "mz848": 888, "mz849": 889, "mz850": 890, "mz851": 891, "mz852": 892, "mz853": 893, "mz854": 894, "mz855": 895, "mz856": 896, "mz857": 897, "mz858": 898, "mz859": 899, "mz860": 900, "mz861": 901, "mz862": 902, "mz863": 903, "mz864": 904, "mz865": 905, "mz866": 906, "mz867": 907, "mz868": 908, "mz869": 909, "mz870": 910, "mz871": 911, "mz872": 912, "mz873": 913, "mz874": 914, "mz875": 915, "mz876": 916, "mz877": 917, "mz878": 918, "mz879": 919, "mz880": 920, "mz881": 921, "mz882": 922, "mz883": 923, "mz884": 924, "mz885": 925, "mz886": 926, "mz887": 927, "mz888": 928, "mz889": 929, "mz890": 930, "mz891": 931, "mz892": 932, "mz893": 933, "mz894": 934, "mz895": 935, "mz896": 936, "mz897": 937, "mz898": 938, "mz899": 939, "mz900": 940, "mz901": 941, "mz902": 942, "mz903": 943, "mz904": 944, "mz905": 945, "mz906": 946, "mz907": 947, "mz908": 948, "mz909": 949, "mz910": 950, "mz911": 951, "mz912": 952, "mz913": 953, "mz914": 954, "mz915": 955, "mz916": 956, "mz917": 957, "mz918": 958, "mz919": 959, "mz920": 960, "mz921": 961, "mz922": 962, "mz923": 963, "mz924": 964, "mz925": 965, "mz926": 966, "mz927": 967, "mz928": 968, "mz929": 969, "mz930": 970, "mz931": 971, "mz932": 972, "mz933": 973, "mz934": 974, "mz935": 975, "mz936": 976, "mz937": 977, "mz938": 978, "mz939": 979, "mz940": 980, "mz941": 981, "mz942": 982, "mz943": 983, "mz944": 984, "mz945": 985, "mz946": 986, "mz947": 987, "mz948": 988, "mz949": 989, "mz950": 990, "mz951": 991, "mz952": 992, "mz953": 993, "mz954": 994, "mz955": 995, "mz956": 996, "mz957": 997, "mz958": 998, "mz959": 999, "mz960": 1000, "mz961": 1001, "mz962": 1002, "mz963": 1003, "mz964": 1004, "mz965": 1005, "mz966": 1006, "mz967": 1007, "mz968": 1008, "mz969": 1009, "mz970": 1010, "mz971": 1011, "mz972": 1012, "mz973": 1013, "mz974": 1014, "mz975": 1015, "mz976": 1016, "mz977": 1017, "mz978": 1018, "mz979": 1019, "mz980": 1020, "mz981": 1021, "mz982": 1022, "mz983": 1023, "mz984": 1024, "mz985": 1025, "mz986": 1026, "mz987": 1027, "mz988": 1028, "mz989": 1029, "mz990": 1030, "mz991": 1031, "mz992": 1032, "mz993": 1033, "mz994": 1034, "mz995": 1035, "mz996": 1036, "mz997": 1037, "mz998": 1038, "mz999": 1039, "mz1000": 1040, "mz1001": 1041, "mz1002": 1042, "mz1003": 1043, "mz1004": 1044, "mz1005": 1045, "mz1006": 1046, "mz1007": 1047, "mz1008": 1048, "mz1009": 1049, "mz1010": 1050, "mz1011": 1051, "mz1012": 1052, "mz1013": 1053, "mz1014": 1054, "mz1015": 1055, "mz1016": 1056, "mz1017": 1057, "mz1018": 1058, "mz1019": 1059, "mz1020": 1060, "mz1021": 1061, "mz1022": 1062, "mz1023": 1063, "mz1024": 1064, "mz1025": 1065, "mz1026": 1066, "mz1027": 1067, "mz1028": 1068, "mz1029": 1069, "mz1030": 1070, "mz1031": 1071, "mz1032": 1072, "mz1033": 1073, "mz1034": 1074, "mz1035": 1075, "mz1036": 1076, "mz1037": 1077, "mz1038": 1078, "mz1039": 1079, "mz1040": 1080, "mz1041": 1081, "mz1042": 1082, "mz1043": 1083, "mz1044": 1084, "mz1045": 1085, "mz1046": 1086, "mz1047": 1087, "mz1048": 1088, "mz1049": 1089, "mz1050": 1090, "mz1051": 1091, "mz1052": 1092, "mz1053": 1093, "mz1054": 1094, "mz1055": 1095, "mz1056": 1096, "mz1057": 1097, "mz1058": 1098, "mz1059": 1099, "mz1060": 1100, "mz1061": 1101, "mz1062": 1102, "mz1063": 1103, "mz1064": 1104, "mz1065": 1105, "mz1066": 1106, "mz1067": 1107, "mz1068": 1108, "mz1069": 1109, "mz1070": 1110, "mz1071": 1111, "mz1072": 1112, "mz1073": 1113, "mz1074": 1114, "mz1075": 1115, "mz1076": 1116, "mz1077": 1117, "mz1078": 1118, "mz1079": 1119, "mz1080": 1120, "mz1081": 1121, "mz1082": 1122, "mz1083": 1123, "mz1084": 1124, "mz1085": 1125, "mz1086": 1126, "mz1087": 1127, "mz1088": 1128, "mz1089": 1129, "mz1090": 1130, "mz1091": 1131, "mz1092": 1132, "mz1093": 1133, "mz1094": 1134, "mz1095": 1135, "mz1096": 1136, "mz1097": 1137, "mz1098": 1138, "mz1099": 1139, "mz1100": 1140, "mz1101": 1141, "mz1102": 1142, "mz1103": 1143, "mz1104": 1144, "mz1105": 1145, "mz1106": 1146, "mz1107": 1147, "mz1108": 1148, "mz1109": 1149, "mz1110": 1150, "mz1111": 1151, "mz1112": 1152, "mz1113": 1153, "mz1114": 1154, "mz1115": 1155, "mz1116": 1156, "mz1117": 1157, "mz1118": 1158, "mz1119": 1159, "mz1120": 1160, "mz1121": 1161, "mz1122": 1162, "mz1123": 1163, "mz1124": 1164, "mz1125": 1165, "mz1126": 1166, "mz1127": 1167, "mz1128": 1168, "mz1129": 1169, "mz1130": 1170, "mz1131": 1171, "mz1132": 1172, "mz1133": 1173, "mz1134": 1174, "mz1135": 1175, "mz1136": 1176, "mz1137": 1177, "mz1138": 1178, "mz1139": 1179, "mz1140": 1180, "mz1141": 1181, "mz1142": 1182, "mz1143": 1183, "mz1144": 1184, "mz1145": 1185, "mz1146": 1186, "mz1147": 1187, "mz1148": 1188, "mz1149": 1189, "mz1150": 1190, "mz1151": 1191, "mz1152": 1192, "mz1153": 1193, "mz1154": 1194, "mz1155": 1195, "mz1156": 1196, "mz1157": 1197, "mz1158": 1198, "mz1159": 1199, "mz1160": 1200, "mz1161": 1201, "mz1162": 1202, "mz1163": 1203, "mz1164": 1204, "mz1165": 1205, "mz1166": 1206, "mz1167": 1207, "mz1168": 1208, "mz1169": 1209, "mz1170": 1210, "mz1171": 1211, "mz1172": 1212, "mz1173": 1213, "mz1174": 1214, "mz1175": 1215, "mz1176": 1216, "mz1177": 1217, "mz1178": 1218, "mz1179": 1219, "mz1180": 1220, "mz1181": 1221, "mz1182": 1222, "mz1183": 1223, "mz1184": 1224, "mz1185": 1225, "mz1186": 1226, "mz1187": 1227, "mz1188": 1228, "mz1189": 1229, "mz1190": 1230, "mz1191": 1231, "mz1192": 1232, "mz1193": 1233, "mz1194": 1234, "mz1195": 1235, "mz1196": 1236, "mz1197": 1237, "mz1198": 1238, "mz1199": 1239, "mz1200": 1240, "mz1201": 1241, "mz1202": 1242, "mz1203": 1243, "mz1204": 1244, "mz1205": 1245, "mz1206": 1246, "mz1207": 1247, "mz1208": 1248, "mz1209": 1249, "mz1210": 1250, "mz1211": 1251, "mz1212": 1252, "mz1213": 1253, "mz1214": 1254, "mz1215": 1255, "mz1216": 1256, "mz1217": 1257, "mz1218": 1258, "mz1219": 1259, "mz1220": 1260, "mz1221": 1261, "mz1222": 1262, "mz1223": 1263, "mz1224": 1264, "mz1225": 1265, "mz1226": 1266, "mz1227": 1267, "mz1228": 1268, "mz1229": 1269, "mz1230": 1270, "mz1231": 1271, "mz1232": 1272, "mz1233": 1273, "mz1234": 1274, "mz1235": 1275, "mz1236": 1276, "mz1237": 1277, "mz1238": 1278, "mz1239": 1279, "mz1240": 1280, "mz1241": 1281, "mz1242": 1282, "mz1243": 1283, "mz1244": 1284, "mz1245": 1285, "mz1246": 1286, "mz1247": 1287, "mz1248": 1288, "mz1249": 1289, "mz1250": 1290, "mz1251": 1291, "mz1252": 1292, "mz1253": 1293, "mz1254": 1294, "mz1255": 1295, "mz1256": 1296, "mz1257": 1297, "mz1258": 1298, "mz1259": 1299, "mz1260": 1300, "mz1261": 1301, "mz1262": 1302, "mz1263": 1303, "mz1264": 1304, "mz1265": 1305, "mz1266": 1306, "mz1267": 1307, "mz1268": 1308, "mz1269": 1309, "mz1270": 1310, "mz1271": 1311, "mz1272": 1312, "mz1273": 1313, "mz1274": 1314, "mz1275": 1315, "mz1276": 1316, "mz1277": 1317, "mz1278": 1318, "mz1279": 1319, "mz1280": 1320, "mz1281": 1321, "mz1282": 1322, "mz1283": 1323, "mz1284": 1324, "mz1285": 1325, "mz1286": 1326, "mz1287": 1327, "mz1288": 1328, "mz1289": 1329, "mz1290": 1330, "mz1291": 1331, "mz1292": 1332, "mz1293": 1333, "mz1294": 1334, "mz1295": 1335, "mz1296": 1336, "mz1297": 1337, "mz1298": 1338, "mz1299": 1339, "mz1300": 1340, "mz1301": 1341, "mz1302": 1342, "mz1303": 1343, "mz1304": 1344, "mz1305": 1345, "mz1306": 1346, "mz1307": 1347, "mz1308": 1348, "mz1309": 1349, "mz1310": 1350, "mz1311": 1351, "mz1312": 1352, "mz1313": 1353, "mz1314": 1354, "mz1315": 1355, "mz1316": 1356, "mz1317": 1357, "mz1318": 1358, "mz1319": 1359, "mz1320": 1360, "mz1321": 1361, "mz1322": 1362, "mz1323": 1363, "mz1324": 1364, "mz1325": 1365, "mz1326": 1366, "mz1327": 1367, "mz1328": 1368, "mz1329": 1369, "mz1330": 1370, "mz1331": 1371, "mz1332": 1372, "mz1333": 1373, "mz1334": 1374, "mz1335": 1375, "mz1336": 1376, "mz1337": 1377, "mz1338": 1378, "mz1339": 1379, "mz1340": 1380, "mz1341": 1381, "mz1342": 1382, "mz1343": 1383, "mz1344": 1384, "mz1345": 1385, "mz1346": 1386, "mz1347": 1387, "mz1348": 1388, "mz1349": 1389, "mz1350": 1390, "mz1351": 1391, "mz1352": 1392, "mz1353": 1393, "mz1354": 1394, "mz1355": 1395, "mz1356": 1396, "mz1357": 1397, "mz1358": 1398, "mz1359": 1399, "mz1360": 1400, "mz1361": 1401, "mz1362": 1402, "mz1363": 1403, "mz1364": 1404, "mz1365": 1405, "mz1366": 1406, "mz1367": 1407, "mz1368": 1408, "mz1369": 1409, "mz1370": 1410, "mz1371": 1411, "mz1372": 1412, "mz1373": 1413, "mz1374": 1414, "mz1375": 1415, "mz1376": 1416, "mz1377": 1417, "mz1378": 1418, "mz1379": 1419, "mz1380": 1420, "mz1381": 1421, "mz1382": 1422, "mz1383": 1423, "mz1384": 1424, "mz1385": 1425, "mz1386": 1426, "mz1387": 1427, "mz1388": 1428, "mz1389": 1429, "mz1390": 1430, "mz1391": 1431, "mz1392": 1432, "mz1393": 1433, "mz1394": 1434, "mz1395": 1435, "mz1396": 1436, "mz1397": 1437, "mz1398": 1438, "mz1399": 1439, "mz1400": 1440, "mz1401": 1441, "mz1402": 1442, "mz1403": 1443, "mz1404": 1444, "mz1405": 1445, "mz1406": 1446, "mz1407": 1447, "mz1408": 1448, "mz1409": 1449, "mz1410": 1450, "mz1411": 1451, "mz1412": 1452, "mz1413": 1453, "mz1414": 1454, "mz1415": 1455, "mz1416": 1456, "mz1417": 1457, "mz1418": 1458, "mz1419": 1459, "mz1420": 1460, "mz1421": 1461, "mz1422": 1462, "mz1423": 1463, "mz1424": 1464, "mz1425": 1465, "mz1426": 1466, "mz1427": 1467, "mz1428": 1468, "mz1429": 1469, "mz1430": 1470, "mz1431": 1471, "mz1432": 1472, "mz1433": 1473, "mz1434": 1474, "mz1435": 1475, "mz1436": 1476, "mz1437": 1477, "mz1438": 1478, "mz1439": 1479, "mz1440": 1480, "mz1441": 1481, "mz1442": 1482, "mz1443": 1483, "mz1444": 1484, "mz1445": 1485, "mz1446": 1486, "mz1447": 1487, "mz1448": 1488, "mz1449": 1489, "mz1450": 1490, "mz1451": 1491, "mz1452": 1492, "mz1453": 1493, "mz1454": 1494, "mz1455": 1495, "mz1456": 1496, "mz1457": 1497, "mz1458": 1498, "mz1459": 1499, "mz1460": 1500, "mz1461": 1501, "mz1462": 1502, "mz1463": 1503, "mz1464": 1504, "mz1465": 1505, "mz1466": 1506, "mz1467": 1507, "mz1468": 1508, "mz1469": 1509, "mz1470": 1510, "mz1471": 1511, "mz1472": 1512, "mz1473": 1513, "mz1474": 1514, "mz1475": 1515, "mz1476": 1516, "mz1477": 1517, "mz1478": 1518, "mz1479": 1519, "mz1480": 1520, "mz1481": 1521, "mz1482": 1522, "mz1483": 1523, "mz1484": 1524, "mz1485": 1525, "mz1486": 1526, "mz1487": 1527, "mz1488": 1528, "mz1489": 1529, "mz1490": 1530, "mz1491": 1531, "mz1492": 1532, "mz1493": 1533, "mz1494": 1534, "mz1495": 1535, "mz1496": 1536, "mz1497": 1537, "mz1498": 1538, "mz1499": 1539, "mz1500": 1540, "mz1501": 1541, "mz1502": 1542, "mz1503": 1543, "mz1504": 1544, "mz1505": 1545, "mz1506": 1546, "mz1507": 1547, "mz1508": 1548, "mz1509": 1549, "mz1510": 1550, "mz1511": 1551, "mz1512": 1552, "mz1513": 1553, "mz1514": 1554, "mz1515": 1555, "mz1516": 1556, "mz1517": 1557, "mz1518": 1558, "mz1519": 1559, "mz1520": 1560, "mz1521": 1561, "mz1522": 1562, "mz1523": 1563, "mz1524": 1564, "mz1525": 1565, "mz1526": 1566, "mz1527": 1567, "mz1528": 1568, "mz1529": 1569, "mz1530": 1570, "mz1531": 1571, "mz1532": 1572, "mz1533": 1573, "mz1534": 1574, "mz1535": 1575, "mz1536": 1576, "mz1537": 1577, "mz1538": 1578, "mz1539": 1579, "mz1540": 1580, "mz1541": 1581, "mz1542": 1582, "mz1543": 1583, "mz1544": 1584, "mz1545": 1585, "mz1546": 1586, "mz1547": 1587, "mz1548": 1588, "mz1549": 1589, "mz1550": 1590, "mz1551": 1591, "mz1552": 1592, "mz1553": 1593, "mz1554": 1594, "mz1555": 1595, "mz1556": 1596, "mz1557": 1597, "mz1558": 1598, "mz1559": 1599, "mz1560": 1600, "mz1561": 1601, "mz1562": 1602, "mz1563": 1603, "mz1564": 1604, "mz1565": 1605, "mz1566": 1606, "mz1567": 1607, "mz1568": 1608, "mz1569": 1609, "mz1570": 1610, "mz1571": 1611, "mz1572": 1612, "mz1573": 1613, "mz1574": 1614, "mz1575": 1615, "mz1576": 1616, "mz1577": 1617, "mz1578": 1618, "mz1579": 1619, "mz1580": 1620, "mz1581": 1621, "mz1582": 1622, "mz1583": 1623, "mz1584": 1624, "mz1585": 1625, "mz1586": 1626, "mz1587": 1627, "mz1588": 1628, "mz1589": 1629, "mz1590": 1630, "mz1591": 1631, "mz1592": 1632, "mz1593": 1633, "mz1594": 1634, "mz1595": 1635, "mz1596": 1636, "mz1597": 1637, "mz1598": 1638, "mz1599": 1639, "mz1600": 1640, "mz1601": 1641, "mz1602": 1642, "mz1603": 1643, "mz1604": 1644, "mz1605": 1645, "mz1606": 1646, "mz1607": 1647, "mz1608": 1648, "mz1609": 1649, "mz1610": 1650, "mz1611": 1651, "mz1612": 1652, "mz1613": 1653, "mz1614": 1654, "mz1615": 1655, "mz1616": 1656, "mz1617": 1657, "mz1618": 1658, "mz1619": 1659, "mz1620": 1660, "mz1621": 1661, "mz1622": 1662, "mz1623": 1663, "mz1624": 1664, "mz1625": 1665, "mz1626": 1666, "mz1627": 1667, "mz1628": 1668, "mz1629": 1669, "mz1630": 1670, "mz1631": 1671, "mz1632": 1672, "mz1633": 1673, "mz1634": 1674, "mz1635": 1675, "mz1636": 1676, "mz1637": 1677, "mz1638": 1678, "mz1639": 1679, "mz1640": 1680, "mz1641": 1681, "mz1642": 1682, "mz1643": 1683, "mz1644": 1684, "mz1645": 1685, "mz1646": 1686, "mz1647": 1687, "mz1648": 1688, "mz1649": 1689, "mz1650": 1690, "mz1651": 1691, "mz1652": 1692, "mz1653": 1693, "mz1654": 1694, "mz1655": 1695, "mz1656": 1696, "mz1657": 1697, "mz1658": 1698, "mz1659": 1699, "mz1660": 1700, "mz1661": 1701, "mz1662": 1702, "mz1663": 1703, "mz1664": 1704, "mz1665": 1705, "mz1666": 1706, "mz1667": 1707, "mz1668": 1708, "mz1669": 1709, "mz1670": 1710, "mz1671": 1711, "mz1672": 1712, "mz1673": 1713, "mz1674": 1714, "mz1675": 1715, "mz1676": 1716, "mz1677": 1717, "mz1678": 1718, "mz1679": 1719, "mz1680": 1720, "mz1681": 1721, "mz1682": 1722, "mz1683": 1723, "mz1684": 1724, "mz1685": 1725, "mz1686": 1726, "mz1687": 1727, "mz1688": 1728, "mz1689": 1729, "mz1690": 1730, "mz1691": 1731, "mz1692": 1732, "mz1693": 1733, "mz1694": 1734, "mz1695": 1735, "mz1696": 1736, "mz1697": 1737, "mz1698": 1738, "mz1699": 1739, "mz1700": 1740, "mz1701": 1741, "mz1702": 1742, "mz1703": 1743, "mz1704": 1744, "mz1705": 1745, "mz1706": 1746, "mz1707": 1747, "mz1708": 1748, "mz1709": 1749, "mz1710": 1750, "mz1711": 1751, "mz1712": 1752, "mz1713": 1753, "mz1714": 1754, "mz1715": 1755, "mz1716": 1756, "mz1717": 1757, "mz1718": 1758, "mz1719": 1759, "mz1720": 1760, "mz1721": 1761, "mz1722": 1762, "mz1723": 1763, "mz1724": 1764, "mz1725": 1765, "mz1726": 1766, "mz1727": 1767, "mz1728": 1768, "mz1729": 1769, "mz1730": 1770, "mz1731": 1771, "mz1732": 1772, "mz1733": 1773, "mz1734": 1774, "mz1735": 1775, "mz1736": 1776, "mz1737": 1777, "mz1738": 1778, "mz1739": 1779, "mz1740": 1780, "mz1741": 1781, "mz1742": 1782, "mz1743": 1783, "mz1744": 1784, "mz1745": 1785, "mz1746": 1786, "mz1747": 1787, "mz1748": 1788, "mz1749": 1789, "mz1750": 1790, "mz1751": 1791, "mz1752": 1792, "mz1753": 1793, "mz1754": 1794, "mz1755": 1795, "mz1756": 1796, "mz1757": 1797, "mz1758": 1798, "mz1759": 1799, "mz1760": 1800, "mz1761": 1801, "mz1762": 1802, "mz1763": 1803, "mz1764": 1804, "mz1765": 1805, "mz1766": 1806, "mz1767": 1807, "mz1768": 1808, "mz1769": 1809, "mz1770": 1810, "mz1771": 1811, "mz1772": 1812, "mz1773": 1813, "mz1774": 1814, "mz1775": 1815, "mz1776": 1816, "mz1777": 1817, "mz1778": 1818, "mz1779": 1819, "mz1780": 1820, "mz1781": 1821, "mz1782": 1822, "mz1783": 1823, "mz1784": 1824, "mz1785": 1825, "mz1786": 1826, "mz1787": 1827, "mz1788": 1828, "mz1789": 1829, "mz1790": 1830, "mz1791": 1831, "mz1792": 1832, "mz1793": 1833, "mz1794": 1834, "mz1795": 1835, "mz1796": 1836, "mz1797": 1837, "mz1798": 1838, "mz1799": 1839, "mz1800": 1840, "mz1801": 1841, "mz1802": 1842, "mz1803": 1843, "mz1804": 1844, "mz1805": 1845, "mz1806": 1846, "mz1807": 1847, "mz1808": 1848, "mz1809": 1849, "mz1810": 1850, "mz1811": 1851, "mz1812": 1852, "mz1813": 1853, "mz1814": 1854, "mz1815": 1855, "mz1816": 1856, "mz1817": 1857, "mz1818": 1858, "mz1819": 1859, "mz1820": 1860, "mz1821": 1861, "mz1822": 1862, "mz1823": 1863, "mz1824": 1864, "mz1825": 1865, "mz1826": 1866, "mz1827": 1867, "mz1828": 1868, "mz1829": 1869, "mz1830": 1870, "mz1831": 1871, "mz1832": 1872, "mz1833": 1873, "mz1834": 1874, "mz1835": 1875, "mz1836": 1876, "mz1837": 1877, "mz1838": 1878, "mz1839": 1879, "mz1840": 1880, "mz1841": 1881, "mz1842": 1882, "mz1843": 1883, "mz1844": 1884, "mz1845": 1885, "mz1846": 1886, "mz1847": 1887, "mz1848": 1888, "mz1849": 1889, "mz1850": 1890, "mz1851": 1891, "mz1852": 1892, "mz1853": 1893, "mz1854": 1894, "mz1855": 1895, "mz1856": 1896, "mz1857": 1897, "mz1858": 1898, "mz1859": 1899, "mz1860": 1900, "mz1861": 1901, "mz1862": 1902, "mz1863": 1903, "mz1864": 1904, "mz1865": 1905, "mz1866": 1906, "mz1867": 1907, "mz1868": 1908, "mz1869": 1909, "mz1870": 1910, "mz1871": 1911, "mz1872": 1912, "mz1873": 1913, "mz1874": 1914, "mz1875": 1915, "mz1876": 1916, "mz1877": 1917, "mz1878": 1918, "mz1879": 1919, "mz1880": 1920, "mz1881": 1921, "mz1882": 1922, "mz1883": 1923, "mz1884": 1924, "mz1885": 1925, "mz1886": 1926, "mz1887": 1927, "mz1888": 1928, "mz1889": 1929, "mz1890": 1930, "mz1891": 1931, "mz1892": 1932, "mz1893": 1933, "mz1894": 1934, "mz1895": 1935, "mz1896": 1936, "mz1897": 1937, "mz1898": 1938, "mz1899": 1939, "mz1900": 1940, "mz1901": 1941, "mz1902": 1942, "mz1903": 1943, "mz1904": 1944, "mz1905": 1945, "mz1906": 1946, "mz1907": 1947, "mz1908": 1948, "mz1909": 1949, "mz1910": 1950, "mz1911": 1951, "mz1912": 1952, "mz1913": 1953, "mz1914": 1954, "mz1915": 1955, "mz1916": 1956, "mz1917": 1957, "mz1918": 1958, "mz1919": 1959, "mz1920": 1960, "mz1921": 1961, "mz1922": 1962, "mz1923": 1963, "mz1924": 1964, "mz1925": 1965, "mz1926": 1966, "mz1927": 1967, "mz1928": 1968, "mz1929": 1969, "mz1930": 1970, "mz1931": 1971, "mz1932": 1972, "mz1933": 1973, "mz1934": 1974, "mz1935": 1975, "mz1936": 1976, "mz1937": 1977, "mz1938": 1978, "mz1939": 1979, "mz1940": 1980, "mz1941": 1981, "mz1942": 1982, "mz1943": 1983, "mz1944": 1984, "mz1945": 1985, "mz1946": 1986, "mz1947": 1987, "mz1948": 1988, "mz1949": 1989, "mz1950": 1990, "mz1951": 1991, "mz1952": 1992, "mz1953": 1993, "mz1954": 1994, "mz1955": 1995, "mz1956": 1996, "mz1957": 1997, "mz1958": 1998, "mz1959": 1999, "mz1960": 2000, "mz1961": 2001, "mz1962": 2002, "mz1963": 2003, "mz1964": 2004, "mz1965": 2005, "mz1966": 2006, "mz1967": 2007, "mz1968": 2008, "mz1969": 2009, "mz1970": 2010, "mz1971": 2011, "mz1972": 2012, "mz1973": 2013, "mz1974": 2014, "mz1975": 2015, "mz1976": 2016, "mz1977": 2017, "mz1978": 2018, "mz1979": 2019, "mz1980": 2020, "mz1981": 2021, "mz1982": 2022, "mz1983": 2023, "mz1984": 2024, "mz1985": 2025, "mz1986": 2026, "mz1987": 2027, "mz1988": 2028, "mz1989": 2029, "mz1990": 2030, "mz1991": 2031, "mz1992": 2032, "mz1993": 2033, "mz1994": 2034, "mz1995": 2035, "mz1996": 2036, "mz1997": 2037, "mz1998": 2038, "mz1999": 2039, "mz2000": 2040, "mz2001": 2041, "mz2002": 2042, "mz2003": 2043, "mz2004": 2044, "mz2005": 2045, "mz2006": 2046, "mz2007": 2047, "mz2008": 2048, "mz2009": 2049, "mz2010": 2050, "mz2011": 2051, "mz2012": 2052, "mz2013": 2053, "mz2014": 2054, "mz2015": 2055, "mz2016": 2056, "mz2017": 2057, "mz2018": 2058, "mz2019": 2059, "mz2020": 2060, "mz2021": 2061, "mz2022": 2062, "mz2023": 2063, "mz2024": 2064, "mz2025": 2065, "mz2026": 2066, "mz2027": 2067, "mz2028": 2068, "mz2029": 2069, "mz2030": 2070, "mz2031": 2071, "mz2032": 2072, "mz2033": 2073, "mz2034": 2074, "mz2035": 2075, "mz2036": 2076, "mz2037": 2077, "mz2038": 2078, "mz2039": 2079, "mz2040": 2080, "mz2041": 2081, "mz2042": 2082, "mz2043": 2083, "mz2044": 2084, "mz2045": 2085, "mz2046": 2086, "mz2047": 2087, "mz2048": 2088, "mz2049": 2089, "mz2050": 2090, "mz2051": 2091, "mz2052": 2092, "mz2053": 2093, "mz2054": 2094, "mz2055": 2095, "mz2056": 2096, "mz2057": 2097, "mz2058": 2098, "mz2059": 2099, "mz2060": 2100, "mz2061": 2101, "mz2062": 2102, "mz2063": 2103, "mz2064": 2104, "mz2065": 2105, "mz2066": 2106, "mz2067": 2107, "mz2068": 2108, "mz2069": 2109, "mz2070": 2110, "mz2071": 2111, "mz2072": 2112, "mz2073": 2113, "mz2074": 2114, "mz2075": 2115, "mz2076": 2116, "mz2077": 2117, "mz2078": 2118, "mz2079": 2119, "mz2080": 2120, "mz2081": 2121, "mz2082": 2122, "mz2083": 2123, "mz2084": 2124, "mz2085": 2125, "mz2086": 2126, "mz2087": 2127, "mz2088": 2128, "mz2089": 2129, "mz2090": 2130, "mz2091": 2131, "mz2092": 2132, "mz2093": 2133, "mz2094": 2134, "mz2095": 2135, "mz2096": 2136, "mz2097": 2137, "mz2098": 2138, "mz2099": 2139, "mz2100": 2140, "mz2101": 2141, "mz2102": 2142, "mz2103": 2143, "mz2104": 2144, "mz2105": 2145, "mz2106": 2146, "mz2107": 2147, "mz2108": 2148, "mz2109": 2149, "mz2110": 2150, "mz2111": 2151, "mz2112": 2152, "mz2113": 2153, "mz2114": 2154, "mz2115": 2155, "mz2116": 2156, "mz2117": 2157, "mz2118": 2158, "mz2119": 2159, "mz2120": 2160, "mz2121": 2161, "mz2122": 2162, "mz2123": 2163, "mz2124": 2164, "mz2125": 2165, "mz2126": 2166, "mz2127": 2167, "mz2128": 2168, "mz2129": 2169, "mz2130": 2170, "mz2131": 2171, "mz2132": 2172, "mz2133": 2173, "mz2134": 2174, "mz2135": 2175, "mz2136": 2176, "mz2137": 2177, "mz2138": 2178, "mz2139": 2179, "mz2140": 2180, "mz2141": 2181, "mz2142": 2182, "mz2143": 2183, "mz2144": 2184, "mz2145": 2185, "mz2146": 2186, "mz2147": 2187, "mz2148": 2188, "mz2149": 2189, "mz2150": 2190, "mz2151": 2191, "mz2152": 2192, "mz2153": 2193, "mz2154": 2194, "mz2155": 2195, "mz2156": 2196, "mz2157": 2197, "mz2158": 2198, "mz2159": 2199, "mz2160": 2200, "mz2161": 2201, "mz2162": 2202, "mz2163": 2203, "mz2164": 2204, "mz2165": 2205, "mz2166": 2206, "mz2167": 2207, "mz2168": 2208, "mz2169": 2209, "mz2170": 2210, "mz2171": 2211, "mz2172": 2212, "mz2173": 2213, "mz2174": 2214, "mz2175": 2215, "mz2176": 2216, "mz2177": 2217, "mz2178": 2218, "mz2179": 2219, "mz2180": 2220, "mz2181": 2221, "mz2182": 2222, "mz2183": 2223, "mz2184": 2224, "mz2185": 2225, "mz2186": 2226, "mz2187": 2227, "mz2188": 2228, "mz2189": 2229, "mz2190": 2230, "mz2191": 2231, "mz2192": 2232, "mz2193": 2233, "mz2194": 2234, "mz2195": 2235, "mz2196": 2236, "mz2197": 2237, "mz2198": 2238, "mz2199": 2239, "mz2200": 2240, "mz2201": 2241, "mz2202": 2242, "mz2203": 2243, "mz2204": 2244, "mz2205": 2245, "mz2206": 2246, "mz2207": 2247, "mz2208": 2248, "mz2209": 2249, "mz2210": 2250, "mz2211": 2251, "mz2212": 2252, "mz2213": 2253, "mz2214": 2254, "mz2215": 2255, "mz2216": 2256, "mz2217": 2257, "mz2218": 2258, "mz2219": 2259, "mz2220": 2260, "mz2221": 2261, "mz2222": 2262, "mz2223": 2263, "mz2224": 2264, "mz2225": 2265, "mz2226": 2266, "mz2227": 2267, "mz2228": 2268, "mz2229": 2269, "mz2230": 2270, "mz2231": 2271, "mz2232": 2272, "mz2233": 2273, "mz2234": 2274, "mz2235": 2275, "mz2236": 2276, "mz2237": 2277, "mz2238": 2278, "mz2239": 2279, "mz2240": 2280, "mz2241": 2281, "mz2242": 2282, "mz2243": 2283, "mz2244": 2284, "mz2245": 2285, "mz2246": 2286, "mz2247": 2287, "mz2248": 2288, "mz2249": 2289, "mz2250": 2290, "mz2251": 2291, "mz2252": 2292, "mz2253": 2293, "mz2254": 2294, "mz2255": 2295, "mz2256": 2296, "mz2257": 2297, "mz2258": 2298, "mz2259": 2299, "mz2260": 2300, "mz2261": 2301, "mz2262": 2302, "mz2263": 2303, "mz2264": 2304, "mz2265": 2305, "mz2266": 2306, "mz2267": 2307, "mz2268": 2308, "mz2269": 2309, "mz2270": 2310, "mz2271": 2311, "mz2272": 2312, "mz2273": 2313, "mz2274": 2314, "mz2275": 2315, "mz2276": 2316, "mz2277": 2317, "mz2278": 2318, "mz2279": 2319, "mz2280": 2320, "mz2281": 2321, "mz2282": 2322, "mz2283": 2323, "mz2284": 2324, "mz2285": 2325, "mz2286": 2326, "mz2287": 2327, "mz2288": 2328, "mz2289": 2329, "mz2290": 2330, "mz2291": 2331, "mz2292": 2332, "mz2293": 2333, "mz2294": 2334, "mz2295": 2335, "mz2296": 2336, "mz2297": 2337, "mz2298": 2338, "mz2299": 2339, "mz2300": 2340, "mz2301": 2341, "mz2302": 2342, "mz2303": 2343, "mz2304": 2344, "mz2305": 2345, "mz2306": 2346, "mz2307": 2347, "mz2308": 2348, "mz2309": 2349, "mz2310": 2350, "mz2311": 2351, "mz2312": 2352, "mz2313": 2353, "mz2314": 2354, "mz2315": 2355, "mz2316": 2356, "mz2317": 2357, "mz2318": 2358, "mz2319": 2359, "mz2320": 2360, "mz2321": 2361, "mz2322": 2362, "mz2323": 2363, "mz2324": 2364, "mz2325": 2365, "mz2326": 2366, "mz2327": 2367, "mz2328": 2368, "mz2329": 2369, "mz2330": 2370, "mz2331": 2371, "mz2332": 2372, "mz2333": 2373, "mz2334": 2374, "mz2335": 2375, "mz2336": 2376, "mz2337": 2377, "mz2338": 2378, "mz2339": 2379, "mz2340": 2380, "mz2341": 2381, "mz2342": 2382, "mz2343": 2383, "mz2344": 2384, "mz2345": 2385, "mz2346": 2386, "mz2347": 2387, "mz2348": 2388, "mz2349": 2389, "mz2350": 2390, "mz2351": 2391, "mz2352": 2392, "mz2353": 2393, "mz2354": 2394, "mz2355": 2395, "mz2356": 2396, "mz2357": 2397, "mz2358": 2398, "mz2359": 2399, "mz2360": 2400, "mz2361": 2401, "mz2362": 2402, "mz2363": 2403, "mz2364": 2404, "mz2365": 2405, "mz2366": 2406, "mz2367": 2407, "mz2368": 2408, "mz2369": 2409, "mz2370": 2410, "mz2371": 2411, "mz2372": 2412, "mz2373": 2413, "mz2374": 2414, "mz2375": 2415, "mz2376": 2416, "mz2377": 2417, "mz2378": 2418, "mz2379": 2419, "mz2380": 2420, "mz2381": 2421, "mz2382": 2422, "mz2383": 2423, "mz2384": 2424, "mz2385": 2425, "mz2386": 2426, "mz2387": 2427, "mz2388": 2428, "mz2389": 2429, "mz2390": 2430, "mz2391": 2431, "mz2392": 2432, "mz2393": 2433, "mz2394": 2434, "mz2395": 2435, "mz2396": 2436, "mz2397": 2437, "mz2398": 2438, "mz2399": 2439, "mz2400": 2440, "mz2401": 2441, "mz2402": 2442, "mz2403": 2443, "mz2404": 2444, "mz2405": 2445, "mz2406": 2446, "mz2407": 2447, "mz2408": 2448, "mz2409": 2449, "mz2410": 2450, "mz2411": 2451, "mz2412": 2452, "mz2413": 2453, "mz2414": 2454, "mz2415": 2455, "mz2416": 2456, "mz2417": 2457, "mz2418": 2458, "mz2419": 2459, "mz2420": 2460, "mz2421": 2461, "mz2422": 2462, "mz2423": 2463, "mz2424": 2464, "mz2425": 2465, "mz2426": 2466, "mz2427": 2467, "mz2428": 2468, "mz2429": 2469, "mz2430": 2470, "mz2431": 2471, "mz2432": 2472, "mz2433": 2473, "mz2434": 2474, "mz2435": 2475, "mz2436": 2476, "mz2437": 2477, "mz2438": 2478, "mz2439": 2479, "mz2440": 2480, "mz2441": 2481, "mz2442": 2482, "mz2443": 2483, "mz2444": 2484, "mz2445": 2485, "mz2446": 2486, "mz2447": 2487, "mz2448": 2488, "mz2449": 2489, "mz2450": 2490, "mz2451": 2491, "mz2452": 2492, "mz2453": 2493, "mz2454": 2494, "mz2455": 2495, "mz2456": 2496, "mz2457": 2497, "mz2458": 2498, "mz2459": 2499, "mz2460": 2500, "mz2461": 2501, "mz2462": 2502, "mz2463": 2503, "mz2464": 2504, "mz2465": 2505, "mz2466": 2506, "mz2467": 2507, "mz2468": 2508, "mz2469": 2509, "mz2470": 2510, "mz2471": 2511, "mz2472": 2512, "mz2473": 2513, "mz2474": 2514, "mz2475": 2515, "mz2476": 2516, "mz2477": 2517, "mz2478": 2518, "mz2479": 2519, "mz2480": 2520, "mz2481": 2521, "mz2482": 2522, "mz2483": 2523, "mz2484": 2524, "mz2485": 2525, "mz2486": 2526, "mz2487": 2527, "mz2488": 2528, "mz2489": 2529, "mz2490": 2530, "mz2491": 2531, "mz2492": 2532, "mz2493": 2533, "mz2494": 2534, "mz2495": 2535, "mz2496": 2536, "mz2497": 2537, "mz2498": 2538, "mz2499": 2539, "mz2500": 2540, "mz2501": 2541, "mz2502": 2542, "mz2503": 2543, "mz2504": 2544, "mz2505": 2545, "mz2506": 2546, "mz2507": 2547, "mz2508": 2548, "mz2509": 2549, "mz2510": 2550, "mz2511": 2551, "mz2512": 2552, "mz2513": 2553, "mz2514": 2554, "mz2515": 2555, "mz2516": 2556, "mz2517": 2557, "mz2518": 2558, "mz2519": 2559, "mz2520": 2560, "mz2521": 2561, "mz2522": 2562, "mz2523": 2563, "mz2524": 2564, "mz2525": 2565, "mz2526": 2566, "mz2527": 2567, "mz2528": 2568, "mz2529": 2569, "mz2530": 2570, "mz2531": 2571, "mz2532": 2572, "mz2533": 2573, "mz2534": 2574, "mz2535": 2575, "mz2536": 2576, "mz2537": 2577, "mz2538": 2578, "mz2539": 2579, "mz2540": 2580, "mz2541": 2581, "mz2542": 2582, "mz2543": 2583, "mz2544": 2584, "mz2545": 2585, "mz2546": 2586, "mz2547": 2587, "mz2548": 2588, "mz2549": 2589, "mz2550": 2590, "mz2551": 2591, "mz2552": 2592, "mz2553": 2593, "mz2554": 2594, "mz2555": 2595, "mz2556": 2596, "mz2557": 2597, "mz2558": 2598, "mz2559": 2599, "mz2560": 2600, "mz2561": 2601, "mz2562": 2602, "mz2563": 2603, "mz2564": 2604, "mz2565": 2605, "mz2566": 2606, "mz2567": 2607, "mz2568": 2608, "mz2569": 2609, "mz2570": 2610, "mz2571": 2611, "mz2572": 2612, "mz2573": 2613, "mz2574": 2614, "mz2575": 2615, "mz2576": 2616, "mz2577": 2617, "mz2578": 2618, "mz2579": 2619, "mz2580": 2620, "mz2581": 2621, "mz2582": 2622, "mz2583": 2623, "mz2584": 2624, "mz2585": 2625, "mz2586": 2626, "mz2587": 2627, "mz2588": 2628, "mz2589": 2629, "mz2590": 2630, "mz2591": 2631, "mz2592": 2632, "mz2593": 2633, "mz2594": 2634, "mz2595": 2635, "mz2596": 2636, "mz2597": 2637, "mz2598": 2638, "mz2599": 2639, "mz2600": 2640, "mz2601": 2641, "mz2602": 2642, "mz2603": 2643, "mz2604": 2644, "mz2605": 2645, "mz2606": 2646, "mz2607": 2647, "mz2608": 2648, "mz2609": 2649, "mz2610": 2650, "mz2611": 2651, "mz2612": 2652, "mz2613": 2653, "mz2614": 2654, "mz2615": 2655, "mz2616": 2656, "mz2617": 2657, "mz2618": 2658, "mz2619": 2659, "mz2620": 2660, "mz2621": 2661, "mz2622": 2662, "mz2623": 2663, "mz2624": 2664, "mz2625": 2665, "mz2626": 2666, "mz2627": 2667, "mz2628": 2668, "mz2629": 2669, "mz2630": 2670, "mz2631": 2671, "mz2632": 2672, "mz2633": 2673, "mz2634": 2674, "mz2635": 2675, "mz2636": 2676, "mz2637": 2677, "mz2638": 2678, "mz2639": 2679, "mz2640": 2680, "mz2641": 2681, "mz2642": 2682, "mz2643": 2683, "mz2644": 2684, "mz2645": 2685, "mz2646": 2686, "mz2647": 2687, "mz2648": 2688, "mz2649": 2689, "mz2650": 2690, "mz2651": 2691, "mz2652": 2692, "mz2653": 2693, "mz2654": 2694, "mz2655": 2695, "mz2656": 2696, "mz2657": 2697, "mz2658": 2698, "mz2659": 2699, "mz2660": 2700, "mz2661": 2701, "mz2662": 2702, "mz2663": 2703, "mz2664": 2704, "mz2665": 2705, "mz2666": 2706, "mz2667": 2707, "mz2668": 2708, "mz2669": 2709, "mz2670": 2710, "mz2671": 2711, "mz2672": 2712, "mz2673": 2713, "mz2674": 2714, "mz2675": 2715, "mz2676": 2716, "mz2677": 2717, "mz2678": 2718, "mz2679": 2719, "mz2680": 2720, "mz2681": 2721, "mz2682": 2722, "mz2683": 2723, "mz2684": 2724, "mz2685": 2725, "mz2686": 2726, "mz2687": 2727, "mz2688": 2728, "mz2689": 2729, "mz2690": 2730, "mz2691": 2731, "mz2692": 2732, "mz2693": 2733, "mz2694": 2734, "mz2695": 2735, "mz2696": 2736, "mz2697": 2737, "mz2698": 2738, "mz2699": 2739, "mz2700": 2740, "mz2701": 2741, "mz2702": 2742, "mz2703": 2743, "mz2704": 2744, "mz2705": 2745, "mz2706": 2746, "mz2707": 2747, "mz2708": 2748, "mz2709": 2749, "mz2710": 2750, "mz2711": 2751, "mz2712": 2752, "mz2713": 2753, "mz2714": 2754, "mz2715": 2755, "mz2716": 2756, "mz2717": 2757, "mz2718": 2758, "mz2719": 2759, "mz2720": 2760, "mz2721": 2761, "mz2722": 2762, "mz2723": 2763, "mz2724": 2764, "mz2725": 2765, "mz2726": 2766, "mz2727": 2767, "mz2728": 2768, "mz2729": 2769, "mz2730": 2770, "mz2731": 2771, "mz2732": 2772, "mz2733": 2773, "mz2734": 2774, "mz2735": 2775, "mz2736": 2776, "mz2737": 2777, "mz2738": 2778, "mz2739": 2779, "mz2740": 2780, "mz2741": 2781, "mz2742": 2782, "mz2743": 2783, "mz2744": 2784, "mz2745": 2785, "mz2746": 2786, "mz2747": 2787, "mz2748": 2788, "mz2749": 2789, "mz2750": 2790, "mz2751": 2791, "mz2752": 2792, "mz2753": 2793, "mz2754": 2794, "mz2755": 2795, "mz2756": 2796, "mz2757": 2797, "mz2758": 2798, "mz2759": 2799, "mz2760": 2800, "mz2761": 2801, "mz2762": 2802, "mz2763": 2803, "mz2764": 2804, "mz2765": 2805, "mz2766": 2806, "mz2767": 2807, "mz2768": 2808, "mz2769": 2809, "mz2770": 2810, "mz2771": 2811, "mz2772": 2812, "mz2773": 2813, "mz2774": 2814, "mz2775": 2815, "mz2776": 2816, "mz2777": 2817, "mz2778": 2818, "mz2779": 2819, "mz2780": 2820, "mz2781": 2821, "mz2782": 2822, "mz2783": 2823, "mz2784": 2824, "mz2785": 2825, "mz2786": 2826, "mz2787": 2827, "mz2788": 2828, "mz2789": 2829, "mz2790": 2830, "mz2791": 2831, "mz2792": 2832, "mz2793": 2833, "mz2794": 2834, "mz2795": 2835, "mz2796": 2836, "mz2797": 2837, "mz2798": 2838, "mz2799": 2839, "mz2800": 2840, "mz2801": 2841, "mz2802": 2842, "mz2803": 2843, "mz2804": 2844, "mz2805": 2845, "mz2806": 2846, "mz2807": 2847, "mz2808": 2848, "mz2809": 2849, "mz2810": 2850, "mz2811": 2851, "mz2812": 2852, "mz2813": 2853, "mz2814": 2854, "mz2815": 2855, "mz2816": 2856, "mz2817": 2857, "mz2818": 2858, "mz2819": 2859, "mz2820": 2860, "mz2821": 2861, "mz2822": 2862, "mz2823": 2863, "mz2824": 2864, "mz2825": 2865, "mz2826": 2866, "mz2827": 2867, "mz2828": 2868, "mz2829": 2869, "mz2830": 2870, "mz2831": 2871, "mz2832": 2872, "mz2833": 2873, "mz2834": 2874, "mz2835": 2875, "mz2836": 2876, "mz2837": 2877, "mz2838": 2878, "mz2839": 2879, "mz2840": 2880, "mz2841": 2881, "mz2842": 2882, "mz2843": 2883, "mz2844": 2884, "mz2845": 2885, "mz2846": 2886, "mz2847": 2887, "mz2848": 2888, "mz2849": 2889, "mz2850": 2890, "mz2851": 2891, "mz2852": 2892, "mz2853": 2893, "mz2854": 2894, "mz2855": 2895, "mz2856": 2896, "mz2857": 2897, "mz2858": 2898, "mz2859": 2899, "mz2860": 2900, "mz2861": 2901, "mz2862": 2902, "mz2863": 2903, "mz2864": 2904, "mz2865": 2905, "mz2866": 2906, "mz2867": 2907, "mz2868": 2908, "mz2869": 2909, "mz2870": 2910, "mz2871": 2911, "mz2872": 2912, "mz2873": 2913, "mz2874": 2914, "mz2875": 2915, "mz2876": 2916, "mz2877": 2917, "mz2878": 2918, "mz2879": 2919, "mz2880": 2920, "mz2881": 2921, "mz2882": 2922, "mz2883": 2923, "mz2884": 2924, "mz2885": 2925, "mz2886": 2926, "mz2887": 2927, "mz2888": 2928, "mz2889": 2929, "mz2890": 2930, "mz2891": 2931, "mz2892": 2932, "mz2893": 2933, "mz2894": 2934, "mz2895": 2935, "mz2896": 2936, "mz2897": 2937, "mz2898": 2938, "mz2899": 2939, "mz2900": 2940, "mz2901": 2941, "mz2902": 2942, "mz2903": 2943, "mz2904": 2944, "mz2905": 2945, "mz2906": 2946, "mz2907": 2947, "mz2908": 2948, "mz2909": 2949, "mz2910": 2950, "mz2911": 2951, "mz2912": 2952, "mz2913": 2953, "mz2914": 2954, "mz2915": 2955, "mz2916": 2956, "mz2917": 2957, "mz2918": 2958, "mz2919": 2959, "mz2920": 2960, "mz2921": 2961, "mz2922": 2962, "mz2923": 2963, "mz2924": 2964, "mz2925": 2965, "mz2926": 2966, "mz2927": 2967, "mz2928": 2968, "mz2929": 2969, "mz2930": 2970, "mz2931": 2971, "mz2932": 2972, "mz2933": 2973, "mz2934": 2974, "mz2935": 2975, "mz2936": 2976, "mz2937": 2977, "mz2938": 2978, "mz2939": 2979, "mz2940": 2980, "mz2941": 2981, "mz2942": 2982, "mz2943": 2983, "mz2944": 2984, "mz2945": 2985, "mz2946": 2986, "mz2947": 2987, "mz2948": 2988, "mz2949": 2989, "mz2950": 2990, "mz2951": 2991, "mz2952": 2992, "mz2953": 2993, "mz2954": 2994, "mz2955": 2995, "mz2956": 2996, "mz2957": 2997, "mz2958": 2998, "mz2959": 2999, "mz2960": 3000, "mz2961": 3001, "mz2962": 3002, "mz2963": 3003, "mz2964": 3004, "mz2965": 3005, "mz2966": 3006, "mz2967": 3007, "mz2968": 3008, "mz2969": 3009, "mz2970": 3010, "mz2971": 3011, "mz2972": 3012, "mz2973": 3013, "mz2974": 3014, "mz2975": 3015, "mz2976": 3016, "mz2977": 3017, "mz2978": 3018, "mz2979": 3019, "mz2980": 3020, "mz2981": 3021, "mz2982": 3022, "mz2983": 3023, "mz2984": 3024, "mz2985": 3025, "mz2986": 3026, "mz2987": 3027, "mz2988": 3028, "mz2989": 3029, "mz2990": 3030, "mz2991": 3031, "mz2992": 3032, "mz2993": 3033, "mz2994": 3034, "mz2995": 3035, "mz2996": 3036, "mz2997": 3037, "mz2998": 3038, "mz2999": 3039, "mz3000": 3040, "mz3001": 3041, "mz3002": 3042, "mz3003": 3043, "mz3004": 3044, "mz3005": 3045, "mz3006": 3046, "mz3007": 3047, "mz3008": 3048, "mz3009": 3049, "mz3010": 3050, "mz3011": 3051, "mz3012": 3052, "mz3013": 3053, "mz3014": 3054, "mz3015": 3055, "mz3016": 3056, "mz3017": 3057, "mz3018": 3058, "mz3019": 3059, "mz3020": 3060, "mz3021": 3061, "mz3022": 3062, "mz3023": 3063, "mz3024": 3064, "mz3025": 3065, "mz3026": 3066, "mz3027": 3067, "mz3028": 3068, "mz3029": 3069, "mz3030": 3070, "mz3031": 3071, "mz3032": 3072, "mz3033": 3073, "mz3034": 3074, "mz3035": 3075, "mz3036": 3076, "mz3037": 3077, "mz3038": 3078, "mz3039": 3079, "mz3040": 3080, "mz3041": 3081, "mz3042": 3082, "mz3043": 3083, "mz3044": 3084, "mz3045": 3085, "mz3046": 3086, "mz3047": 3087, "mz3048": 3088, "mz3049": 3089, "mz3050": 3090, "mz3051": 3091, "mz3052": 3092, "mz3053": 3093, "mz3054": 3094, "mz3055": 3095, "mz3056": 3096, "mz3057": 3097, "mz3058": 3098, "mz3059": 3099, "mz3060": 3100, "mz3061": 3101, "mz3062": 3102, "mz3063": 3103, "mz3064": 3104, "mz3065": 3105, "mz3066": 3106, "mz3067": 3107, "mz3068": 3108, "mz3069": 3109, "mz3070": 3110, "mz3071": 3111, "mz3072": 3112, "mz3073": 3113, "mz3074": 3114, "mz3075": 3115, "mz3076": 3116, "mz3077": 3117, "mz3078": 3118, "mz3079": 3119, "mz3080": 3120, "mz3081": 3121, "mz3082": 3122, "mz3083": 3123, "mz3084": 3124, "mz3085": 3125, "mz3086": 3126, "mz3087": 3127, "mz3088": 3128, "mz3089": 3129, "mz3090": 3130, "mz3091": 3131, "mz3092": 3132, "mz3093": 3133, "mz3094": 3134, "mz3095": 3135, "mz3096": 3136, "mz3097": 3137, "mz3098": 3138, "mz3099": 3139, "mz3100": 3140, "mz3101": 3141, "mz3102": 3142, "mz3103": 3143, "mz3104": 3144, "mz3105": 3145, "mz3106": 3146, "mz3107": 3147, "mz3108": 3148, "mz3109": 3149, "mz3110": 3150, "mz3111": 3151, "mz3112": 3152, "mz3113": 3153, "mz3114": 3154, "mz3115": 3155, "mz3116": 3156, "mz3117": 3157, "mz3118": 3158, "mz3119": 3159, "mz3120": 3160, "mz3121": 3161, "mz3122": 3162, "mz3123": 3163, "mz3124": 3164, "mz3125": 3165, "mz3126": 3166, "mz3127": 3167, "mz3128": 3168, "mz3129": 3169, "mz3130": 3170, "mz3131": 3171, "mz3132": 3172, "mz3133": 3173, "mz3134": 3174, "mz3135": 3175, "mz3136": 3176, "mz3137": 3177, "mz3138": 3178, "mz3139": 3179, "mz3140": 3180, "mz3141": 3181, "mz3142": 3182, "mz3143": 3183, "mz3144": 3184, "mz3145": 3185, "mz3146": 3186, "mz3147": 3187, "mz3148": 3188, "mz3149": 3189, "mz3150": 3190, "mz3151": 3191, "mz3152": 3192, "mz3153": 3193, "mz3154": 3194, "mz3155": 3195, "mz3156": 3196, "mz3157": 3197, "mz3158": 3198, "mz3159": 3199, "mz3160": 3200, "mz3161": 3201, "mz3162": 3202, "mz3163": 3203, "mz3164": 3204, "mz3165": 3205, "mz3166": 3206, "mz3167": 3207, "mz3168": 3208, "mz3169": 3209, "mz3170": 3210, "mz3171": 3211, "mz3172": 3212, "mz3173": 3213, "mz3174": 3214, "mz3175": 3215, "mz3176": 3216, "mz3177": 3217, "mz3178": 3218, "mz3179": 3219, "mz3180": 3220, "mz3181": 3221, "mz3182": 3222, "mz3183": 3223, "mz3184": 3224, "mz3185": 3225, "mz3186": 3226, "mz3187": 3227, "mz3188": 3228, "mz3189": 3229, "mz3190": 3230, "mz3191": 3231, "mz3192": 3232, "mz3193": 3233, "mz3194": 3234, "mz3195": 3235, "mz3196": 3236, "mz3197": 3237, "mz3198": 3238, "mz3199": 3239, "mz3200": 3240, "mz3201": 3241, "mz3202": 3242, "mz3203": 3243, "mz3204": 3244, "mz3205": 3245, "mz3206": 3246, "mz3207": 3247, "mz3208": 3248, "mz3209": 3249, "mz3210": 3250, "mz3211": 3251, "mz3212": 3252, "mz3213": 3253, "mz3214": 3254, "mz3215": 3255, "mz3216": 3256, "mz3217": 3257, "mz3218": 3258, "mz3219": 3259, "mz3220": 3260, "mz3221": 3261, "mz3222": 3262, "mz3223": 3263, "mz3224": 3264, "mz3225": 3265, "mz3226": 3266, "mz3227": 3267, "mz3228": 3268, "mz3229": 3269, "mz3230": 3270, "mz3231": 3271, "mz3232": 3272, "mz3233": 3273, "mz3234": 3274, "mz3235": 3275, "mz3236": 3276, "mz3237": 3277, "mz3238": 3278, "mz3239": 3279, "mz3240": 3280, "mz3241": 3281, "mz3242": 3282, "mz3243": 3283, "mz3244": 3284, "mz3245": 3285, "mz3246": 3286, "mz3247": 3287, "mz3248": 3288, "mz3249": 3289, "mz3250": 3290, "mz3251": 3291, "mz3252": 3292, "mz3253": 3293, "mz3254": 3294, "mz3255": 3295, "mz3256": 3296, "mz3257": 3297, "mz3258": 3298, "mz3259": 3299, "mz3260": 3300, "mz3261": 3301, "mz3262": 3302, "mz3263": 3303, "mz3264": 3304, "mz3265": 3305, "mz3266": 3306, "mz3267": 3307, "mz3268": 3308, "mz3269": 3309, "mz3270": 3310, "mz3271": 3311, "mz3272": 3312, "mz3273": 3313, "mz3274": 3314, "mz3275": 3315, "mz3276": 3316, "mz3277": 3317, "mz3278": 3318, "mz3279": 3319, "mz3280": 3320, "mz3281": 3321, "mz3282": 3322, "mz3283": 3323, "mz3284": 3324, "mz3285": 3325, "mz3286": 3326, "mz3287": 3327, "mz3288": 3328, "mz3289": 3329, "mz3290": 3330, "mz3291": 3331, "mz3292": 3332, "mz3293": 3333, "mz3294": 3334, "mz3295": 3335, "mz3296": 3336, "mz3297": 3337, "mz3298": 3338, "mz3299": 3339, "mz3300": 3340, "mz3301": 3341, "mz3302": 3342, "mz3303": 3343, "mz3304": 3344, "mz3305": 3345, "mz3306": 3346, "mz3307": 3347, "mz3308": 3348, "mz3309": 3349, "mz3310": 3350, "mz3311": 3351, "mz3312": 3352, "mz3313": 3353, "mz3314": 3354, "mz3315": 3355, "mz3316": 3356, "mz3317": 3357, "mz3318": 3358, "mz3319": 3359, "mz3320": 3360, "mz3321": 3361, "mz3322": 3362, "mz3323": 3363, "mz3324": 3364, "mz3325": 3365, "mz3326": 3366, "mz3327": 3367, "mz3328": 3368, "mz3329": 3369, "mz3330": 3370, "mz3331": 3371, "mz3332": 3372, "mz3333": 3373, "mz3334": 3374, "mz3335": 3375, "mz3336": 3376, "mz3337": 3377, "mz3338": 3378, "mz3339": 3379, "mz3340": 3380, "mz3341": 3381, "mz3342": 3382, "mz3343": 3383, "mz3344": 3384, "mz3345": 3385, "mz3346": 3386, "mz3347": 3387, "mz3348": 3388, "mz3349": 3389, "mz3350": 3390, "mz3351": 3391, "mz3352": 3392, "mz3353": 3393, "mz3354": 3394, "mz3355": 3395, "mz3356": 3396, "mz3357": 3397, "mz3358": 3398, "mz3359": 3399, "mz3360": 3400, "mz3361": 3401, "mz3362": 3402, "mz3363": 3403, "mz3364": 3404, "mz3365": 3405, "mz3366": 3406, "mz3367": 3407, "mz3368": 3408, "mz3369": 3409, "mz3370": 3410, "mz3371": 3411, "mz3372": 3412, "mz3373": 3413, "mz3374": 3414, "mz3375": 3415, "mz3376": 3416, "mz3377": 3417, "mz3378": 3418, "mz3379": 3419, "mz3380": 3420, "mz3381": 3421, "mz3382": 3422, "mz3383": 3423, "mz3384": 3424, "mz3385": 3425, "mz3386": 3426, "mz3387": 3427, "mz3388": 3428, "mz3389": 3429, "mz3390": 3430, "mz3391": 3431, "mz3392": 3432, "mz3393": 3433, "mz3394": 3434, "mz3395": 3435, "mz3396": 3436, "mz3397": 3437, "mz3398": 3438, "mz3399": 3439, "mz3400": 3440, "mz3401": 3441, "mz3402": 3442, "mz3403": 3443, "mz3404": 3444, "mz3405": 3445, "mz3406": 3446, "mz3407": 3447, "mz3408": 3448, "mz3409": 3449, "mz3410": 3450, "mz3411": 3451, "mz3412": 3452, "mz3413": 3453, "mz3414": 3454, "mz3415": 3455, "mz3416": 3456, "mz3417": 3457, "mz3418": 3458, "mz3419": 3459, "mz3420": 3460, "mz3421": 3461, "mz3422": 3462, "mz3423": 3463, "mz3424": 3464, "mz3425": 3465, "mz3426": 3466, "mz3427": 3467, "mz3428": 3468, "mz3429": 3469, "mz3430": 3470, "mz3431": 3471, "mz3432": 3472, "mz3433": 3473, "mz3434": 3474, "mz3435": 3475, "mz3436": 3476, "mz3437": 3477, "mz3438": 3478, "mz3439": 3479, "mz3440": 3480, "mz3441": 3481, "mz3442": 3482, "mz3443": 3483, "mz3444": 3484, "mz3445": 3485, "mz3446": 3486, "mz3447": 3487, "mz3448": 3488, "mz3449": 3489, "mz3450": 3490, "mz3451": 3491, "mz3452": 3492, "mz3453": 3493, "mz3454": 3494, "mz3455": 3495, "mz3456": 3496, "mz3457": 3497, "mz3458": 3498, "mz3459": 3499, "mz3460": 3500, "mz3461": 3501, "mz3462": 3502, "mz3463": 3503, "mz3464": 3504, "mz3465": 3505, "mz3466": 3506, "mz3467": 3507, "mz3468": 3508, "mz3469": 3509, "mz3470": 3510, "mz3471": 3511, "mz3472": 3512, "mz3473": 3513, "mz3474": 3514, "mz3475": 3515, "mz3476": 3516, "mz3477": 3517, "mz3478": 3518, "mz3479": 3519, "mz3480": 3520, "mz3481": 3521, "mz3482": 3522, "mz3483": 3523, "mz3484": 3524, "mz3485": 3525, "mz3486": 3526, "mz3487": 3527, "mz3488": 3528, "mz3489": 3529, "mz3490": 3530, "mz3491": 3531, "mz3492": 3532, "mz3493": 3533, "mz3494": 3534, "mz3495": 3535, "mz3496": 3536, "mz3497": 3537, "mz3498": 3538, "mz3499": 3539, "mz3500": 3540, "mz3501": 3541, "mz3502": 3542, "mz3503": 3543, "mz3504": 3544, "mz3505": 3545, "mz3506": 3546, "mz3507": 3547, "mz3508": 3548, "mz3509": 3549, "mz3510": 3550, "mz3511": 3551, "mz3512": 3552, "mz3513": 3553, "mz3514": 3554, "mz3515": 3555, "mz3516": 3556, "mz3517": 3557, "mz3518": 3558, "mz3519": 3559, "mz3520": 3560, "mz3521": 3561, "mz3522": 3562, "mz3523": 3563, "mz3524": 3564, "mz3525": 3565, "mz3526": 3566, "mz3527": 3567, "mz3528": 3568, "mz3529": 3569, "mz3530": 3570, "mz3531": 3571, "mz3532": 3572, "mz3533": 3573, "mz3534": 3574, "mz3535": 3575, "mz3536": 3576, "mz3537": 3577, "mz3538": 3578, "mz3539": 3579, "mz3540": 3580, "mz3541": 3581, "mz3542": 3582, "mz3543": 3583, "mz3544": 3584, "mz3545": 3585, "mz3546": 3586, "mz3547": 3587, "mz3548": 3588, "mz3549": 3589, "mz3550": 3590, "mz3551": 3591, "mz3552": 3592, "mz3553": 3593, "mz3554": 3594, "mz3555": 3595, "mz3556": 3596, "mz3557": 3597, "mz3558": 3598, "mz3559": 3599, "mz3560": 3600, "mz3561": 3601, "mz3562": 3602, "mz3563": 3603, "mz3564": 3604, "mz3565": 3605, "mz3566": 3606, "mz3567": 3607, "mz3568": 3608, "mz3569": 3609, "mz3570": 3610, "mz3571": 3611, "mz3572": 3612, "mz3573": 3613, "mz3574": 3614, "mz3575": 3615, "mz3576": 3616, "mz3577": 3617, "mz3578": 3618, "mz3579": 3619, "mz3580": 3620, "mz3581": 3621, "mz3582": 3622, "mz3583": 3623, "mz3584": 3624, "mz3585": 3625, "mz3586": 3626, "mz3587": 3627, "mz3588": 3628, "mz3589": 3629, "mz3590": 3630, "mz3591": 3631, "mz3592": 3632, "mz3593": 3633, "mz3594": 3634, "mz3595": 3635, "mz3596": 3636, "mz3597": 3637, "mz3598": 3638, "mz3599": 3639, "mz3600": 3640, "mz3601": 3641, "mz3602": 3642, "mz3603": 3643, "mz3604": 3644, "mz3605": 3645, "mz3606": 3646, "mz3607": 3647, "mz3608": 3648, "mz3609": 3649, "mz3610": 3650, "mz3611": 3651, "mz3612": 3652, "mz3613": 3653, "mz3614": 3654, "mz3615": 3655, "mz3616": 3656, "mz3617": 3657, "mz3618": 3658, "mz3619": 3659, "mz3620": 3660, "mz3621": 3661, "mz3622": 3662, "mz3623": 3663, "mz3624": 3664, "mz3625": 3665, "mz3626": 3666, "mz3627": 3667, "mz3628": 3668, "mz3629": 3669, "mz3630": 3670, "mz3631": 3671, "mz3632": 3672, "mz3633": 3673, "mz3634": 3674, "mz3635": 3675, "mz3636": 3676, "mz3637": 3677, "mz3638": 3678, "mz3639": 3679, "mz3640": 3680, "mz3641": 3681, "mz3642": 3682, "mz3643": 3683, "mz3644": 3684, "mz3645": 3685, "mz3646": 3686, "mz3647": 3687, "mz3648": 3688, "mz3649": 3689, "mz3650": 3690, "mz3651": 3691, "mz3652": 3692, "mz3653": 3693, "mz3654": 3694, "mz3655": 3695, "mz3656": 3696, "mz3657": 3697, "mz3658": 3698, "mz3659": 3699, "mz3660": 3700, "mz3661": 3701, "mz3662": 3702, "mz3663": 3703, "mz3664": 3704, "mz3665": 3705, "mz3666": 3706, "mz3667": 3707, "mz3668": 3708, "mz3669": 3709, "mz3670": 3710, "mz3671": 3711, "mz3672": 3712, "mz3673": 3713, "mz3674": 3714, "mz3675": 3715, "mz3676": 3716, "mz3677": 3717, "mz3678": 3718, "mz3679": 3719, "mz3680": 3720, "mz3681": 3721, "mz3682": 3722, "mz3683": 3723, "mz3684": 3724, "mz3685": 3725, "mz3686": 3726, "mz3687": 3727, "mz3688": 3728, "mz3689": 3729, "mz3690": 3730, "mz3691": 3731, "mz3692": 3732, "mz3693": 3733, "mz3694": 3734, "mz3695": 3735, "mz3696": 3736, "mz3697": 3737, "mz3698": 3738, "mz3699": 3739, "mz3700": 3740, "mz3701": 3741, "mz3702": 3742, "mz3703": 3743, "mz3704": 3744, "mz3705": 3745, "mz3706": 3746, "mz3707": 3747, "mz3708": 3748, "mz3709": 3749, "mz3710": 3750, "mz3711": 3751, "mz3712": 3752, "mz3713": 3753, "mz3714": 3754, "mz3715": 3755, "mz3716": 3756, "mz3717": 3757, "mz3718": 3758, "mz3719": 3759, "mz3720": 3760, "mz3721": 3761, "mz3722": 3762, "mz3723": 3763, "mz3724": 3764, "mz3725": 3765, "mz3726": 3766, "mz3727": 3767, "mz3728": 3768, "mz3729": 3769, "mz3730": 3770, "mz3731": 3771, "mz3732": 3772, "mz3733": 3773, "mz3734": 3774, "mz3735": 3775, "mz3736": 3776, "mz3737": 3777, "mz3738": 3778, "mz3739": 3779, "mz3740": 3780, "mz3741": 3781, "mz3742": 3782, "mz3743": 3783, "mz3744": 3784, "mz3745": 3785, "mz3746": 3786, "mz3747": 3787, "mz3748": 3788, "mz3749": 3789, "mz3750": 3790, "mz3751": 3791, "mz3752": 3792, "mz3753": 3793, "mz3754": 3794, "mz3755": 3795, "mz3756": 3796, "mz3757": 3797, "mz3758": 3798, "mz3759": 3799, "mz3760": 3800, "mz3761": 3801, "mz3762": 3802, "mz3763": 3803, "mz3764": 3804, "mz3765": 3805, "mz3766": 3806, "mz3767": 3807, "mz3768": 3808, "mz3769": 3809, "mz3770": 3810, "mz3771": 3811, "mz3772": 3812, "mz3773": 3813, "mz3774": 3814, "mz3775": 3815, "mz3776": 3816, "mz3777": 3817, "mz3778": 3818, "mz3779": 3819, "mz3780": 3820, "mz3781": 3821, "mz3782": 3822, "mz3783": 3823, "mz3784": 3824, "mz3785": 3825, "mz3786": 3826, "mz3787": 3827, "mz3788": 3828, "mz3789": 3829, "mz3790": 3830, "mz3791": 3831, "mz3792": 3832, "mz3793": 3833, "mz3794": 3834, "mz3795": 3835, "mz3796": 3836, "mz3797": 3837, "mz3798": 3838, "mz3799": 3839, "mz3800": 3840, "mz3801": 3841, "mz3802": 3842, "mz3803": 3843, "mz3804": 3844, "mz3805": 3845, "mz3806": 3846, "mz3807": 3847, "mz3808": 3848, "mz3809": 3849, "mz3810": 3850, "mz3811": 3851, "mz3812": 3852, "mz3813": 3853, "mz3814": 3854, "mz3815": 3855, "mz3816": 3856, "mz3817": 3857, "mz3818": 3858, "mz3819": 3859, "mz3820": 3860, "mz3821": 3861, "mz3822": 3862, "mz3823": 3863, "mz3824": 3864, "mz3825": 3865, "mz3826": 3866, "mz3827": 3867, "mz3828": 3868, "mz3829": 3869, "mz3830": 3870, "mz3831": 3871, "mz3832": 3872, "mz3833": 3873, "mz3834": 3874, "mz3835": 3875, "mz3836": 3876, "mz3837": 3877, "mz3838": 3878, "mz3839": 3879, "mz3840": 3880, "mz3841": 3881, "mz3842": 3882, "mz3843": 3883, "mz3844": 3884, "mz3845": 3885, "mz3846": 3886, "mz3847": 3887, "mz3848": 3888, "mz3849": 3889, "mz3850": 3890, "mz3851": 3891, "mz3852": 3892, "mz3853": 3893, "mz3854": 3894, "mz3855": 3895, "mz3856": 3896, "mz3857": 3897, "mz3858": 3898, "mz3859": 3899, "mz3860": 3900, "mz3861": 3901, "mz3862": 3902, "mz3863": 3903, "mz3864": 3904, "mz3865": 3905, "mz3866": 3906, "mz3867": 3907, "mz3868": 3908, "mz3869": 3909, "mz3870": 3910, "mz3871": 3911, "mz3872": 3912, "mz3873": 3913, "mz3874": 3914, "mz3875": 3915, "mz3876": 3916, "mz3877": 3917, "mz3878": 3918, "mz3879": 3919, "mz3880": 3920, "mz3881": 3921, "mz3882": 3922, "mz3883": 3923, "mz3884": 3924, "mz3885": 3925, "mz3886": 3926, "mz3887": 3927, "mz3888": 3928, "mz3889": 3929, "mz3890": 3930, "mz3891": 3931, "mz3892": 3932, "mz3893": 3933, "mz3894": 3934, "mz3895": 3935, "mz3896": 3936, "mz3897": 3937, "mz3898": 3938, "mz3899": 3939, "mz3900": 3940, "mz3901": 3941, "mz3902": 3942, "mz3903": 3943, "mz3904": 3944, "mz3905": 3945, "mz3906": 3946, "mz3907": 3947, "mz3908": 3948, "mz3909": 3949, "mz3910": 3950, "mz3911": 3951, "mz3912": 3952, "mz3913": 3953, "mz3914": 3954, "mz3915": 3955, "mz3916": 3956, "mz3917": 3957, "mz3918": 3958, "mz3919": 3959, "mz3920": 3960, "mz3921": 3961, "mz3922": 3962, "mz3923": 3963, "mz3924": 3964, "mz3925": 3965, "mz3926": 3966, "mz3927": 3967, "mz3928": 3968, "mz3929": 3969, "mz3930": 3970, "mz3931": 3971, "mz3932": 3972, "mz3933": 3973, "mz3934": 3974, "mz3935": 3975, "mz3936": 3976, "mz3937": 3977, "mz3938": 3978, "mz3939": 3979, "mz3940": 3980, "mz3941": 3981, "mz3942": 3982, "mz3943": 3983, "mz3944": 3984, "mz3945": 3985, "mz3946": 3986, "mz3947": 3987, "mz3948": 3988, "mz3949": 3989, "mz3950": 3990, "mz3951": 3991, "mz3952": 3992, "mz3953": 3993, "mz3954": 3994, "mz3955": 3995, "mz3956": 3996, "mz3957": 3997, "mz3958": 3998, "mz3959": 3999, "mz3960": 4000, "mz3961": 4001, "mz3962": 4002, "mz3963": 4003, "mz3964": 4004, "mz3965": 4005, "mz3966": 4006, "mz3967": 4007, "mz3968": 4008, "mz3969": 4009, "mz3970": 4010, "mz3971": 4011, "mz3972": 4012, "mz3973": 4013, "mz3974": 4014, "mz3975": 4015, "mz3976": 4016, "mz3977": 4017, "mz3978": 4018, "mz3979": 4019, "mz3980": 4020, "mz3981": 4021, "mz3982": 4022, "mz3983": 4023, "mz3984": 4024, "mz3985": 4025, "mz3986": 4026, "mz3987": 4027, "mz3988": 4028, "mz3989": 4029, "mz3990": 4030, "mz3991": 4031, "mz3992": 4032, "mz3993": 4033, "mz3994": 4034, "mz3995": 4035, "mz3996": 4036, "mz3997": 4037, "mz3998": 4038, "mz3999": 4039, "mz4000": 4040, "mz4001": 4041, "mz4002": 4042, "mz4003": 4043, "mz4004": 4044, "mz4005": 4045, "mz4006": 4046, "mz4007": 4047, "mz4008": 4048, "mz4009": 4049, "mz4010": 4050, "mz4011": 4051, "mz4012": 4052, "mz4013": 4053, "mz4014": 4054, "mz4015": 4055, "mz4016": 4056, "mz4017": 4057, "mz4018": 4058, "mz4019": 4059, "mz4020": 4060, "mz4021": 4061, "mz4022": 4062, "mz4023": 4063, "mz4024": 4064, "mz4025": 4065, "mz4026": 4066, "mz4027": 4067, "mz4028": 4068, "mz4029": 4069, "mz4030": 4070, "mz4031": 4071, "mz4032": 4072, "mz4033": 4073, "mz4034": 4074, "mz4035": 4075, "mz4036": 4076, "mz4037": 4077, "mz4038": 4078, "mz4039": 4079, "mz4040": 4080, "mz4041": 4081, "mz4042": 4082, "mz4043": 4083, "mz4044": 4084, "mz4045": 4085, "mz4046": 4086, "mz4047": 4087, "mz4048": 4088, "mz4049": 4089, "mz4050": 4090, "mz4051": 4091, "mz4052": 4092, "mz4053": 4093, "mz4054": 4094, "mz4055": 4095, "mz4056": 4096, "mz4057": 4097, "mz4058": 4098, "mz4059": 4099, "mz4060": 4100, "mz4061": 4101, "mz4062": 4102, "mz4063": 4103, "mz4064": 4104, "mz4065": 4105, "mz4066": 4106, "mz4067": 4107, "mz4068": 4108, "mz4069": 4109, "mz4070": 4110, "mz4071": 4111, "mz4072": 4112, "mz4073": 4113, "mz4074": 4114, "mz4075": 4115, "mz4076": 4116, "mz4077": 4117, "mz4078": 4118, "mz4079": 4119, "mz4080": 4120, "mz4081": 4121, "mz4082": 4122, "mz4083": 4123, "mz4084": 4124, "mz4085": 4125, "mz4086": 4126, "mz4087": 4127, "mz4088": 4128, "mz4089": 4129, "mz4090": 4130, "mz4091": 4131, "mz4092": 4132, "mz4093": 4133, "mz4094": 4134, "mz4095": 4135, "mz4096": 4136, "mz4097": 4137, "mz4098": 4138, "mz4099": 4139, "mz4100": 4140, "mz4101": 4141, "mz4102": 4142, "mz4103": 4143, "mz4104": 4144, "mz4105": 4145, "mz4106": 4146, "mz4107": 4147, "mz4108": 4148, "mz4109": 4149, "mz4110": 4150, "mz4111": 4151, "mz4112": 4152, "mz4113": 4153, "mz4114": 4154, "mz4115": 4155, "mz4116": 4156, "mz4117": 4157, "mz4118": 4158, "mz4119": 4159, "mz4120": 4160, "mz4121": 4161, "mz4122": 4162, "mz4123": 4163, "mz4124": 4164, "mz4125": 4165, "mz4126": 4166, "mz4127": 4167, "mz4128": 4168, "mz4129": 4169, "mz4130": 4170, "mz4131": 4171, "mz4132": 4172, "mz4133": 4173, "mz4134": 4174, "mz4135": 4175, "mz4136": 4176, "mz4137": 4177, "mz4138": 4178, "mz4139": 4179, "mz4140": 4180, "mz4141": 4181, "mz4142": 4182, "mz4143": 4183, "mz4144": 4184, "mz4145": 4185, "mz4146": 4186, "mz4147": 4187, "mz4148": 4188, "mz4149": 4189, "mz4150": 4190, "mz4151": 4191, "mz4152": 4192, "mz4153": 4193, "mz4154": 4194, "mz4155": 4195, "mz4156": 4196, "mz4157": 4197, "mz4158": 4198, "mz4159": 4199, "mz4160": 4200, "mz4161": 4201, "mz4162": 4202, "mz4163": 4203, "mz4164": 4204, "mz4165": 4205, "mz4166": 4206, "mz4167": 4207, "mz4168": 4208, "mz4169": 4209, "mz4170": 4210, "mz4171": 4211, "mz4172": 4212, "mz4173": 4213, "mz4174": 4214, "mz4175": 4215, "mz4176": 4216, "mz4177": 4217, "mz4178": 4218, "mz4179": 4219, "mz4180": 4220, "mz4181": 4221, "mz4182": 4222, "mz4183": 4223, "mz4184": 4224, "mz4185": 4225, "mz4186": 4226, "mz4187": 4227, "mz4188": 4228, "mz4189": 4229, "mz4190": 4230, "mz4191": 4231, "mz4192": 4232, "mz4193": 4233, "mz4194": 4234, "mz4195": 4235, "mz4196": 4236, "mz4197": 4237, "mz4198": 4238, "mz4199": 4239, "mz4200": 4240, "mz4201": 4241, "mz4202": 4242, "mz4203": 4243, "mz4204": 4244, "mz4205": 4245, "mz4206": 4246, "mz4207": 4247, "mz4208": 4248, "mz4209": 4249, "mz4210": 4250, "mz4211": 4251, "mz4212": 4252, "mz4213": 4253, "mz4214": 4254, "mz4215": 4255, "mz4216": 4256, "mz4217": 4257, "mz4218": 4258, "mz4219": 4259, "mz4220": 4260, "mz4221": 4261, "mz4222": 4262, "mz4223": 4263, "mz4224": 4264, "mz4225": 4265, "mz4226": 4266, "mz4227": 4267, "mz4228": 4268, "mz4229": 4269, "mz4230": 4270, "mz4231": 4271, "mz4232": 4272, "mz4233": 4273, "mz4234": 4274, "mz4235": 4275, "mz4236": 4276, "mz4237": 4277, "mz4238": 4278, "mz4239": 4279, "mz4240": 4280, "mz4241": 4281, "mz4242": 4282, "mz4243": 4283, "mz4244": 4284, "mz4245": 4285, "mz4246": 4286, "mz4247": 4287, "mz4248": 4288, "mz4249": 4289, "mz4250": 4290, "mz4251": 4291, "mz4252": 4292, "mz4253": 4293, "mz4254": 4294, "mz4255": 4295, "mz4256": 4296, "mz4257": 4297, "mz4258": 4298, "mz4259": 4299, "mz4260": 4300, "mz4261": 4301, "mz4262": 4302, "mz4263": 4303, "mz4264": 4304, "mz4265": 4305, "mz4266": 4306, "mz4267": 4307, "mz4268": 4308, "mz4269": 4309, "mz4270": 4310, "mz4271": 4311, "mz4272": 4312, "mz4273": 4313, "mz4274": 4314, "mz4275": 4315, "mz4276": 4316, "mz4277": 4317, "mz4278": 4318, "mz4279": 4319, "mz4280": 4320, "mz4281": 4321, "mz4282": 4322, "mz4283": 4323, "mz4284": 4324, "mz4285": 4325, "mz4286": 4326, "mz4287": 4327, "mz4288": 4328, "mz4289": 4329, "mz4290": 4330, "mz4291": 4331, "mz4292": 4332, "mz4293": 4333, "mz4294": 4334, "mz4295": 4335, "mz4296": 4336, "mz4297": 4337, "mz4298": 4338, "mz4299": 4339, "mz4300": 4340, "mz4301": 4341, "mz4302": 4342, "mz4303": 4343, "mz4304": 4344, "mz4305": 4345, "mz4306": 4346, "mz4307": 4347, "mz4308": 4348, "mz4309": 4349, "mz4310": 4350, "mz4311": 4351, "mz4312": 4352, "mz4313": 4353, "mz4314": 4354, "mz4315": 4355, "mz4316": 4356, "mz4317": 4357, "mz4318": 4358, "mz4319": 4359, "mz4320": 4360, "mz4321": 4361, "mz4322": 4362, "mz4323": 4363, "mz4324": 4364, "mz4325": 4365, "mz4326": 4366, "mz4327": 4367, "mz4328": 4368, "mz4329": 4369, "mz4330": 4370, "mz4331": 4371, "mz4332": 4372, "mz4333": 4373, "mz4334": 4374, "mz4335": 4375, "mz4336": 4376, "mz4337": 4377, "mz4338": 4378, "mz4339": 4379, "mz4340": 4380, "mz4341": 4381, "mz4342": 4382, "mz4343": 4383, "mz4344": 4384, "mz4345": 4385, "mz4346": 4386, "mz4347": 4387, "mz4348": 4388, "mz4349": 4389, "mz4350": 4390, "mz4351": 4391, "mz4352": 4392, "mz4353": 4393, "mz4354": 4394, "mz4355": 4395, "mz4356": 4396, "mz4357": 4397, "mz4358": 4398, "mz4359": 4399, "mz4360": 4400, "mz4361": 4401, "mz4362": 4402, "mz4363": 4403, "mz4364": 4404, "mz4365": 4405, "mz4366": 4406, "mz4367": 4407, "mz4368": 4408, "mz4369": 4409, "mz4370": 4410, "mz4371": 4411, "mz4372": 4412, "mz4373": 4413, "mz4374": 4414, "mz4375": 4415, "mz4376": 4416, "mz4377": 4417, "mz4378": 4418, "mz4379": 4419, "mz4380": 4420, "mz4381": 4421, "mz4382": 4422, "mz4383": 4423, "mz4384": 4424, "mz4385": 4425, "mz4386": 4426, "mz4387": 4427, "mz4388": 4428, "mz4389": 4429, "mz4390": 4430, "mz4391": 4431, "mz4392": 4432, "mz4393": 4433, "mz4394": 4434, "mz4395": 4435, "mz4396": 4436, "mz4397": 4437, "mz4398": 4438, "mz4399": 4439, "mz4400": 4440, "mz4401": 4441, "mz4402": 4442, "mz4403": 4443, "mz4404": 4444, "mz4405": 4445, "mz4406": 4446, "mz4407": 4447, "mz4408": 4448, "mz4409": 4449, "mz4410": 4450, "mz4411": 4451, "mz4412": 4452, "mz4413": 4453, "mz4414": 4454, "mz4415": 4455, "mz4416": 4456, "mz4417": 4457, "mz4418": 4458, "mz4419": 4459, "mz4420": 4460, "mz4421": 4461, "mz4422": 4462, "mz4423": 4463, "mz4424": 4464, "mz4425": 4465, "mz4426": 4466, "mz4427": 4467, "mz4428": 4468, "mz4429": 4469, "mz4430": 4470, "mz4431": 4471, "mz4432": 4472, "mz4433": 4473, "mz4434": 4474, "mz4435": 4475, "mz4436": 4476, "mz4437": 4477, "mz4438": 4478, "mz4439": 4479, "mz4440": 4480, "mz4441": 4481, "mz4442": 4482, "mz4443": 4483, "mz4444": 4484, "mz4445": 4485, "mz4446": 4486, "mz4447": 4487, "mz4448": 4488, "mz4449": 4489, "mz4450": 4490, "mz4451": 4491, "mz4452": 4492, "mz4453": 4493, "mz4454": 4494, "mz4455": 4495, "mz4456": 4496, "mz4457": 4497, "mz4458": 4498, "mz4459": 4499, "mz4460": 4500, "mz4461": 4501, "mz4462": 4502, "mz4463": 4503, "mz4464": 4504, "mz4465": 4505, "mz4466": 4506, "mz4467": 4507, "mz4468": 4508, "mz4469": 4509, "mz4470": 4510, "mz4471": 4511, "mz4472": 4512, "mz4473": 4513, "mz4474": 4514, "mz4475": 4515, "mz4476": 4516, "mz4477": 4517, "mz4478": 4518, "mz4479": 4519, "mz4480": 4520, "mz4481": 4521, "mz4482": 4522, "mz4483": 4523, "mz4484": 4524, "mz4485": 4525, "mz4486": 4526, "mz4487": 4527, "mz4488": 4528, "mz4489": 4529, "mz4490": 4530, "mz4491": 4531, "mz4492": 4532, "mz4493": 4533, "mz4494": 4534, "mz4495": 4535, "mz4496": 4536, "mz4497": 4537, "mz4498": 4538, "mz4499": 4539, "mz4500": 4540, "mz4501": 4541, "mz4502": 4542, "mz4503": 4543, "mz4504": 4544, "mz4505": 4545, "mz4506": 4546, "mz4507": 4547, "mz4508": 4548, "mz4509": 4549, "mz4510": 4550, "mz4511": 4551, "mz4512": 4552, "mz4513": 4553, "mz4514": 4554, "mz4515": 4555, "mz4516": 4556, "mz4517": 4557, "mz4518": 4558, "mz4519": 4559, "mz4520": 4560, "mz4521": 4561, "mz4522": 4562, "mz4523": 4563, "mz4524": 4564, "mz4525": 4565, "mz4526": 4566, "mz4527": 4567, "mz4528": 4568, "mz4529": 4569, "mz4530": 4570, "mz4531": 4571, "mz4532": 4572, "mz4533": 4573, "mz4534": 4574, "mz4535": 4575, "mz4536": 4576, "mz4537": 4577, "mz4538": 4578, "mz4539": 4579, "mz4540": 4580, "mz4541": 4581, "mz4542": 4582, "mz4543": 4583, "mz4544": 4584, "mz4545": 4585, "mz4546": 4586, "mz4547": 4587, "mz4548": 4588, "mz4549": 4589, "mz4550": 4590, "mz4551": 4591, "mz4552": 4592, "mz4553": 4593, "mz4554": 4594, "mz4555": 4595, "mz4556": 4596, "mz4557": 4597, "mz4558": 4598, "mz4559": 4599, "mz4560": 4600, "mz4561": 4601, "mz4562": 4602, "mz4563": 4603, "mz4564": 4604, "mz4565": 4605, "mz4566": 4606, "mz4567": 4607, "mz4568": 4608, "mz4569": 4609, "mz4570": 4610, "mz4571": 4611, "mz4572": 4612, "mz4573": 4613, "mz4574": 4614, "mz4575": 4615, "mz4576": 4616, "mz4577": 4617, "mz4578": 4618, "mz4579": 4619, "mz4580": 4620, "mz4581": 4621, "mz4582": 4622, "mz4583": 4623, "mz4584": 4624, "mz4585": 4625, "mz4586": 4626, "mz4587": 4627, "mz4588": 4628, "mz4589": 4629, "mz4590": 4630, "mz4591": 4631, "mz4592": 4632, "mz4593": 4633, "mz4594": 4634, "mz4595": 4635, "mz4596": 4636, "mz4597": 4637, "mz4598": 4638, "mz4599": 4639, "mz4600": 4640, "mz4601": 4641, "mz4602": 4642, "mz4603": 4643, "mz4604": 4644, "mz4605": 4645, "mz4606": 4646, "mz4607": 4647, "mz4608": 4648, "mz4609": 4649, "mz4610": 4650, "mz4611": 4651, "mz4612": 4652, "mz4613": 4653, "mz4614": 4654, "mz4615": 4655, "mz4616": 4656, "mz4617": 4657, "mz4618": 4658, "mz4619": 4659, "mz4620": 4660, "mz4621": 4661, "mz4622": 4662, "mz4623": 4663, "mz4624": 4664, "mz4625": 4665, "mz4626": 4666, "mz4627": 4667, "mz4628": 4668, "mz4629": 4669, "mz4630": 4670, "mz4631": 4671, "mz4632": 4672, "mz4633": 4673, "mz4634": 4674, "mz4635": 4675, "mz4636": 4676, "mz4637": 4677, "mz4638": 4678, "mz4639": 4679, "mz4640": 4680, "mz4641": 4681, "mz4642": 4682, "mz4643": 4683, "mz4644": 4684, "mz4645": 4685, "mz4646": 4686, "mz4647": 4687, "mz4648": 4688, "mz4649": 4689, "mz4650": 4690, "mz4651": 4691, "mz4652": 4692, "mz4653": 4693, "mz4654": 4694, "mz4655": 4695, "mz4656": 4696, "mz4657": 4697, "mz4658": 4698, "mz4659": 4699, "mz4660": 4700, "mz4661": 4701, "mz4662": 4702, "mz4663": 4703, "mz4664": 4704, "mz4665": 4705, "mz4666": 4706, "mz4667": 4707, "mz4668": 4708, "mz4669": 4709, "mz4670": 4710, "mz4671": 4711, "mz4672": 4712, "mz4673": 4713, "mz4674": 4714, "mz4675": 4715, "mz4676": 4716, "mz4677": 4717, "mz4678": 4718, "mz4679": 4719, "mz4680": 4720, "mz4681": 4721, "mz4682": 4722, "mz4683": 4723, "mz4684": 4724, "mz4685": 4725, "mz4686": 4726, "mz4687": 4727, "mz4688": 4728, "mz4689": 4729, "mz4690": 4730, "mz4691": 4731, "mz4692": 4732, "mz4693": 4733, "mz4694": 4734, "mz4695": 4735, "mz4696": 4736, "mz4697": 4737, "mz4698": 4738, "mz4699": 4739, "mz4700": 4740, "mz4701": 4741, "mz4702": 4742, "mz4703": 4743, "mz4704": 4744, "mz4705": 4745, "mz4706": 4746, "mz4707": 4747, "mz4708": 4748, "mz4709": 4749, "mz4710": 4750, "mz4711": 4751, "mz4712": 4752, "mz4713": 4753, "mz4714": 4754, "mz4715": 4755, "mz4716": 4756, "mz4717": 4757, "mz4718": 4758, "mz4719": 4759, "mz4720": 4760, "mz4721": 4761, "mz4722": 4762, "mz4723": 4763, "mz4724": 4764, "mz4725": 4765, "mz4726": 4766, "mz4727": 4767, "mz4728": 4768, "mz4729": 4769, "mz4730": 4770, "mz4731": 4771, "mz4732": 4772, "mz4733": 4773, "mz4734": 4774, "mz4735": 4775, "mz4736": 4776, "mz4737": 4777, "mz4738": 4778, "mz4739": 4779, "mz4740": 4780, "mz4741": 4781, "mz4742": 4782, "mz4743": 4783, "mz4744": 4784, "mz4745": 4785, "mz4746": 4786, "mz4747": 4787, "mz4748": 4788, "mz4749": 4789, "mz4750": 4790, "mz4751": 4791, "mz4752": 4792, "mz4753": 4793, "mz4754": 4794, "mz4755": 4795, "mz4756": 4796, "mz4757": 4797, "mz4758": 4798, "mz4759": 4799, "mz4760": 4800, "mz4761": 4801, "mz4762": 4802, "mz4763": 4803, "mz4764": 4804, "mz4765": 4805, "mz4766": 4806, "mz4767": 4807, "mz4768": 4808, "mz4769": 4809, "mz4770": 4810, "mz4771": 4811, "mz4772": 4812, "mz4773": 4813, "mz4774": 4814, "mz4775": 4815, "mz4776": 4816, "mz4777": 4817, "mz4778": 4818, "mz4779": 4819, "mz4780": 4820, "mz4781": 4821, "mz4782": 4822, "mz4783": 4823, "mz4784": 4824, "mz4785": 4825, "mz4786": 4826, "mz4787": 4827, "mz4788": 4828, "mz4789": 4829, "mz4790": 4830, "mz4791": 4831, "mz4792": 4832, "mz4793": 4833, "mz4794": 4834, "mz4795": 4835, "mz4796": 4836, "mz4797": 4837, "mz4798": 4838, "mz4799": 4839, "mz4800": 4840, "mz4801": 4841, "mz4802": 4842, "mz4803": 4843, "mz4804": 4844, "mz4805": 4845, "mz4806": 4846, "mz4807": 4847, "mz4808": 4848, "mz4809": 4849, "mz4810": 4850, "mz4811": 4851, "mz4812": 4852, "mz4813": 4853, "mz4814": 4854, "mz4815": 4855, "mz4816": 4856, "mz4817": 4857, "mz4818": 4858, "mz4819": 4859, "mz4820": 4860, "mz4821": 4861, "mz4822": 4862, "mz4823": 4863, "mz4824": 4864, "mz4825": 4865, "mz4826": 4866, "mz4827": 4867, "mz4828": 4868, "mz4829": 4869, "mz4830": 4870, "mz4831": 4871, "mz4832": 4872, "mz4833": 4873, "mz4834": 4874, "mz4835": 4875, "mz4836": 4876, "mz4837": 4877, "mz4838": 4878, "mz4839": 4879, "mz4840": 4880, "mz4841": 4881, "mz4842": 4882, "mz4843": 4883, "mz4844": 4884, "mz4845": 4885, "mz4846": 4886, "mz4847": 4887, "mz4848": 4888, "mz4849": 4889, "mz4850": 4890, "mz4851": 4891, "mz4852": 4892, "mz4853": 4893, "mz4854": 4894, "mz4855": 4895, "mz4856": 4896, "mz4857": 4897, "mz4858": 4898, "mz4859": 4899, "mz4860": 4900, "mz4861": 4901, "mz4862": 4902, "mz4863": 4903, "mz4864": 4904, "mz4865": 4905, "mz4866": 4906, "mz4867": 4907, "mz4868": 4908, "mz4869": 4909, "mz4870": 4910, "mz4871": 4911, "mz4872": 4912, "mz4873": 4913, "mz4874": 4914, "mz4875": 4915, "mz4876": 4916, "mz4877": 4917, "mz4878": 4918, "mz4879": 4919, "mz4880": 4920, "mz4881": 4921, "mz4882": 4922, "mz4883": 4923, "mz4884": 4924, "mz4885": 4925, "mz4886": 4926, "mz4887": 4927, "mz4888": 4928, "mz4889": 4929, "mz4890": 4930, "mz4891": 4931, "mz4892": 4932, "mz4893": 4933, "mz4894": 4934, "mz4895": 4935, "mz4896": 4936, "mz4897": 4937, "mz4898": 4938, "mz4899": 4939, "mz4900": 4940, "mz4901": 4941, "mz4902": 4942, "mz4903": 4943, "mz4904": 4944, "mz4905": 4945, "mz4906": 4946, "mz4907": 4947, "mz4908": 4948, "mz4909": 4949, "mz4910": 4950, "mz4911": 4951, "mz4912": 4952, "mz4913": 4953, "mz4914": 4954, "mz4915": 4955, "mz4916": 4956, "mz4917": 4957, "mz4918": 4958, "mz4919": 4959, "mz4920": 4960, "mz4921": 4961, "mz4922": 4962, "mz4923": 4963, "mz4924": 4964, "mz4925": 4965, "mz4926": 4966, "mz4927": 4967, "mz4928": 4968, "mz4929": 4969, "mz4930": 4970, "mz4931": 4971, "mz4932": 4972, "mz4933": 4973, "mz4934": 4974, "mz4935": 4975, "mz4936": 4976, "mz4937": 4977, "mz4938": 4978, "mz4939": 4979, "mz4940": 4980, "mz4941": 4981, "mz4942": 4982, "mz4943": 4983, "mz4944": 4984, "mz4945": 4985, "mz4946": 4986, "mz4947": 4987, "mz4948": 4988, "mz4949": 4989, "mz4950": 4990, "mz4951": 4991, "mz4952": 4992, "mz4953": 4993, "mz4954": 4994, "mz4955": 4995, "mz4956": 4996, "mz4957": 4997, "mz4958": 4998, "mz4959": 4999, "mz4960": 5000, "mz4961": 5001, "mz4962": 5002, "mz4963": 5003, "mz4964": 5004, "mz4965": 5005, "mz4966": 5006, "mz4967": 5007, "mz4968": 5008, "mz4969": 5009, "mz4970": 5010, "mz4971": 5011, "mz4972": 5012, "mz4973": 5013, "mz4974": 5014, "mz4975": 5015, "mz4976": 5016, "mz4977": 5017, "mz4978": 5018, "mz4979": 5019, "mz4980": 5020, "mz4981": 5021, "mz4982": 5022, "mz4983": 5023, "mz4984": 5024, "mz4985": 5025, "mz4986": 5026, "mz4987": 5027, "mz4988": 5028, "mz4989": 5029, "mz4990": 5030, "mz4991": 5031, "mz4992": 5032, "mz4993": 5033, "mz4994": 5034, "mz4995": 5035, "mz4996": 5036, "mz4997": 5037, "mz4998": 5038, "mz4999": 5039, "mz5000": 5040, "mz5001": 5041, "mz5002": 5042, "mz5003": 5043, "mz5004": 5044, "mz5005": 5045, "mz5006": 5046, "mz5007": 5047, "mz5008": 5048, "mz5009": 5049, "mz5010": 5050, "mz5011": 5051, "mz5012": 5052, "mz5013": 5053, "mz5014": 5054, "mz5015": 5055, "mz5016": 5056, "mz5017": 5057, "mz5018": 5058, "mz5019": 5059, "mz5020": 5060, "mz5021": 5061, "mz5022": 5062, "mz5023": 5063, "mz5024": 5064, "mz5025": 5065, "mz5026": 5066, "mz5027": 5067, "mz5028": 5068, "mz5029": 5069, "mz5030": 5070, "mz5031": 5071, "mz5032": 5072, "mz5033": 5073, "mz5034": 5074, "mz5035": 5075, "mz5036": 5076, "mz5037": 5077, "mz5038": 5078, "mz5039": 5079, "mz5040": 5080, "mz5041": 5081, "mz5042": 5082, "mz5043": 5083, "mz5044": 5084, "mz5045": 5085, "mz5046": 5086, "mz5047": 5087, "mz5048": 5088, "mz5049": 5089, "mz5050": 5090, "mz5051": 5091, "mz5052": 5092, "mz5053": 5093, "mz5054": 5094, "mz5055": 5095, "mz5056": 5096, "mz5057": 5097, "mz5058": 5098, "mz5059": 5099, "mz5060": 5100, "mz5061": 5101, "mz5062": 5102, "mz5063": 5103, "mz5064": 5104, "mz5065": 5105, "mz5066": 5106, "mz5067": 5107, "mz5068": 5108, "mz5069": 5109, "mz5070": 5110, "mz5071": 5111, "mz5072": 5112, "mz5073": 5113, "mz5074": 5114, "mz5075": 5115, "mz5076": 5116, "mz5077": 5117, "mz5078": 5118, "mz5079": 5119, "mz5080": 5120, "mz5081": 5121, "mz5082": 5122, "mz5083": 5123, "mz5084": 5124, "mz5085": 5125, "mz5086": 5126, "mz5087": 5127, "mz5088": 5128, "mz5089": 5129, "mz5090": 5130, "mz5091": 5131, "mz5092": 5132, "mz5093": 5133, "mz5094": 5134, "mz5095": 5135, "mz5096": 5136, "mz5097": 5137, "mz5098": 5138, "mz5099": 5139, "mz5100": 5140, "mz5101": 5141, "mz5102": 5142, "mz5103": 5143, "mz5104": 5144, "mz5105": 5145, "mz5106": 5146, "mz5107": 5147, "mz5108": 5148, "mz5109": 5149, "mz5110": 5150, "mz5111": 5151, "mz5112": 5152, "mz5113": 5153, "mz5114": 5154, "mz5115": 5155, "mz5116": 5156, "mz5117": 5157, "mz5118": 5158, "mz5119": 5159, "mz5120": 5160, "mz5121": 5161, "mz5122": 5162, "mz5123": 5163, "mz5124": 5164, "mz5125": 5165, "mz5126": 5166, "mz5127": 5167, "mz5128": 5168, "mz5129": 5169, "mz5130": 5170, "mz5131": 5171, "mz5132": 5172, "mz5133": 5173, "mz5134": 5174, "mz5135": 5175, "mz5136": 5176, "mz5137": 5177, "mz5138": 5178, "mz5139": 5179, "mz5140": 5180, "mz5141": 5181, "mz5142": 5182, "mz5143": 5183, "mz5144": 5184, "mz5145": 5185, "mz5146": 5186, "mz5147": 5187, "mz5148": 5188, "mz5149": 5189, "mz5150": 5190, "mz5151": 5191, "mz5152": 5192, "mz5153": 5193, "mz5154": 5194, "mz5155": 5195, "mz5156": 5196, "mz5157": 5197, "mz5158": 5198, "mz5159": 5199, "mz5160": 5200, "mz5161": 5201, "mz5162": 5202, "mz5163": 5203, "mz5164": 5204, "mz5165": 5205, "mz5166": 5206, "mz5167": 5207, "mz5168": 5208, "mz5169": 5209, "mz5170": 5210, "mz5171": 5211, "mz5172": 5212, "mz5173": 5213, "mz5174": 5214, "mz5175": 5215, "mz5176": 5216, "mz5177": 5217, "mz5178": 5218, "mz5179": 5219, "mz5180": 5220, "mz5181": 5221, "mz5182": 5222, "mz5183": 5223, "mz5184": 5224, "mz5185": 5225, "mz5186": 5226, "mz5187": 5227, "mz5188": 5228, "mz5189": 5229, "mz5190": 5230, "mz5191": 5231, "mz5192": 5232, "mz5193": 5233, "mz5194": 5234, "mz5195": 5235, "mz5196": 5236, "mz5197": 5237, "mz5198": 5238, "mz5199": 5239, "mz5200": 5240, "mz5201": 5241, "mz5202": 5242, "mz5203": 5243, "mz5204": 5244, "mz5205": 5245, "mz5206": 5246, "mz5207": 5247, "mz5208": 5248, "mz5209": 5249, "mz5210": 5250, "mz5211": 5251, "mz5212": 5252, "mz5213": 5253, "mz5214": 5254, "mz5215": 5255, "mz5216": 5256, "mz5217": 5257, "mz5218": 5258, "mz5219": 5259, "mz5220": 5260, "mz5221": 5261, "mz5222": 5262, "mz5223": 5263, "mz5224": 5264, "mz5225": 5265, "mz5226": 5266, "mz5227": 5267, "mz5228": 5268, "mz5229": 5269, "mz5230": 5270, "mz5231": 5271, "mz5232": 5272, "mz5233": 5273, "mz5234": 5274, "mz5235": 5275, "mz5236": 5276, "mz5237": 5277, "mz5238": 5278, "mz5239": 5279, "mz5240": 5280, "mz5241": 5281, "mz5242": 5282, "mz5243": 5283, "mz5244": 5284, "mz5245": 5285, "mz5246": 5286, "mz5247": 5287, "mz5248": 5288, "mz5249": 5289, "mz5250": 5290, "mz5251": 5291, "mz5252": 5292, "mz5253": 5293, "mz5254": 5294, "mz5255": 5295, "mz5256": 5296, "mz5257": 5297, "mz5258": 5298, "mz5259": 5299, "mz5260": 5300, "mz5261": 5301, "mz5262": 5302, "mz5263": 5303, "mz5264": 5304, "mz5265": 5305, "mz5266": 5306, "mz5267": 5307, "mz5268": 5308, "mz5269": 5309, "mz5270": 5310, "mz5271": 5311, "mz5272": 5312, "mz5273": 5313, "mz5274": 5314, "mz5275": 5315, "mz5276": 5316, "mz5277": 5317, "mz5278": 5318, "mz5279": 5319, "mz5280": 5320, "mz5281": 5321, "mz5282": 5322, "mz5283": 5323, "mz5284": 5324, "mz5285": 5325, "mz5286": 5326, "mz5287": 5327, "mz5288": 5328, "mz5289": 5329, "mz5290": 5330, "mz5291": 5331, "mz5292": 5332, "mz5293": 5333, "mz5294": 5334, "mz5295": 5335, "mz5296": 5336, "mz5297": 5337, "mz5298": 5338, "mz5299": 5339, "mz5300": 5340, "mz5301": 5341, "mz5302": 5342, "mz5303": 5343, "mz5304": 5344, "mz5305": 5345, "mz5306": 5346, "mz5307": 5347, "mz5308": 5348, "mz5309": 5349, "mz5310": 5350, "mz5311": 5351, "mz5312": 5352, "mz5313": 5353, "mz5314": 5354, "mz5315": 5355, "mz5316": 5356, "mz5317": 5357, "mz5318": 5358, "mz5319": 5359, "mz5320": 5360, "mz5321": 5361, "mz5322": 5362, "mz5323": 5363, "mz5324": 5364, "mz5325": 5365, "mz5326": 5366, "mz5327": 5367, "mz5328": 5368, "mz5329": 5369, "mz5330": 5370, "mz5331": 5371, "mz5332": 5372, "mz5333": 5373, "mz5334": 5374, "mz5335": 5375, "mz5336": 5376, "mz5337": 5377, "mz5338": 5378, "mz5339": 5379, "mz5340": 5380, "mz5341": 5381, "mz5342": 5382, "mz5343": 5383, "mz5344": 5384, "mz5345": 5385, "mz5346": 5386, "mz5347": 5387, "mz5348": 5388, "mz5349": 5389, "mz5350": 5390, "mz5351": 5391, "mz5352": 5392, "mz5353": 5393, "mz5354": 5394, "mz5355": 5395, "mz5356": 5396, "mz5357": 5397, "mz5358": 5398, "mz5359": 5399, "mz5360": 5400, "mz5361": 5401, "mz5362": 5402, "mz5363": 5403, "mz5364": 5404, "mz5365": 5405, "mz5366": 5406, "mz5367": 5407, "mz5368": 5408, "mz5369": 5409, "mz5370": 5410, "mz5371": 5411, "mz5372": 5412, "mz5373": 5413, "mz5374": 5414, "mz5375": 5415, "mz5376": 5416, "mz5377": 5417, "mz5378": 5418, "mz5379": 5419, "mz5380": 5420, "mz5381": 5421, "mz5382": 5422, "mz5383": 5423, "mz5384": 5424, "mz5385": 5425, "mz5386": 5426, "mz5387": 5427, "mz5388": 5428, "mz5389": 5429, "mz5390": 5430, "mz5391": 5431, "mz5392": 5432, "mz5393": 5433, "mz5394": 5434, "mz5395": 5435, "mz5396": 5436, "mz5397": 5437, "mz5398": 5438, "mz5399": 5439, "mz5400": 5440, "mz5401": 5441, "mz5402": 5442, "mz5403": 5443, "mz5404": 5444, "mz5405": 5445, "mz5406": 5446, "mz5407": 5447, "mz5408": 5448, "mz5409": 5449, "mz5410": 5450, "mz5411": 5451, "mz5412": 5452, "mz5413": 5453, "mz5414": 5454, "mz5415": 5455, "mz5416": 5456, "mz5417": 5457, "mz5418": 5458, "mz5419": 5459, "mz5420": 5460, "mz5421": 5461, "mz5422": 5462, "mz5423": 5463, "mz5424": 5464, "mz5425": 5465, "mz5426": 5466, "mz5427": 5467, "mz5428": 5468, "mz5429": 5469, "mz5430": 5470, "mz5431": 5471, "mz5432": 5472, "mz5433": 5473, "mz5434": 5474, "mz5435": 5475, "mz5436": 5476, "mz5437": 5477, "mz5438": 5478, "mz5439": 5479, "mz5440": 5480, "mz5441": 5481, "mz5442": 5482, "mz5443": 5483, "mz5444": 5484, "mz5445": 5485, "mz5446": 5486, "mz5447": 5487, "mz5448": 5488, "mz5449": 5489, "mz5450": 5490, "mz5451": 5491, "mz5452": 5492, "mz5453": 5493, "mz5454": 5494, "mz5455": 5495, "mz5456": 5496, "mz5457": 5497, "mz5458": 5498, "mz5459": 5499, "mz5460": 5500, "mz5461": 5501, "mz5462": 5502, "mz5463": 5503, "mz5464": 5504, "mz5465": 5505, "mz5466": 5506, "mz5467": 5507, "mz5468": 5508, "mz5469": 5509, "mz5470": 5510, "mz5471": 5511, "mz5472": 5512, "mz5473": 5513, "mz5474": 5514, "mz5475": 5515, "mz5476": 5516, "mz5477": 5517, "mz5478": 5518, "mz5479": 5519, "mz5480": 5520, "mz5481": 5521, "mz5482": 5522, "mz5483": 5523, "mz5484": 5524, "mz5485": 5525, "mz5486": 5526, "mz5487": 5527, "mz5488": 5528, "mz5489": 5529, "mz5490": 5530, "mz5491": 5531, "mz5492": 5532, "mz5493": 5533, "mz5494": 5534, "mz5495": 5535, "mz5496": 5536, "mz5497": 5537, "mz5498": 5538, "mz5499": 5539, "mz5500": 5540, "mz5501": 5541, "mz5502": 5542, "mz5503": 5543, "mz5504": 5544, "mz5505": 5545, "mz5506": 5546, "mz5507": 5547, "mz5508": 5548, "mz5509": 5549, "mz5510": 5550, "mz5511": 5551, "mz5512": 5552, "mz5513": 5553, "mz5514": 5554, "mz5515": 5555, "mz5516": 5556, "mz5517": 5557, "mz5518": 5558, "mz5519": 5559, "mz5520": 5560, "mz5521": 5561, "mz5522": 5562, "mz5523": 5563, "mz5524": 5564, "mz5525": 5565, "mz5526": 5566, "mz5527": 5567, "mz5528": 5568, "mz5529": 5569, "mz5530": 5570, "mz5531": 5571, "mz5532": 5572, "mz5533": 5573, "mz5534": 5574, "mz5535": 5575, "mz5536": 5576, "mz5537": 5577, "mz5538": 5578, "mz5539": 5579, "mz5540": 5580, "mz5541": 5581, "mz5542": 5582, "mz5543": 5583, "mz5544": 5584, "mz5545": 5585, "mz5546": 5586, "mz5547": 5587, "mz5548": 5588, "mz5549": 5589, "mz5550": 5590, "mz5551": 5591, "mz5552": 5592, "mz5553": 5593, "mz5554": 5594, "mz5555": 5595, "mz5556": 5596, "mz5557": 5597, "mz5558": 5598, "mz5559": 5599, "mz5560": 5600, "mz5561": 5601, "mz5562": 5602, "mz5563": 5603, "mz5564": 5604, "mz5565": 5605, "mz5566": 5606, "mz5567": 5607, "mz5568": 5608, "mz5569": 5609, "mz5570": 5610, "mz5571": 5611, "mz5572": 5612, "mz5573": 5613, "mz5574": 5614, "mz5575": 5615, "mz5576": 5616, "mz5577": 5617, "mz5578": 5618, "mz5579": 5619, "mz5580": 5620, "mz5581": 5621, "mz5582": 5622, "mz5583": 5623, "mz5584": 5624, "mz5585": 5625, "mz5586": 5626, "mz5587": 5627, "mz5588": 5628, "mz5589": 5629, "mz5590": 5630, "mz5591": 5631, "mz5592": 5632, "mz5593": 5633, "mz5594": 5634, "mz5595": 5635, "mz5596": 5636, "mz5597": 5637, "mz5598": 5638, "mz5599": 5639, "mz5600": 5640, "mz5601": 5641, "mz5602": 5642, "mz5603": 5643, "mz5604": 5644, "mz5605": 5645, "mz5606": 5646, "mz5607": 5647, "mz5608": 5648, "mz5609": 5649, "mz5610": 5650, "mz5611": 5651, "mz5612": 5652, "mz5613": 5653, "mz5614": 5654, "mz5615": 5655, "mz5616": 5656, "mz5617": 5657, "mz5618": 5658, "mz5619": 5659, "mz5620": 5660, "mz5621": 5661, "mz5622": 5662, "mz5623": 5663, "mz5624": 5664, "mz5625": 5665, "mz5626": 5666, "mz5627": 5667, "mz5628": 5668, "mz5629": 5669, "mz5630": 5670, "mz5631": 5671, "mz5632": 5672, "mz5633": 5673, "mz5634": 5674, "mz5635": 5675, "mz5636": 5676, "mz5637": 5677, "mz5638": 5678, "mz5639": 5679, "mz5640": 5680, "mz5641": 5681, "mz5642": 5682, "mz5643": 5683, "mz5644": 5684, "mz5645": 5685, "mz5646": 5686, "mz5647": 5687, "mz5648": 5688, "mz5649": 5689, "mz5650": 5690, "mz5651": 5691, "mz5652": 5692, "mz5653": 5693, "mz5654": 5694, "mz5655": 5695, "mz5656": 5696, "mz5657": 5697, "mz5658": 5698, "mz5659": 5699, "mz5660": 5700, "mz5661": 5701, "mz5662": 5702, "mz5663": 5703, "mz5664": 5704, "mz5665": 5705, "mz5666": 5706, "mz5667": 5707, "mz5668": 5708, "mz5669": 5709, "mz5670": 5710, "mz5671": 5711, "mz5672": 5712, "mz5673": 5713, "mz5674": 5714, "mz5675": 5715, "mz5676": 5716, "mz5677": 5717, "mz5678": 5718, "mz5679": 5719, "mz5680": 5720, "mz5681": 5721, "mz5682": 5722, "mz5683": 5723, "mz5684": 5724, "mz5685": 5725, "mz5686": 5726, "mz5687": 5727, "mz5688": 5728, "mz5689": 5729, "mz5690": 5730, "mz5691": 5731, "mz5692": 5732, "mz5693": 5733, "mz5694": 5734, "mz5695": 5735, "mz5696": 5736, "mz5697": 5737, "mz5698": 5738, "mz5699": 5739, "mz5700": 5740, "mz5701": 5741, "mz5702": 5742, "mz5703": 5743, "mz5704": 5744, "mz5705": 5745, "mz5706": 5746, "mz5707": 5747, "mz5708": 5748, "mz5709": 5749, "mz5710": 5750, "mz5711": 5751, "mz5712": 5752, "mz5713": 5753, "mz5714": 5754, "mz5715": 5755, "mz5716": 5756, "mz5717": 5757, "mz5718": 5758, "mz5719": 5759, "mz5720": 5760, "mz5721": 5761, "mz5722": 5762, "mz5723": 5763, "mz5724": 5764, "mz5725": 5765, "mz5726": 5766, "mz5727": 5767, "mz5728": 5768, "mz5729": 5769, "mz5730": 5770, "mz5731": 5771, "mz5732": 5772, "mz5733": 5773, "mz5734": 5774, "mz5735": 5775, "mz5736": 5776, "mz5737": 5777, "mz5738": 5778, "mz5739": 5779, "mz5740": 5780, "mz5741": 5781, "mz5742": 5782, "mz5743": 5783, "mz5744": 5784, "mz5745": 5785, "mz5746": 5786, "mz5747": 5787, "mz5748": 5788, "mz5749": 5789, "mz5750": 5790, "mz5751": 5791, "mz5752": 5792, "mz5753": 5793, "mz5754": 5794, "mz5755": 5795, "mz5756": 5796, "mz5757": 5797, "mz5758": 5798, "mz5759": 5799, "mz5760": 5800, "mz5761": 5801, "mz5762": 5802, "mz5763": 5803, "mz5764": 5804, "mz5765": 5805, "mz5766": 5806, "mz5767": 5807, "mz5768": 5808, "mz5769": 5809, "mz5770": 5810, "mz5771": 5811, "mz5772": 5812, "mz5773": 5813, "mz5774": 5814, "mz5775": 5815, "mz5776": 5816, "mz5777": 5817, "mz5778": 5818, "mz5779": 5819, "mz5780": 5820, "mz5781": 5821, "mz5782": 5822, "mz5783": 5823, "mz5784": 5824, "mz5785": 5825, "mz5786": 5826, "mz5787": 5827, "mz5788": 5828, "mz5789": 5829, "mz5790": 5830, "mz5791": 5831, "mz5792": 5832, "mz5793": 5833, "mz5794": 5834, "mz5795": 5835, "mz5796": 5836, "mz5797": 5837, "mz5798": 5838, "mz5799": 5839, "mz5800": 5840, "mz5801": 5841, "mz5802": 5842, "mz5803": 5843, "mz5804": 5844, "mz5805": 5845, "mz5806": 5846, "mz5807": 5847, "mz5808": 5848, "mz5809": 5849, "mz5810": 5850, "mz5811": 5851, "mz5812": 5852, "mz5813": 5853, "mz5814": 5854, "mz5815": 5855, "mz5816": 5856, "mz5817": 5857, "mz5818": 5858, "mz5819": 5859, "mz5820": 5860, "mz5821": 5861, "mz5822": 5862, "mz5823": 5863, "mz5824": 5864, "mz5825": 5865, "mz5826": 5866, "mz5827": 5867, "mz5828": 5868, "mz5829": 5869, "mz5830": 5870, "mz5831": 5871, "mz5832": 5872, "mz5833": 5873, "mz5834": 5874, "mz5835": 5875, "mz5836": 5876, "mz5837": 5877, "mz5838": 5878, "mz5839": 5879, "mz5840": 5880, "mz5841": 5881, "mz5842": 5882, "mz5843": 5883, "mz5844": 5884, "mz5845": 5885, "mz5846": 5886, "mz5847": 5887, "mz5848": 5888, "mz5849": 5889, "mz5850": 5890, "mz5851": 5891, "mz5852": 5892, "mz5853": 5893, "mz5854": 5894, "mz5855": 5895, "mz5856": 5896, "mz5857": 5897, "mz5858": 5898, "mz5859": 5899, "mz5860": 5900, "mz5861": 5901, "mz5862": 5902, "mz5863": 5903, "mz5864": 5904, "mz5865": 5905, "mz5866": 5906, "mz5867": 5907, "mz5868": 5908, "mz5869": 5909, "mz5870": 5910, "mz5871": 5911, "mz5872": 5912, "mz5873": 5913, "mz5874": 5914, "mz5875": 5915, "mz5876": 5916, "mz5877": 5917, "mz5878": 5918, "mz5879": 5919, "mz5880": 5920, "mz5881": 5921, "mz5882": 5922, "mz5883": 5923, "mz5884": 5924, "mz5885": 5925, "mz5886": 5926, "mz5887": 5927, "mz5888": 5928, "mz5889": 5929, "mz5890": 5930, "mz5891": 5931, "mz5892": 5932, "mz5893": 5933, "mz5894": 5934, "mz5895": 5935, "mz5896": 5936, "mz5897": 5937, "mz5898": 5938, "mz5899": 5939, "mz5900": 5940, "mz5901": 5941, "mz5902": 5942, "mz5903": 5943, "mz5904": 5944, "mz5905": 5945, "mz5906": 5946, "mz5907": 5947, "mz5908": 5948, "mz5909": 5949, "mz5910": 5950, "mz5911": 5951, "mz5912": 5952, "mz5913": 5953, "mz5914": 5954, "mz5915": 5955, "mz5916": 5956, "mz5917": 5957, "mz5918": 5958, "mz5919": 5959, "mz5920": 5960, "mz5921": 5961, "mz5922": 5962, "mz5923": 5963, "mz5924": 5964, "mz5925": 5965, "mz5926": 5966, "mz5927": 5967, "mz5928": 5968, "mz5929": 5969, "mz5930": 5970, "mz5931": 5971, "mz5932": 5972, "mz5933": 5973, "mz5934": 5974, "mz5935": 5975, "mz5936": 5976, "mz5937": 5977, "mz5938": 5978, "mz5939": 5979, "mz5940": 5980, "mz5941": 5981, "mz5942": 5982, "mz5943": 5983, "mz5944": 5984, "mz5945": 5985, "mz5946": 5986, "mz5947": 5987, "mz5948": 5988, "mz5949": 5989, "mz5950": 5990, "mz5951": 5991, "mz5952": 5992, "mz5953": 5993, "mz5954": 5994, "mz5955": 5995, "mz5956": 5996, "mz5957": 5997, "mz5958": 5998, "mz5959": 5999, "mz5960": 6000, "mz5961": 6001, "mz5962": 6002, "mz5963": 6003, "mz5964": 6004, "mz5965": 6005, "mz5966": 6006, "mz5967": 6007, "mz5968": 6008, "mz5969": 6009, "mz5970": 6010, "mz5971": 6011, "mz5972": 6012, "mz5973": 6013, "mz5974": 6014, "mz5975": 6015, "mz5976": 6016, "mz5977": 6017, "mz5978": 6018, "mz5979": 6019, "mz5980": 6020, "mz5981": 6021, "mz5982": 6022, "mz5983": 6023, "mz5984": 6024, "mz5985": 6025, "mz5986": 6026, "mz5987": 6027, "mz5988": 6028, "mz5989": 6029, "mz5990": 6030, "mz5991": 6031, "mz5992": 6032, "mz5993": 6033, "mz5994": 6034, "mz5995": 6035, "mz5996": 6036, "mz5997": 6037, "mz5998": 6038, "mz5999": 6039, "mz6000": 6040, "mz6001": 6041, "mz6002": 6042, "mz6003": 6043, "mz6004": 6044, "mz6005": 6045, "mz6006": 6046, "mz6007": 6047, "mz6008": 6048, "mz6009": 6049, "mz6010": 6050, "mz6011": 6051, "mz6012": 6052, "mz6013": 6053, "mz6014": 6054, "mz6015": 6055, "mz6016": 6056, "mz6017": 6057, "mz6018": 6058, "mz6019": 6059, "mz6020": 6060, "mz6021": 6061, "mz6022": 6062, "mz6023": 6063, "mz6024": 6064, "mz6025": 6065, "mz6026": 6066, "mz6027": 6067, "mz6028": 6068, "mz6029": 6069, "mz6030": 6070, "mz6031": 6071, "mz6032": 6072, "mz6033": 6073, "mz6034": 6074, "mz6035": 6075, "mz6036": 6076, "mz6037": 6077, "mz6038": 6078, "mz6039": 6079, "mz6040": 6080, "mz6041": 6081, "mz6042": 6082, "mz6043": 6083, "mz6044": 6084, "mz6045": 6085, "mz6046": 6086, "mz6047": 6087, "mz6048": 6088, "mz6049": 6089, "mz6050": 6090, "mz6051": 6091, "mz6052": 6092, "mz6053": 6093, "mz6054": 6094, "mz6055": 6095, "mz6056": 6096, "mz6057": 6097, "mz6058": 6098, "mz6059": 6099, "mz6060": 6100, "mz6061": 6101, "mz6062": 6102, "mz6063": 6103, "mz6064": 6104, "mz6065": 6105, "mz6066": 6106, "mz6067": 6107, "mz6068": 6108, "mz6069": 6109, "mz6070": 6110, "mz6071": 6111, "mz6072": 6112, "mz6073": 6113, "mz6074": 6114, "mz6075": 6115, "mz6076": 6116, "mz6077": 6117, "mz6078": 6118, "mz6079": 6119, "mz6080": 6120, "mz6081": 6121, "mz6082": 6122, "mz6083": 6123, "mz6084": 6124, "mz6085": 6125, "mz6086": 6126, "mz6087": 6127, "mz6088": 6128, "mz6089": 6129, "mz6090": 6130, "mz6091": 6131, "mz6092": 6132, "mz6093": 6133, "mz6094": 6134, "mz6095": 6135, "mz6096": 6136, "mz6097": 6137, "mz6098": 6138, "mz6099": 6139, "mz6100": 6140, "mz6101": 6141, "mz6102": 6142, "mz6103": 6143, "mz6104": 6144, "mz6105": 6145, "mz6106": 6146, "mz6107": 6147, "mz6108": 6148, "mz6109": 6149, "mz6110": 6150, "mz6111": 6151, "mz6112": 6152, "mz6113": 6153, "mz6114": 6154, "mz6115": 6155, "mz6116": 6156, "mz6117": 6157, "mz6118": 6158, "mz6119": 6159, "mz6120": 6160, "mz6121": 6161, "mz6122": 6162, "mz6123": 6163, "mz6124": 6164, "mz6125": 6165, "mz6126": 6166, "mz6127": 6167, "mz6128": 6168, "mz6129": 6169, "mz6130": 6170, "mz6131": 6171, "mz6132": 6172, "mz6133": 6173, "mz6134": 6174, "mz6135": 6175, "mz6136": 6176, "mz6137": 6177, "mz6138": 6178, "mz6139": 6179, "mz6140": 6180, "mz6141": 6181, "mz6142": 6182, "mz6143": 6183, "mz6144": 6184, "mz6145": 6185, "mz6146": 6186, "mz6147": 6187, "mz6148": 6188, "mz6149": 6189, "mz6150": 6190, "mz6151": 6191, "mz6152": 6192, "mz6153": 6193, "mz6154": 6194, "mz6155": 6195, "mz6156": 6196, "mz6157": 6197, "mz6158": 6198, "mz6159": 6199, "mz6160": 6200, "mz6161": 6201, "mz6162": 6202, "mz6163": 6203, "mz6164": 6204, "mz6165": 6205, "mz6166": 6206, "mz6167": 6207, "mz6168": 6208, "mz6169": 6209, "mz6170": 6210, "mz6171": 6211, "mz6172": 6212, "mz6173": 6213, "mz6174": 6214, "mz6175": 6215, "mz6176": 6216, "mz6177": 6217, "mz6178": 6218, "mz6179": 6219, "mz6180": 6220, "mz6181": 6221, "mz6182": 6222, "mz6183": 6223, "mz6184": 6224, "mz6185": 6225, "mz6186": 6226, "mz6187": 6227, "mz6188": 6228, "mz6189": 6229, "mz6190": 6230, "mz6191": 6231, "mz6192": 6232, "mz6193": 6233, "mz6194": 6234, "mz6195": 6235, "mz6196": 6236, "mz6197": 6237, "mz6198": 6238, "mz6199": 6239, "mz6200": 6240, "mz6201": 6241, "mz6202": 6242, "mz6203": 6243, "mz6204": 6244, "mz6205": 6245, "mz6206": 6246, "mz6207": 6247, "mz6208": 6248, "mz6209": 6249, "mz6210": 6250, "mz6211": 6251, "mz6212": 6252, "mz6213": 6253, "mz6214": 6254, "mz6215": 6255, "mz6216": 6256, "mz6217": 6257, "mz6218": 6258, "mz6219": 6259, "mz6220": 6260, "mz6221": 6261, "mz6222": 6262, "mz6223": 6263, "mz6224": 6264, "mz6225": 6265, "mz6226": 6266, "mz6227": 6267, "mz6228": 6268, "mz6229": 6269, "mz6230": 6270, "mz6231": 6271, "mz6232": 6272, "mz6233": 6273, "mz6234": 6274, "mz6235": 6275, "mz6236": 6276, "mz6237": 6277, "mz6238": 6278, "mz6239": 6279, "mz6240": 6280, "mz6241": 6281, "mz6242": 6282, "mz6243": 6283, "mz6244": 6284, "mz6245": 6285, "mz6246": 6286, "mz6247": 6287, "mz6248": 6288, "mz6249": 6289, "mz6250": 6290, "mz6251": 6291, "mz6252": 6292, "mz6253": 6293, "mz6254": 6294, "mz6255": 6295, "mz6256": 6296, "mz6257": 6297, "mz6258": 6298, "mz6259": 6299, "mz6260": 6300, "mz6261": 6301, "mz6262": 6302, "mz6263": 6303, "mz6264": 6304, "mz6265": 6305, "mz6266": 6306, "mz6267": 6307, "mz6268": 6308, "mz6269": 6309, "mz6270": 6310, "mz6271": 6311, "mz6272": 6312, "mz6273": 6313, "mz6274": 6314, "mz6275": 6315, "mz6276": 6316, "mz6277": 6317, "mz6278": 6318, "mz6279": 6319, "mz6280": 6320, "mz6281": 6321, "mz6282": 6322, "mz6283": 6323, "mz6284": 6324, "mz6285": 6325, "mz6286": 6326, "mz6287": 6327, "mz6288": 6328, "mz6289": 6329, "mz6290": 6330, "mz6291": 6331, "mz6292": 6332, "mz6293": 6333, "mz6294": 6334, "mz6295": 6335, "mz6296": 6336, "mz6297": 6337, "mz6298": 6338, "mz6299": 6339, "mz6300": 6340, "mz6301": 6341, "mz6302": 6342, "mz6303": 6343, "mz6304": 6344, "mz6305": 6345, "mz6306": 6346, "mz6307": 6347, "mz6308": 6348, "mz6309": 6349, "mz6310": 6350, "mz6311": 6351, "mz6312": 6352, "mz6313": 6353, "mz6314": 6354, "mz6315": 6355, "mz6316": 6356, "mz6317": 6357, "mz6318": 6358, "mz6319": 6359, "mz6320": 6360, "mz6321": 6361, "mz6322": 6362, "mz6323": 6363, "mz6324": 6364, "mz6325": 6365, "mz6326": 6366, "mz6327": 6367, "mz6328": 6368, "mz6329": 6369, "mz6330": 6370, "mz6331": 6371, "mz6332": 6372, "mz6333": 6373, "mz6334": 6374, "mz6335": 6375, "mz6336": 6376, "mz6337": 6377, "mz6338": 6378, "mz6339": 6379, "mz6340": 6380, "mz6341": 6381, "mz6342": 6382, "mz6343": 6383, "mz6344": 6384, "mz6345": 6385, "mz6346": 6386, "mz6347": 6387, "mz6348": 6388, "mz6349": 6389, "mz6350": 6390, "mz6351": 6391, "mz6352": 6392, "mz6353": 6393, "mz6354": 6394, "mz6355": 6395, "mz6356": 6396, "mz6357": 6397, "mz6358": 6398, "mz6359": 6399, "mz6360": 6400, "mz6361": 6401, "mz6362": 6402, "mz6363": 6403, "mz6364": 6404, "mz6365": 6405, "mz6366": 6406, "mz6367": 6407, "mz6368": 6408, "mz6369": 6409, "mz6370": 6410, "mz6371": 6411, "mz6372": 6412, "mz6373": 6413, "mz6374": 6414, "mz6375": 6415, "mz6376": 6416, "mz6377": 6417, "mz6378": 6418, "mz6379": 6419, "mz6380": 6420, "mz6381": 6421, "mz6382": 6422, "mz6383": 6423, "mz6384": 6424, "mz6385": 6425, "mz6386": 6426, "mz6387": 6427, "mz6388": 6428, "mz6389": 6429, "mz6390": 6430, "mz6391": 6431, "mz6392": 6432, "mz6393": 6433, "mz6394": 6434, "mz6395": 6435, "mz6396": 6436, "mz6397": 6437, "mz6398": 6438, "mz6399": 6439, "mz6400": 6440, "mz6401": 6441, "mz6402": 6442, "mz6403": 6443, "mz6404": 6444, "mz6405": 6445, "mz6406": 6446, "mz6407": 6447, "mz6408": 6448, "mz6409": 6449, "mz6410": 6450, "mz6411": 6451, "mz6412": 6452, "mz6413": 6453, "mz6414": 6454, "mz6415": 6455, "mz6416": 6456, "mz6417": 6457, "mz6418": 6458, "mz6419": 6459, "mz6420": 6460, "mz6421": 6461, "mz6422": 6462, "mz6423": 6463, "mz6424": 6464, "mz6425": 6465, "mz6426": 6466, "mz6427": 6467, "mz6428": 6468, "mz6429": 6469, "mz6430": 6470, "mz6431": 6471, "mz6432": 6472, "mz6433": 6473, "mz6434": 6474, "mz6435": 6475, "mz6436": 6476, "mz6437": 6477, "mz6438": 6478, "mz6439": 6479, "mz6440": 6480, "mz6441": 6481, "mz6442": 6482, "mz6443": 6483, "mz6444": 6484, "mz6445": 6485, "mz6446": 6486, "mz6447": 6487, "mz6448": 6488, "mz6449": 6489, "mz6450": 6490, "mz6451": 6491, "mz6452": 6492, "mz6453": 6493, "mz6454": 6494, "mz6455": 6495, "mz6456": 6496, "mz6457": 6497, "mz6458": 6498, "mz6459": 6499, "mz6460": 6500, "mz6461": 6501, "mz6462": 6502, "mz6463": 6503, "mz6464": 6504, "mz6465": 6505, "mz6466": 6506, "mz6467": 6507, "mz6468": 6508, "mz6469": 6509, "mz6470": 6510, "mz6471": 6511, "mz6472": 6512, "mz6473": 6513, "mz6474": 6514, "mz6475": 6515, "mz6476": 6516, "mz6477": 6517, "mz6478": 6518, "mz6479": 6519, "mz6480": 6520, "mz6481": 6521, "mz6482": 6522, "mz6483": 6523, "mz6484": 6524, "mz6485": 6525, "mz6486": 6526, "mz6487": 6527, "mz6488": 6528, "mz6489": 6529, "mz6490": 6530, "mz6491": 6531, "mz6492": 6532, "mz6493": 6533, "mz6494": 6534, "mz6495": 6535, "mz6496": 6536, "mz6497": 6537, "mz6498": 6538, "mz6499": 6539, "mz6500": 6540, "mz6501": 6541, "mz6502": 6542, "mz6503": 6543, "mz6504": 6544, "mz6505": 6545, "mz6506": 6546, "mz6507": 6547, "mz6508": 6548, "mz6509": 6549, "mz6510": 6550, "mz6511": 6551, "mz6512": 6552, "mz6513": 6553, "mz6514": 6554, "mz6515": 6555, "mz6516": 6556, "mz6517": 6557, "mz6518": 6558, "mz6519": 6559, "mz6520": 6560, "mz6521": 6561, "mz6522": 6562, "mz6523": 6563, "mz6524": 6564, "mz6525": 6565, "mz6526": 6566, "mz6527": 6567, "mz6528": 6568, "mz6529": 6569, "mz6530": 6570, "mz6531": 6571, "mz6532": 6572, "mz6533": 6573, "mz6534": 6574, "mz6535": 6575, "mz6536": 6576, "mz6537": 6577, "mz6538": 6578, "mz6539": 6579, "mz6540": 6580, "mz6541": 6581, "mz6542": 6582, "mz6543": 6583, "mz6544": 6584, "mz6545": 6585, "mz6546": 6586, "mz6547": 6587, "mz6548": 6588, "mz6549": 6589, "mz6550": 6590, "mz6551": 6591, "mz6552": 6592, "mz6553": 6593, "mz6554": 6594, "mz6555": 6595, "mz6556": 6596, "mz6557": 6597, "mz6558": 6598, "mz6559": 6599, "mz6560": 6600, "mz6561": 6601, "mz6562": 6602, "mz6563": 6603, "mz6564": 6604, "mz6565": 6605, "mz6566": 6606, "mz6567": 6607, "mz6568": 6608, "mz6569": 6609, "mz6570": 6610, "mz6571": 6611, "mz6572": 6612, "mz6573": 6613, "mz6574": 6614, "mz6575": 6615, "mz6576": 6616, "mz6577": 6617, "mz6578": 6618, "mz6579": 6619, "mz6580": 6620, "mz6581": 6621, "mz6582": 6622, "mz6583": 6623, "mz6584": 6624, "mz6585": 6625, "mz6586": 6626, "mz6587": 6627, "mz6588": 6628, "mz6589": 6629, "mz6590": 6630, "mz6591": 6631, "mz6592": 6632, "mz6593": 6633, "mz6594": 6634, "mz6595": 6635, "mz6596": 6636, "mz6597": 6637, "mz6598": 6638, "mz6599": 6639, "mz6600": 6640, "mz6601": 6641, "mz6602": 6642, "mz6603": 6643, "mz6604": 6644, "mz6605": 6645, "mz6606": 6646, "mz6607": 6647, "mz6608": 6648, "mz6609": 6649, "mz6610": 6650, "mz6611": 6651, "mz6612": 6652, "mz6613": 6653, "mz6614": 6654, "mz6615": 6655, "mz6616": 6656, "mz6617": 6657, "mz6618": 6658, "mz6619": 6659, "mz6620": 6660, "mz6621": 6661, "mz6622": 6662, "mz6623": 6663, "mz6624": 6664, "mz6625": 6665, "mz6626": 6666, "mz6627": 6667, "mz6628": 6668, "mz6629": 6669, "mz6630": 6670, "mz6631": 6671, "mz6632": 6672, "mz6633": 6673, "mz6634": 6674, "mz6635": 6675, "mz6636": 6676, "mz6637": 6677, "mz6638": 6678, "mz6639": 6679, "mz6640": 6680, "mz6641": 6681, "mz6642": 6682, "mz6643": 6683, "mz6644": 6684, "mz6645": 6685, "mz6646": 6686, "mz6647": 6687, "mz6648": 6688, "mz6649": 6689, "mz6650": 6690, "mz6651": 6691, "mz6652": 6692, "mz6653": 6693, "mz6654": 6694, "mz6655": 6695, "mz6656": 6696, "mz6657": 6697, "mz6658": 6698, "mz6659": 6699, "mz6660": 6700, "mz6661": 6701, "mz6662": 6702, "mz6663": 6703, "mz6664": 6704, "mz6665": 6705, "mz6666": 6706, "mz6667": 6707, "mz6668": 6708, "mz6669": 6709, "mz6670": 6710, "mz6671": 6711, "mz6672": 6712, "mz6673": 6713, "mz6674": 6714, "mz6675": 6715, "mz6676": 6716, "mz6677": 6717, "mz6678": 6718, "mz6679": 6719, "mz6680": 6720, "mz6681": 6721, "mz6682": 6722, "mz6683": 6723, "mz6684": 6724, "mz6685": 6725, "mz6686": 6726, "mz6687": 6727, "mz6688": 6728, "mz6689": 6729, "mz6690": 6730, "mz6691": 6731, "mz6692": 6732, "mz6693": 6733, "mz6694": 6734, "mz6695": 6735, "mz6696": 6736, "mz6697": 6737, "mz6698": 6738, "mz6699": 6739, "mz6700": 6740, "mz6701": 6741, "mz6702": 6742, "mz6703": 6743, "mz6704": 6744, "mz6705": 6745, "mz6706": 6746, "mz6707": 6747, "mz6708": 6748, "mz6709": 6749, "mz6710": 6750, "mz6711": 6751, "mz6712": 6752, "mz6713": 6753, "mz6714": 6754, "mz6715": 6755, "mz6716": 6756, "mz6717": 6757, "mz6718": 6758, "mz6719": 6759, "mz6720": 6760, "mz6721": 6761, "mz6722": 6762, "mz6723": 6763, "mz6724": 6764, "mz6725": 6765, "mz6726": 6766, "mz6727": 6767, "mz6728": 6768, "mz6729": 6769, "mz6730": 6770, "mz6731": 6771, "mz6732": 6772, "mz6733": 6773, "mz6734": 6774, "mz6735": 6775, "mz6736": 6776, "mz6737": 6777, "mz6738": 6778, "mz6739": 6779, "mz6740": 6780, "mz6741": 6781, "mz6742": 6782, "mz6743": 6783, "mz6744": 6784, "mz6745": 6785, "mz6746": 6786, "mz6747": 6787, "mz6748": 6788, "mz6749": 6789, "mz6750": 6790, "mz6751": 6791, "mz6752": 6792, "mz6753": 6793, "mz6754": 6794, "mz6755": 6795, "mz6756": 6796, "mz6757": 6797, "mz6758": 6798, "mz6759": 6799, "mz6760": 6800, "mz6761": 6801, "mz6762": 6802, "mz6763": 6803, "mz6764": 6804, "mz6765": 6805, "mz6766": 6806, "mz6767": 6807, "mz6768": 6808, "mz6769": 6809, "mz6770": 6810, "mz6771": 6811, "mz6772": 6812, "mz6773": 6813, "mz6774": 6814, "mz6775": 6815, "mz6776": 6816, "mz6777": 6817, "mz6778": 6818, "mz6779": 6819, "mz6780": 6820, "mz6781": 6821, "mz6782": 6822, "mz6783": 6823, "mz6784": 6824, "mz6785": 6825, "mz6786": 6826, "mz6787": 6827, "mz6788": 6828, "mz6789": 6829, "mz6790": 6830, "mz6791": 6831, "mz6792": 6832, "mz6793": 6833, "mz6794": 6834, "mz6795": 6835, "mz6796": 6836, "mz6797": 6837, "mz6798": 6838, "mz6799": 6839, "mz6800": 6840, "mz6801": 6841, "mz6802": 6842, "mz6803": 6843, "mz6804": 6844, "mz6805": 6845, "mz6806": 6846, "mz6807": 6847, "mz6808": 6848, "mz6809": 6849, "mz6810": 6850, "mz6811": 6851, "mz6812": 6852, "mz6813": 6853, "mz6814": 6854, "mz6815": 6855, "mz6816": 6856, "mz6817": 6857, "mz6818": 6858, "mz6819": 6859, "mz6820": 6860, "mz6821": 6861, "mz6822": 6862, "mz6823": 6863, "mz6824": 6864, "mz6825": 6865, "mz6826": 6866, "mz6827": 6867, "mz6828": 6868, "mz6829": 6869, "mz6830": 6870, "mz6831": 6871, "mz6832": 6872, "mz6833": 6873, "mz6834": 6874, "mz6835": 6875, "mz6836": 6876, "mz6837": 6877, "mz6838": 6878, "mz6839": 6879, "mz6840": 6880, "mz6841": 6881, "mz6842": 6882, "mz6843": 6883, "mz6844": 6884, "mz6845": 6885, "mz6846": 6886, "mz6847": 6887, "mz6848": 6888, "mz6849": 6889, "mz6850": 6890, "mz6851": 6891, "mz6852": 6892, "mz6853": 6893, "mz6854": 6894, "mz6855": 6895, "mz6856": 6896, "mz6857": 6897, "mz6858": 6898, "mz6859": 6899, "mz6860": 6900, "mz6861": 6901, "mz6862": 6902, "mz6863": 6903, "mz6864": 6904, "mz6865": 6905, "mz6866": 6906, "mz6867": 6907, "mz6868": 6908, "mz6869": 6909, "mz6870": 6910, "mz6871": 6911, "mz6872": 6912, "mz6873": 6913, "mz6874": 6914, "mz6875": 6915, "mz6876": 6916, "mz6877": 6917, "mz6878": 6918, "mz6879": 6919, "mz6880": 6920, "mz6881": 6921, "mz6882": 6922, "mz6883": 6923, "mz6884": 6924, "mz6885": 6925, "mz6886": 6926, "mz6887": 6927, "mz6888": 6928, "mz6889": 6929, "mz6890": 6930, "mz6891": 6931, "mz6892": 6932, "mz6893": 6933, "mz6894": 6934, "mz6895": 6935, "mz6896": 6936, "mz6897": 6937, "mz6898": 6938, "mz6899": 6939, "mz6900": 6940, "mz6901": 6941, "mz6902": 6942, "mz6903": 6943, "mz6904": 6944, "mz6905": 6945, "mz6906": 6946, "mz6907": 6947, "mz6908": 6948, "mz6909": 6949, "mz6910": 6950, "mz6911": 6951, "mz6912": 6952, "mz6913": 6953, "mz6914": 6954, "mz6915": 6955, "mz6916": 6956, "mz6917": 6957, "mz6918": 6958, "mz6919": 6959, "mz6920": 6960, "mz6921": 6961, "mz6922": 6962, "mz6923": 6963, "mz6924": 6964, "mz6925": 6965, "mz6926": 6966, "mz6927": 6967, "mz6928": 6968, "mz6929": 6969, "mz6930": 6970, "mz6931": 6971, "mz6932": 6972, "mz6933": 6973, "mz6934": 6974, "mz6935": 6975, "mz6936": 6976, "mz6937": 6977, "mz6938": 6978, "mz6939": 6979, "mz6940": 6980, "mz6941": 6981, "mz6942": 6982, "mz6943": 6983, "mz6944": 6984, "mz6945": 6985, "mz6946": 6986, "mz6947": 6987, "mz6948": 6988, "mz6949": 6989, "mz6950": 6990, "mz6951": 6991, "mz6952": 6992, "mz6953": 6993, "mz6954": 6994, "mz6955": 6995, "mz6956": 6996, "mz6957": 6997, "mz6958": 6998, "mz6959": 6999, "mz6960": 7000, "mz6961": 7001, "mz6962": 7002, "mz6963": 7003, "mz6964": 7004, "mz6965": 7005, "mz6966": 7006, "mz6967": 7007, "mz6968": 7008, "mz6969": 7009, "mz6970": 7010, "mz6971": 7011, "mz6972": 7012, "mz6973": 7013, "mz6974": 7014, "mz6975": 7015, "mz6976": 7016, "mz6977": 7017, "mz6978": 7018, "mz6979": 7019, "mz6980": 7020, "mz6981": 7021, "mz6982": 7022, "mz6983": 7023, "mz6984": 7024, "mz6985": 7025, "mz6986": 7026, "mz6987": 7027, "mz6988": 7028, "mz6989": 7029, "mz6990": 7030, "mz6991": 7031, "mz6992": 7032, "mz6993": 7033, "mz6994": 7034, "mz6995": 7035, "mz6996": 7036, "mz6997": 7037, "mz6998": 7038, "mz6999": 7039, "mz7000": 7040, "mz7001": 7041, "mz7002": 7042, "mz7003": 7043, "mz7004": 7044, "mz7005": 7045, "mz7006": 7046, "mz7007": 7047, "mz7008": 7048, "mz7009": 7049, "mz7010": 7050, "mz7011": 7051, "mz7012": 7052, "mz7013": 7053, "mz7014": 7054, "mz7015": 7055, "mz7016": 7056, "mz7017": 7057, "mz7018": 7058, "mz7019": 7059, "mz7020": 7060, "mz7021": 7061, "mz7022": 7062, "mz7023": 7063, "mz7024": 7064, "mz7025": 7065, "mz7026": 7066, "mz7027": 7067, "mz7028": 7068, "mz7029": 7069, "mz7030": 7070, "mz7031": 7071, "mz7032": 7072, "mz7033": 7073, "mz7034": 7074, "mz7035": 7075, "mz7036": 7076, "mz7037": 7077, "mz7038": 7078, "mz7039": 7079, "mz7040": 7080, "mz7041": 7081, "mz7042": 7082, "mz7043": 7083, "mz7044": 7084, "mz7045": 7085, "mz7046": 7086, "mz7047": 7087, "mz7048": 7088, "mz7049": 7089, "mz7050": 7090, "mz7051": 7091, "mz7052": 7092, "mz7053": 7093, "mz7054": 7094, "mz7055": 7095, "mz7056": 7096, "mz7057": 7097, "mz7058": 7098, "mz7059": 7099, "mz7060": 7100, "mz7061": 7101, "mz7062": 7102, "mz7063": 7103, "mz7064": 7104, "mz7065": 7105, "mz7066": 7106, "mz7067": 7107, "mz7068": 7108, "mz7069": 7109, "mz7070": 7110, "mz7071": 7111, "mz7072": 7112, "mz7073": 7113, "mz7074": 7114, "mz7075": 7115, "mz7076": 7116, "mz7077": 7117, "mz7078": 7118, "mz7079": 7119, "mz7080": 7120, "mz7081": 7121, "mz7082": 7122, "mz7083": 7123, "mz7084": 7124, "mz7085": 7125, "mz7086": 7126, "mz7087": 7127, "mz7088": 7128, "mz7089": 7129, "mz7090": 7130, "mz7091": 7131, "mz7092": 7132, "mz7093": 7133, "mz7094": 7134, "mz7095": 7135, "mz7096": 7136, "mz7097": 7137, "mz7098": 7138, "mz7099": 7139, "mz7100": 7140, "mz7101": 7141, "mz7102": 7142, "mz7103": 7143, "mz7104": 7144, "mz7105": 7145, "mz7106": 7146, "mz7107": 7147, "mz7108": 7148, "mz7109": 7149, "mz7110": 7150, "mz7111": 7151, "mz7112": 7152, "mz7113": 7153, "mz7114": 7154, "mz7115": 7155, "mz7116": 7156, "mz7117": 7157, "mz7118": 7158, "mz7119": 7159, "mz7120": 7160, "mz7121": 7161, "mz7122": 7162, "mz7123": 7163, "mz7124": 7164, "mz7125": 7165, "mz7126": 7166, "mz7127": 7167, "mz7128": 7168, "mz7129": 7169, "mz7130": 7170, "mz7131": 7171, "mz7132": 7172, "mz7133": 7173, "mz7134": 7174, "mz7135": 7175, "mz7136": 7176, "mz7137": 7177, "mz7138": 7178, "mz7139": 7179, "mz7140": 7180, "mz7141": 7181, "mz7142": 7182, "mz7143": 7183, "mz7144": 7184, "mz7145": 7185, "mz7146": 7186, "mz7147": 7187, "mz7148": 7188, "mz7149": 7189, "mz7150": 7190, "mz7151": 7191, "mz7152": 7192, "mz7153": 7193, "mz7154": 7194, "mz7155": 7195, "mz7156": 7196, "mz7157": 7197, "mz7158": 7198, "mz7159": 7199, "mz7160": 7200, "mz7161": 7201, "mz7162": 7202, "mz7163": 7203, "mz7164": 7204, "mz7165": 7205, "mz7166": 7206, "mz7167": 7207, "mz7168": 7208, "mz7169": 7209, "mz7170": 7210, "mz7171": 7211, "mz7172": 7212, "mz7173": 7213, "mz7174": 7214, "mz7175": 7215, "mz7176": 7216, "mz7177": 7217, "mz7178": 7218, "mz7179": 7219, "mz7180": 7220, "mz7181": 7221, "mz7182": 7222, "mz7183": 7223, "mz7184": 7224, "mz7185": 7225, "mz7186": 7226, "mz7187": 7227, "mz7188": 7228, "mz7189": 7229, "mz7190": 7230, "mz7191": 7231, "mz7192": 7232, "mz7193": 7233, "mz7194": 7234, "mz7195": 7235, "mz7196": 7236, "mz7197": 7237, "mz7198": 7238, "mz7199": 7239, "mz7200": 7240, "mz7201": 7241, "mz7202": 7242, "mz7203": 7243, "mz7204": 7244, "mz7205": 7245, "mz7206": 7246, "mz7207": 7247, "mz7208": 7248, "mz7209": 7249, "mz7210": 7250, "mz7211": 7251, "mz7212": 7252, "mz7213": 7253, "mz7214": 7254, "mz7215": 7255, "mz7216": 7256, "mz7217": 7257, "mz7218": 7258, "mz7219": 7259, "mz7220": 7260, "mz7221": 7261, "mz7222": 7262, "mz7223": 7263, "mz7224": 7264, "mz7225": 7265, "mz7226": 7266, "mz7227": 7267, "mz7228": 7268, "mz7229": 7269, "mz7230": 7270, "mz7231": 7271, "mz7232": 7272, "mz7233": 7273, "mz7234": 7274, "mz7235": 7275, "mz7236": 7276, "mz7237": 7277, "mz7238": 7278, "mz7239": 7279, "mz7240": 7280, "mz7241": 7281, "mz7242": 7282, "mz7243": 7283, "mz7244": 7284, "mz7245": 7285, "mz7246": 7286, "mz7247": 7287, "mz7248": 7288, "mz7249": 7289, "mz7250": 7290, "mz7251": 7291, "mz7252": 7292, "mz7253": 7293, "mz7254": 7294, "mz7255": 7295, "mz7256": 7296, "mz7257": 7297, "mz7258": 7298, "mz7259": 7299, "mz7260": 7300, "mz7261": 7301, "mz7262": 7302, "mz7263": 7303, "mz7264": 7304, "mz7265": 7305, "mz7266": 7306, "mz7267": 7307, "mz7268": 7308, "mz7269": 7309, "mz7270": 7310, "mz7271": 7311, "mz7272": 7312, "mz7273": 7313, "mz7274": 7314, "mz7275": 7315, "mz7276": 7316, "mz7277": 7317, "mz7278": 7318, "mz7279": 7319, "mz7280": 7320, "mz7281": 7321, "mz7282": 7322, "mz7283": 7323, "mz7284": 7324, "mz7285": 7325, "mz7286": 7326, "mz7287": 7327, "mz7288": 7328, "mz7289": 7329, "mz7290": 7330, "mz7291": 7331, "mz7292": 7332, "mz7293": 7333, "mz7294": 7334, "mz7295": 7335, "mz7296": 7336, "mz7297": 7337, "mz7298": 7338, "mz7299": 7339, "mz7300": 7340, "mz7301": 7341, "mz7302": 7342, "mz7303": 7343, "mz7304": 7344, "mz7305": 7345, "mz7306": 7346, "mz7307": 7347, "mz7308": 7348, "mz7309": 7349, "mz7310": 7350, "mz7311": 7351, "mz7312": 7352, "mz7313": 7353, "mz7314": 7354, "mz7315": 7355, "mz7316": 7356, "mz7317": 7357, "mz7318": 7358, "mz7319": 7359, "mz7320": 7360, "mz7321": 7361, "mz7322": 7362, "mz7323": 7363, "mz7324": 7364, "mz7325": 7365, "mz7326": 7366, "mz7327": 7367, "mz7328": 7368, "mz7329": 7369, "mz7330": 7370, "mz7331": 7371, "mz7332": 7372, "mz7333": 7373, "mz7334": 7374, "mz7335": 7375, "mz7336": 7376, "mz7337": 7377, "mz7338": 7378, "mz7339": 7379, "mz7340": 7380, "mz7341": 7381, "mz7342": 7382, "mz7343": 7383, "mz7344": 7384, "mz7345": 7385, "mz7346": 7386, "mz7347": 7387, "mz7348": 7388, "mz7349": 7389, "mz7350": 7390, "mz7351": 7391, "mz7352": 7392, "mz7353": 7393, "mz7354": 7394, "mz7355": 7395, "mz7356": 7396, "mz7357": 7397, "mz7358": 7398, "mz7359": 7399, "mz7360": 7400, "mz7361": 7401, "mz7362": 7402, "mz7363": 7403, "mz7364": 7404, "mz7365": 7405, "mz7366": 7406, "mz7367": 7407, "mz7368": 7408, "mz7369": 7409, "mz7370": 7410, "mz7371": 7411, "mz7372": 7412, "mz7373": 7413, "mz7374": 7414, "mz7375": 7415, "mz7376": 7416, "mz7377": 7417, "mz7378": 7418, "mz7379": 7419, "mz7380": 7420, "mz7381": 7421, "mz7382": 7422, "mz7383": 7423, "mz7384": 7424, "mz7385": 7425, "mz7386": 7426, "mz7387": 7427, "mz7388": 7428, "mz7389": 7429, "mz7390": 7430, "mz7391": 7431, "mz7392": 7432, "mz7393": 7433, "mz7394": 7434, "mz7395": 7435, "mz7396": 7436, "mz7397": 7437, "mz7398": 7438, "mz7399": 7439, "mz7400": 7440, "mz7401": 7441, "mz7402": 7442, "mz7403": 7443, "mz7404": 7444, "mz7405": 7445, "mz7406": 7446, "mz7407": 7447, "mz7408": 7448, "mz7409": 7449, "mz7410": 7450, "mz7411": 7451, "mz7412": 7452, "mz7413": 7453, "mz7414": 7454, "mz7415": 7455, "mz7416": 7456, "mz7417": 7457, "mz7418": 7458, "mz7419": 7459, "mz7420": 7460, "mz7421": 7461, "mz7422": 7462, "mz7423": 7463, "mz7424": 7464, "mz7425": 7465, "mz7426": 7466, "mz7427": 7467, "mz7428": 7468, "mz7429": 7469, "mz7430": 7470, "mz7431": 7471, "mz7432": 7472, "mz7433": 7473, "mz7434": 7474, "mz7435": 7475, "mz7436": 7476, "mz7437": 7477, "mz7438": 7478, "mz7439": 7479, "mz7440": 7480, "mz7441": 7481, "mz7442": 7482, "mz7443": 7483, "mz7444": 7484, "mz7445": 7485, "mz7446": 7486, "mz7447": 7487, "mz7448": 7488, "mz7449": 7489, "mz7450": 7490, "mz7451": 7491, "mz7452": 7492, "mz7453": 7493, "mz7454": 7494, "mz7455": 7495, "mz7456": 7496, "mz7457": 7497, "mz7458": 7498, "mz7459": 7499, "mz7460": 7500, "mz7461": 7501, "mz7462": 7502, "mz7463": 7503, "mz7464": 7504, "mz7465": 7505, "mz7466": 7506, "mz7467": 7507, "mz7468": 7508, "mz7469": 7509, "mz7470": 7510, "mz7471": 7511, "mz7472": 7512, "mz7473": 7513, "mz7474": 7514, "mz7475": 7515, "mz7476": 7516, "mz7477": 7517, "mz7478": 7518, "mz7479": 7519, "mz7480": 7520, "mz7481": 7521, "mz7482": 7522, "mz7483": 7523, "mz7484": 7524, "mz7485": 7525, "mz7486": 7526, "mz7487": 7527, "mz7488": 7528, "mz7489": 7529, "mz7490": 7530, "mz7491": 7531, "mz7492": 7532, "mz7493": 7533, "mz7494": 7534, "mz7495": 7535, "mz7496": 7536, "mz7497": 7537, "mz7498": 7538, "mz7499": 7539, "mz7500": 7540, "mz7501": 7541, "mz7502": 7542, "mz7503": 7543, "mz7504": 7544, "mz7505": 7545, "mz7506": 7546, "mz7507": 7547, "mz7508": 7548, "mz7509": 7549, "mz7510": 7550, "mz7511": 7551, "mz7512": 7552, "mz7513": 7553, "mz7514": 7554, "mz7515": 7555, "mz7516": 7556, "mz7517": 7557, "mz7518": 7558, "mz7519": 7559, "mz7520": 7560, "mz7521": 7561, "mz7522": 7562, "mz7523": 7563, "mz7524": 7564, "mz7525": 7565, "mz7526": 7566, "mz7527": 7567, "mz7528": 7568, "mz7529": 7569, "mz7530": 7570, "mz7531": 7571, "mz7532": 7572, "mz7533": 7573, "mz7534": 7574, "mz7535": 7575, "mz7536": 7576, "mz7537": 7577, "mz7538": 7578, "mz7539": 7579, "mz7540": 7580, "mz7541": 7581, "mz7542": 7582, "mz7543": 7583, "mz7544": 7584, "mz7545": 7585, "mz7546": 7586, "mz7547": 7587, "mz7548": 7588, "mz7549": 7589, "mz7550": 7590, "mz7551": 7591, "mz7552": 7592, "mz7553": 7593, "mz7554": 7594, "mz7555": 7595, "mz7556": 7596, "mz7557": 7597, "mz7558": 7598, "mz7559": 7599, "mz7560": 7600, "mz7561": 7601, "mz7562": 7602, "mz7563": 7603, "mz7564": 7604, "mz7565": 7605, "mz7566": 7606, "mz7567": 7607, "mz7568": 7608, "mz7569": 7609, "mz7570": 7610, "mz7571": 7611, "mz7572": 7612, "mz7573": 7613, "mz7574": 7614, "mz7575": 7615, "mz7576": 7616, "mz7577": 7617, "mz7578": 7618, "mz7579": 7619, "mz7580": 7620, "mz7581": 7621, "mz7582": 7622, "mz7583": 7623, "mz7584": 7624, "mz7585": 7625, "mz7586": 7626, "mz7587": 7627, "mz7588": 7628, "mz7589": 7629, "mz7590": 7630, "mz7591": 7631, "mz7592": 7632, "mz7593": 7633, "mz7594": 7634, "mz7595": 7635, "mz7596": 7636, "mz7597": 7637, "mz7598": 7638, "mz7599": 7639, "mz7600": 7640, "mz7601": 7641, "mz7602": 7642, "mz7603": 7643, "mz7604": 7644, "mz7605": 7645, "mz7606": 7646, "mz7607": 7647, "mz7608": 7648, "mz7609": 7649, "mz7610": 7650, "mz7611": 7651, "mz7612": 7652, "mz7613": 7653, "mz7614": 7654, "mz7615": 7655, "mz7616": 7656, "mz7617": 7657, "mz7618": 7658, "mz7619": 7659, "mz7620": 7660, "mz7621": 7661, "mz7622": 7662, "mz7623": 7663, "mz7624": 7664, "mz7625": 7665, "mz7626": 7666, "mz7627": 7667, "mz7628": 7668, "mz7629": 7669, "mz7630": 7670, "mz7631": 7671, "mz7632": 7672, "mz7633": 7673, "mz7634": 7674, "mz7635": 7675, "mz7636": 7676, "mz7637": 7677, "mz7638": 7678, "mz7639": 7679, "mz7640": 7680, "mz7641": 7681, "mz7642": 7682, "mz7643": 7683, "mz7644": 7684, "mz7645": 7685, "mz7646": 7686, "mz7647": 7687, "mz7648": 7688, "mz7649": 7689, "mz7650": 7690, "mz7651": 7691, "mz7652": 7692, "mz7653": 7693, "mz7654": 7694, "mz7655": 7695, "mz7656": 7696, "mz7657": 7697, "mz7658": 7698, "mz7659": 7699, "mz7660": 7700, "mz7661": 7701, "mz7662": 7702, "mz7663": 7703, "mz7664": 7704, "mz7665": 7705, "mz7666": 7706, "mz7667": 7707, "mz7668": 7708, "mz7669": 7709, "mz7670": 7710, "mz7671": 7711, "mz7672": 7712, "mz7673": 7713, "mz7674": 7714, "mz7675": 7715, "mz7676": 7716, "mz7677": 7717, "mz7678": 7718, "mz7679": 7719, "mz7680": 7720, "mz7681": 7721, "mz7682": 7722, "mz7683": 7723, "mz7684": 7724, "mz7685": 7725, "mz7686": 7726, "mz7687": 7727, "mz7688": 7728, "mz7689": 7729, "mz7690": 7730, "mz7691": 7731, "mz7692": 7732, "mz7693": 7733, "mz7694": 7734, "mz7695": 7735, "mz7696": 7736, "mz7697": 7737, "mz7698": 7738, "mz7699": 7739, "mz7700": 7740, "mz7701": 7741, "mz7702": 7742, "mz7703": 7743, "mz7704": 7744, "mz7705": 7745, "mz7706": 7746, "mz7707": 7747, "mz7708": 7748, "mz7709": 7749, "mz7710": 7750, "mz7711": 7751, "mz7712": 7752, "mz7713": 7753, "mz7714": 7754, "mz7715": 7755, "mz7716": 7756, "mz7717": 7757, "mz7718": 7758, "mz7719": 7759, "mz7720": 7760, "mz7721": 7761, "mz7722": 7762, "mz7723": 7763, "mz7724": 7764, "mz7725": 7765, "mz7726": 7766, "mz7727": 7767, "mz7728": 7768, "mz7729": 7769, "mz7730": 7770, "mz7731": 7771, "mz7732": 7772, "mz7733": 7773, "mz7734": 7774, "mz7735": 7775, "mz7736": 7776, "mz7737": 7777, "mz7738": 7778, "mz7739": 7779, "mz7740": 7780, "mz7741": 7781, "mz7742": 7782, "mz7743": 7783, "mz7744": 7784, "mz7745": 7785, "mz7746": 7786, "mz7747": 7787, "mz7748": 7788, "mz7749": 7789, "mz7750": 7790, "mz7751": 7791, "mz7752": 7792, "mz7753": 7793, "mz7754": 7794, "mz7755": 7795, "mz7756": 7796, "mz7757": 7797, "mz7758": 7798, "mz7759": 7799, "mz7760": 7800, "mz7761": 7801, "mz7762": 7802, "mz7763": 7803, "mz7764": 7804, "mz7765": 7805, "mz7766": 7806, "mz7767": 7807, "mz7768": 7808, "mz7769": 7809, "mz7770": 7810, "mz7771": 7811, "mz7772": 7812, "mz7773": 7813, "mz7774": 7814, "mz7775": 7815, "mz7776": 7816, "mz7777": 7817, "mz7778": 7818, "mz7779": 7819, "mz7780": 7820, "mz7781": 7821, "mz7782": 7822, "mz7783": 7823, "mz7784": 7824, "mz7785": 7825, "mz7786": 7826, "mz7787": 7827, "mz7788": 7828, "mz7789": 7829, "mz7790": 7830, "mz7791": 7831, "mz7792": 7832, "mz7793": 7833, "mz7794": 7834, "mz7795": 7835, "mz7796": 7836, "mz7797": 7837, "mz7798": 7838, "mz7799": 7839, "mz7800": 7840, "mz7801": 7841, "mz7802": 7842, "mz7803": 7843, "mz7804": 7844, "mz7805": 7845, "mz7806": 7846, "mz7807": 7847, "mz7808": 7848, "mz7809": 7849, "mz7810": 7850, "mz7811": 7851, "mz7812": 7852, "mz7813": 7853, "mz7814": 7854, "mz7815": 7855, "mz7816": 7856, "mz7817": 7857, "mz7818": 7858, "mz7819": 7859, "mz7820": 7860, "mz7821": 7861, "mz7822": 7862, "mz7823": 7863, "mz7824": 7864, "mz7825": 7865, "mz7826": 7866, "mz7827": 7867, "mz7828": 7868, "mz7829": 7869, "mz7830": 7870, "mz7831": 7871, "mz7832": 7872, "mz7833": 7873, "mz7834": 7874, "mz7835": 7875, "mz7836": 7876, "mz7837": 7877, "mz7838": 7878, "mz7839": 7879, "mz7840": 7880, "mz7841": 7881, "mz7842": 7882, "mz7843": 7883, "mz7844": 7884, "mz7845": 7885, "mz7846": 7886, "mz7847": 7887, "mz7848": 7888, "mz7849": 7889, "mz7850": 7890, "mz7851": 7891, "mz7852": 7892, "mz7853": 7893, "mz7854": 7894, "mz7855": 7895, "mz7856": 7896, "mz7857": 7897, "mz7858": 7898, "mz7859": 7899, "mz7860": 7900, "mz7861": 7901, "mz7862": 7902, "mz7863": 7903, "mz7864": 7904, "mz7865": 7905, "mz7866": 7906, "mz7867": 7907, "mz7868": 7908, "mz7869": 7909, "mz7870": 7910, "mz7871": 7911, "mz7872": 7912, "mz7873": 7913, "mz7874": 7914, "mz7875": 7915, "mz7876": 7916, "mz7877": 7917, "mz7878": 7918, "mz7879": 7919, "mz7880": 7920, "mz7881": 7921, "mz7882": 7922, "mz7883": 7923, "mz7884": 7924, "mz7885": 7925, "mz7886": 7926, "mz7887": 7927, "mz7888": 7928, "mz7889": 7929, "mz7890": 7930, "mz7891": 7931, "mz7892": 7932, "mz7893": 7933, "mz7894": 7934, "mz7895": 7935, "mz7896": 7936, "mz7897": 7937, "mz7898": 7938, "mz7899": 7939, "mz7900": 7940, "mz7901": 7941, "mz7902": 7942, "mz7903": 7943, "mz7904": 7944, "mz7905": 7945, "mz7906": 7946, "mz7907": 7947, "mz7908": 7948, "mz7909": 7949, "mz7910": 7950, "mz7911": 7951, "mz7912": 7952, "mz7913": 7953, "mz7914": 7954, "mz7915": 7955, "mz7916": 7956, "mz7917": 7957, "mz7918": 7958, "mz7919": 7959, "mz7920": 7960, "mz7921": 7961, "mz7922": 7962, "mz7923": 7963, "mz7924": 7964, "mz7925": 7965, "mz7926": 7966, "mz7927": 7967, "mz7928": 7968, "mz7929": 7969, "mz7930": 7970, "mz7931": 7971, "mz7932": 7972, "mz7933": 7973, "mz7934": 7974, "mz7935": 7975, "mz7936": 7976, "mz7937": 7977, "mz7938": 7978, "mz7939": 7979, "mz7940": 7980, "mz7941": 7981, "mz7942": 7982, "mz7943": 7983, "mz7944": 7984, "mz7945": 7985, "mz7946": 7986, "mz7947": 7987, "mz7948": 7988, "mz7949": 7989, "mz7950": 7990, "mz7951": 7991, "mz7952": 7992, "mz7953": 7993, "mz7954": 7994, "mz7955": 7995, "mz7956": 7996, "mz7957": 7997, "mz7958": 7998, "mz7959": 7999, "mz7960": 8000, "mz7961": 8001, "mz7962": 8002, "mz7963": 8003, "mz7964": 8004, "mz7965": 8005, "mz7966": 8006, "mz7967": 8007, "mz7968": 8008, "mz7969": 8009, "mz7970": 8010, "mz7971": 8011, "mz7972": 8012, "mz7973": 8013, "mz7974": 8014, "mz7975": 8015, "mz7976": 8016, "mz7977": 8017, "mz7978": 8018, "mz7979": 8019, "mz7980": 8020, "mz7981": 8021, "mz7982": 8022, "mz7983": 8023, "mz7984": 8024, "mz7985": 8025, "mz7986": 8026, "mz7987": 8027, "mz7988": 8028, "mz7989": 8029, "mz7990": 8030, "mz7991": 8031, "mz7992": 8032, "mz7993": 8033, "mz7994": 8034, "mz7995": 8035, "mz7996": 8036, "mz7997": 8037, "mz7998": 8038, "mz7999": 8039, "mz8000": 8040, "mz8001": 8041, "mz8002": 8042, "mz8003": 8043, "mz8004": 8044, "mz8005": 8045, "mz8006": 8046, "mz8007": 8047, "mz8008": 8048, "mz8009": 8049, "mz8010": 8050, "mz8011": 8051, "mz8012": 8052, "mz8013": 8053, "mz8014": 8054, "mz8015": 8055, "mz8016": 8056, "mz8017": 8057, "mz8018": 8058, "mz8019": 8059, "mz8020": 8060, "mz8021": 8061, "mz8022": 8062, "mz8023": 8063, "mz8024": 8064, "mz8025": 8065, "mz8026": 8066, "mz8027": 8067, "mz8028": 8068, "mz8029": 8069, "mz8030": 8070, "mz8031": 8071, "mz8032": 8072, "mz8033": 8073, "mz8034": 8074, "mz8035": 8075, "mz8036": 8076, "mz8037": 8077, "mz8038": 8078, "mz8039": 8079, "mz8040": 8080, "mz8041": 8081, "mz8042": 8082, "mz8043": 8083, "mz8044": 8084, "mz8045": 8085, "mz8046": 8086, "mz8047": 8087, "mz8048": 8088, "mz8049": 8089, "mz8050": 8090, "mz8051": 8091, "mz8052": 8092, "mz8053": 8093, "mz8054": 8094, "mz8055": 8095, "mz8056": 8096, "mz8057": 8097, "mz8058": 8098, "mz8059": 8099, "mz8060": 8100, "mz8061": 8101, "mz8062": 8102, "mz8063": 8103, "mz8064": 8104, "mz8065": 8105, "mz8066": 8106, "mz8067": 8107, "mz8068": 8108, "mz8069": 8109, "mz8070": 8110, "mz8071": 8111, "mz8072": 8112, "mz8073": 8113, "mz8074": 8114, "mz8075": 8115, "mz8076": 8116, "mz8077": 8117, "mz8078": 8118, "mz8079": 8119, "mz8080": 8120, "mz8081": 8121, "mz8082": 8122, "mz8083": 8123, "mz8084": 8124, "mz8085": 8125, "mz8086": 8126, "mz8087": 8127, "mz8088": 8128, "mz8089": 8129, "mz8090": 8130, "mz8091": 8131, "mz8092": 8132, "mz8093": 8133, "mz8094": 8134, "mz8095": 8135, "mz8096": 8136, "mz8097": 8137, "mz8098": 8138, "mz8099": 8139, "mz8100": 8140, "mz8101": 8141, "mz8102": 8142, "mz8103": 8143, "mz8104": 8144, "mz8105": 8145, "mz8106": 8146, "mz8107": 8147, "mz8108": 8148, "mz8109": 8149, "mz8110": 8150, "mz8111": 8151, "mz8112": 8152, "mz8113": 8153, "mz8114": 8154, "mz8115": 8155, "mz8116": 8156, "mz8117": 8157, "mz8118": 8158, "mz8119": 8159, "mz8120": 8160, "mz8121": 8161, "mz8122": 8162, "mz8123": 8163, "mz8124": 8164, "mz8125": 8165, "mz8126": 8166, "mz8127": 8167, "mz8128": 8168, "mz8129": 8169, "mz8130": 8170, "mz8131": 8171, "mz8132": 8172, "mz8133": 8173, "mz8134": 8174, "mz8135": 8175, "mz8136": 8176, "mz8137": 8177, "mz8138": 8178, "mz8139": 8179, "mz8140": 8180, "mz8141": 8181, "mz8142": 8182, "mz8143": 8183, "mz8144": 8184, "mz8145": 8185, "mz8146": 8186, "mz8147": 8187, "mz8148": 8188, "mz8149": 8189, "mz8150": 8190, "mz8151": 8191, "mz8152": 8192, "mz8153": 8193, "mz8154": 8194, "mz8155": 8195, "mz8156": 8196, "mz8157": 8197, "mz8158": 8198, "mz8159": 8199, "mz8160": 8200, "mz8161": 8201, "mz8162": 8202, "mz8163": 8203, "mz8164": 8204, "mz8165": 8205, "mz8166": 8206, "mz8167": 8207, "mz8168": 8208, "mz8169": 8209, "mz8170": 8210, "mz8171": 8211, "mz8172": 8212, "mz8173": 8213, "mz8174": 8214, "mz8175": 8215, "mz8176": 8216, "mz8177": 8217, "mz8178": 8218, "mz8179": 8219, "mz8180": 8220, "mz8181": 8221, "mz8182": 8222, "mz8183": 8223, "mz8184": 8224, "mz8185": 8225, "mz8186": 8226, "mz8187": 8227, "mz8188": 8228, "mz8189": 8229, "mz8190": 8230, "mz8191": 8231, "mz8192": 8232, "mz8193": 8233, "mz8194": 8234, "mz8195": 8235, "mz8196": 8236, "mz8197": 8237, "mz8198": 8238, "mz8199": 8239, "mz8200": 8240, "mz8201": 8241, "mz8202": 8242, "mz8203": 8243, "mz8204": 8244, "mz8205": 8245, "mz8206": 8246, "mz8207": 8247, "mz8208": 8248, "mz8209": 8249, "mz8210": 8250, "mz8211": 8251, "mz8212": 8252, "mz8213": 8253, "mz8214": 8254, "mz8215": 8255, "mz8216": 8256, "mz8217": 8257, "mz8218": 8258, "mz8219": 8259, "mz8220": 8260, "mz8221": 8261, "mz8222": 8262, "mz8223": 8263, "mz8224": 8264, "mz8225": 8265, "mz8226": 8266, "mz8227": 8267, "mz8228": 8268, "mz8229": 8269, "mz8230": 8270, "mz8231": 8271, "mz8232": 8272, "mz8233": 8273, "mz8234": 8274, "mz8235": 8275, "mz8236": 8276, "mz8237": 8277, "mz8238": 8278, "mz8239": 8279, "mz8240": 8280, "mz8241": 8281, "mz8242": 8282, "mz8243": 8283, "mz8244": 8284, "mz8245": 8285, "mz8246": 8286, "mz8247": 8287, "mz8248": 8288, "mz8249": 8289, "mz8250": 8290, "mz8251": 8291, "mz8252": 8292, "mz8253": 8293, "mz8254": 8294, "mz8255": 8295, "mz8256": 8296, "mz8257": 8297, "mz8258": 8298, "mz8259": 8299, "mz8260": 8300, "mz8261": 8301, "mz8262": 8302, "mz8263": 8303, "mz8264": 8304, "mz8265": 8305, "mz8266": 8306, "mz8267": 8307, "mz8268": 8308, "mz8269": 8309, "mz8270": 8310, "mz8271": 8311, "mz8272": 8312, "mz8273": 8313, "mz8274": 8314, "mz8275": 8315, "mz8276": 8316, "mz8277": 8317, "mz8278": 8318, "mz8279": 8319, "mz8280": 8320, "mz8281": 8321, "mz8282": 8322, "mz8283": 8323, "mz8284": 8324, "mz8285": 8325, "mz8286": 8326, "mz8287": 8327, "mz8288": 8328, "mz8289": 8329, "mz8290": 8330, "mz8291": 8331, "mz8292": 8332, "mz8293": 8333, "mz8294": 8334, "mz8295": 8335, "mz8296": 8336, "mz8297": 8337, "mz8298": 8338, "mz8299": 8339, "mz8300": 8340, "mz8301": 8341, "mz8302": 8342, "mz8303": 8343, "mz8304": 8344, "mz8305": 8345, "mz8306": 8346, "mz8307": 8347, "mz8308": 8348, "mz8309": 8349, "mz8310": 8350, "mz8311": 8351, "mz8312": 8352, "mz8313": 8353, "mz8314": 8354, "mz8315": 8355, "mz8316": 8356, "mz8317": 8357, "mz8318": 8358, "mz8319": 8359, "mz8320": 8360, "mz8321": 8361, "mz8322": 8362, "mz8323": 8363, "mz8324": 8364, "mz8325": 8365, "mz8326": 8366, "mz8327": 8367, "mz8328": 8368, "mz8329": 8369, "mz8330": 8370, "mz8331": 8371, "mz8332": 8372, "mz8333": 8373, "mz8334": 8374, "mz8335": 8375, "mz8336": 8376, "mz8337": 8377, "mz8338": 8378, "mz8339": 8379, "mz8340": 8380, "mz8341": 8381, "mz8342": 8382, "mz8343": 8383, "mz8344": 8384, "mz8345": 8385, "mz8346": 8386, "mz8347": 8387, "mz8348": 8388, "mz8349": 8389, "mz8350": 8390, "mz8351": 8391, "mz8352": 8392, "mz8353": 8393, "mz8354": 8394, "mz8355": 8395, "mz8356": 8396, "mz8357": 8397, "mz8358": 8398, "mz8359": 8399, "mz8360": 8400, "mz8361": 8401, "mz8362": 8402, "mz8363": 8403, "mz8364": 8404, "mz8365": 8405, "mz8366": 8406, "mz8367": 8407, "mz8368": 8408, "mz8369": 8409, "mz8370": 8410, "mz8371": 8411, "mz8372": 8412, "mz8373": 8413, "mz8374": 8414, "mz8375": 8415, "mz8376": 8416, "mz8377": 8417, "mz8378": 8418, "mz8379": 8419, "mz8380": 8420, "mz8381": 8421, "mz8382": 8422, "mz8383": 8423, "mz8384": 8424, "mz8385": 8425, "mz8386": 8426, "mz8387": 8427, "mz8388": 8428, "mz8389": 8429, "mz8390": 8430, "mz8391": 8431, "mz8392": 8432, "mz8393": 8433, "mz8394": 8434, "mz8395": 8435, "mz8396": 8436, "mz8397": 8437, "mz8398": 8438, "mz8399": 8439, "mz8400": 8440, "mz8401": 8441, "mz8402": 8442, "mz8403": 8443, "mz8404": 8444, "mz8405": 8445, "mz8406": 8446, "mz8407": 8447, "mz8408": 8448, "mz8409": 8449, "mz8410": 8450, "mz8411": 8451, "mz8412": 8452, "mz8413": 8453, "mz8414": 8454, "mz8415": 8455, "mz8416": 8456, "mz8417": 8457, "mz8418": 8458, "mz8419": 8459, "mz8420": 8460, "mz8421": 8461, "mz8422": 8462, "mz8423": 8463, "mz8424": 8464, "mz8425": 8465, "mz8426": 8466, "mz8427": 8467, "mz8428": 8468, "mz8429": 8469, "mz8430": 8470, "mz8431": 8471, "mz8432": 8472, "mz8433": 8473, "mz8434": 8474, "mz8435": 8475, "mz8436": 8476, "mz8437": 8477, "mz8438": 8478, "mz8439": 8479, "mz8440": 8480, "mz8441": 8481, "mz8442": 8482, "mz8443": 8483, "mz8444": 8484, "mz8445": 8485, "mz8446": 8486, "mz8447": 8487, "mz8448": 8488, "mz8449": 8489, "mz8450": 8490, "mz8451": 8491, "mz8452": 8492, "mz8453": 8493, "mz8454": 8494, "mz8455": 8495, "mz8456": 8496, "mz8457": 8497, "mz8458": 8498, "mz8459": 8499, "mz8460": 8500, "mz8461": 8501, "mz8462": 8502, "mz8463": 8503, "mz8464": 8504, "mz8465": 8505, "mz8466": 8506, "mz8467": 8507, "mz8468": 8508, "mz8469": 8509, "mz8470": 8510, "mz8471": 8511, "mz8472": 8512, "mz8473": 8513, "mz8474": 8514, "mz8475": 8515, "mz8476": 8516, "mz8477": 8517, "mz8478": 8518, "mz8479": 8519, "mz8480": 8520, "mz8481": 8521, "mz8482": 8522, "mz8483": 8523, "mz8484": 8524, "mz8485": 8525, "mz8486": 8526, "mz8487": 8527, "mz8488": 8528, "mz8489": 8529, "mz8490": 8530, "mz8491": 8531, "mz8492": 8532, "mz8493": 8533, "mz8494": 8534, "mz8495": 8535, "mz8496": 8536, "mz8497": 8537, "mz8498": 8538, "mz8499": 8539, "mz8500": 8540, "mz8501": 8541, "mz8502": 8542, "mz8503": 8543, "mz8504": 8544, "mz8505": 8545, "mz8506": 8546, "mz8507": 8547, "mz8508": 8548, "mz8509": 8549, "mz8510": 8550, "mz8511": 8551, "mz8512": 8552, "mz8513": 8553, "mz8514": 8554, "mz8515": 8555, "mz8516": 8556, "mz8517": 8557, "mz8518": 8558, "mz8519": 8559, "mz8520": 8560, "mz8521": 8561, "mz8522": 8562, "mz8523": 8563, "mz8524": 8564, "mz8525": 8565, "mz8526": 8566, "mz8527": 8567, "mz8528": 8568, "mz8529": 8569, "mz8530": 8570, "mz8531": 8571, "mz8532": 8572, "mz8533": 8573, "mz8534": 8574, "mz8535": 8575, "mz8536": 8576, "mz8537": 8577, "mz8538": 8578, "mz8539": 8579, "mz8540": 8580, "mz8541": 8581, "mz8542": 8582, "mz8543": 8583, "mz8544": 8584, "mz8545": 8585, "mz8546": 8586, "mz8547": 8587, "mz8548": 8588, "mz8549": 8589, "mz8550": 8590, "mz8551": 8591, "mz8552": 8592, "mz8553": 8593, "mz8554": 8594, "mz8555": 8595, "mz8556": 8596, "mz8557": 8597, "mz8558": 8598, "mz8559": 8599, "mz8560": 8600, "mz8561": 8601, "mz8562": 8602, "mz8563": 8603, "mz8564": 8604, "mz8565": 8605, "mz8566": 8606, "mz8567": 8607, "mz8568": 8608, "mz8569": 8609, "mz8570": 8610, "mz8571": 8611, "mz8572": 8612, "mz8573": 8613, "mz8574": 8614, "mz8575": 8615, "mz8576": 8616, "mz8577": 8617, "mz8578": 8618, "mz8579": 8619, "mz8580": 8620, "mz8581": 8621, "mz8582": 8622, "mz8583": 8623, "mz8584": 8624, "mz8585": 8625, "mz8586": 8626, "mz8587": 8627, "mz8588": 8628, "mz8589": 8629, "mz8590": 8630, "mz8591": 8631, "mz8592": 8632, "mz8593": 8633, "mz8594": 8634, "mz8595": 8635, "mz8596": 8636, "mz8597": 8637, "mz8598": 8638, "mz8599": 8639, "mz8600": 8640, "mz8601": 8641, "mz8602": 8642, "mz8603": 8643, "mz8604": 8644, "mz8605": 8645, "mz8606": 8646, "mz8607": 8647, "mz8608": 8648, "mz8609": 8649, "mz8610": 8650, "mz8611": 8651, "mz8612": 8652, "mz8613": 8653, "mz8614": 8654, "mz8615": 8655, "mz8616": 8656, "mz8617": 8657, "mz8618": 8658, "mz8619": 8659, "mz8620": 8660, "mz8621": 8661, "mz8622": 8662, "mz8623": 8663, "mz8624": 8664, "mz8625": 8665, "mz8626": 8666, "mz8627": 8667, "mz8628": 8668, "mz8629": 8669, "mz8630": 8670, "mz8631": 8671, "mz8632": 8672, "mz8633": 8673, "mz8634": 8674, "mz8635": 8675, "mz8636": 8676, "mz8637": 8677, "mz8638": 8678, "mz8639": 8679, "mz8640": 8680, "mz8641": 8681, "mz8642": 8682, "mz8643": 8683, "mz8644": 8684, "mz8645": 8685, "mz8646": 8686, "mz8647": 8687, "mz8648": 8688, "mz8649": 8689, "mz8650": 8690, "mz8651": 8691, "mz8652": 8692, "mz8653": 8693, "mz8654": 8694, "mz8655": 8695, "mz8656": 8696, "mz8657": 8697, "mz8658": 8698, "mz8659": 8699, "mz8660": 8700, "mz8661": 8701, "mz8662": 8702, "mz8663": 8703, "mz8664": 8704, "mz8665": 8705, "mz8666": 8706, "mz8667": 8707, "mz8668": 8708, "mz8669": 8709, "mz8670": 8710, "mz8671": 8711, "mz8672": 8712, "mz8673": 8713, "mz8674": 8714, "mz8675": 8715, "mz8676": 8716, "mz8677": 8717, "mz8678": 8718, "mz8679": 8719, "mz8680": 8720, "mz8681": 8721, "mz8682": 8722, "mz8683": 8723, "mz8684": 8724, "mz8685": 8725, "mz8686": 8726, "mz8687": 8727, "mz8688": 8728, "mz8689": 8729, "mz8690": 8730, "mz8691": 8731, "mz8692": 8732, "mz8693": 8733, "mz8694": 8734, "mz8695": 8735, "mz8696": 8736, "mz8697": 8737, "mz8698": 8738, "mz8699": 8739, "mz8700": 8740, "mz8701": 8741, "mz8702": 8742, "mz8703": 8743, "mz8704": 8744, "mz8705": 8745, "mz8706": 8746, "mz8707": 8747, "mz8708": 8748, "mz8709": 8749, "mz8710": 8750, "mz8711": 8751, "mz8712": 8752, "mz8713": 8753, "mz8714": 8754, "mz8715": 8755, "mz8716": 8756, "mz8717": 8757, "mz8718": 8758, "mz8719": 8759, "mz8720": 8760, "mz8721": 8761, "mz8722": 8762, "mz8723": 8763, "mz8724": 8764, "mz8725": 8765, "mz8726": 8766, "mz8727": 8767, "mz8728": 8768, "mz8729": 8769, "mz8730": 8770, "mz8731": 8771, "mz8732": 8772, "mz8733": 8773, "mz8734": 8774, "mz8735": 8775, "mz8736": 8776, "mz8737": 8777, "mz8738": 8778, "mz8739": 8779, "mz8740": 8780, "mz8741": 8781, "mz8742": 8782, "mz8743": 8783, "mz8744": 8784, "mz8745": 8785, "mz8746": 8786, "mz8747": 8787, "mz8748": 8788, "mz8749": 8789, "mz8750": 8790, "mz8751": 8791, "mz8752": 8792, "mz8753": 8793, "mz8754": 8794, "mz8755": 8795, "mz8756": 8796, "mz8757": 8797, "mz8758": 8798, "mz8759": 8799, "mz8760": 8800, "mz8761": 8801, "mz8762": 8802, "mz8763": 8803, "mz8764": 8804, "mz8765": 8805, "mz8766": 8806, "mz8767": 8807, "mz8768": 8808, "mz8769": 8809, "mz8770": 8810, "mz8771": 8811, "mz8772": 8812, "mz8773": 8813, "mz8774": 8814, "mz8775": 8815, "mz8776": 8816, "mz8777": 8817, "mz8778": 8818, "mz8779": 8819, "mz8780": 8820, "mz8781": 8821, "mz8782": 8822, "mz8783": 8823, "mz8784": 8824, "mz8785": 8825, "mz8786": 8826, "mz8787": 8827, "mz8788": 8828, "mz8789": 8829, "mz8790": 8830, "mz8791": 8831, "mz8792": 8832, "mz8793": 8833, "mz8794": 8834, "mz8795": 8835, "mz8796": 8836, "mz8797": 8837, "mz8798": 8838, "mz8799": 8839, "mz8800": 8840, "mz8801": 8841, "mz8802": 8842, "mz8803": 8843, "mz8804": 8844, "mz8805": 8845, "mz8806": 8846, "mz8807": 8847, "mz8808": 8848, "mz8809": 8849, "mz8810": 8850, "mz8811": 8851, "mz8812": 8852, "mz8813": 8853, "mz8814": 8854, "mz8815": 8855, "mz8816": 8856, "mz8817": 8857, "mz8818": 8858, "mz8819": 8859, "mz8820": 8860, "mz8821": 8861, "mz8822": 8862, "mz8823": 8863, "mz8824": 8864, "mz8825": 8865, "mz8826": 8866, "mz8827": 8867, "mz8828": 8868, "mz8829": 8869, "mz8830": 8870, "mz8831": 8871, "mz8832": 8872, "mz8833": 8873, "mz8834": 8874, "mz8835": 8875, "mz8836": 8876, "mz8837": 8877, "mz8838": 8878, "mz8839": 8879, "mz8840": 8880, "mz8841": 8881, "mz8842": 8882, "mz8843": 8883, "mz8844": 8884, "mz8845": 8885, "mz8846": 8886, "mz8847": 8887, "mz8848": 8888, "mz8849": 8889, "mz8850": 8890, "mz8851": 8891, "mz8852": 8892, "mz8853": 8893, "mz8854": 8894, "mz8855": 8895, "mz8856": 8896, "mz8857": 8897, "mz8858": 8898, "mz8859": 8899, "mz8860": 8900, "mz8861": 8901, "mz8862": 8902, "mz8863": 8903, "mz8864": 8904, "mz8865": 8905, "mz8866": 8906, "mz8867": 8907, "mz8868": 8908, "mz8869": 8909, "mz8870": 8910, "mz8871": 8911, "mz8872": 8912, "mz8873": 8913, "mz8874": 8914, "mz8875": 8915, "mz8876": 8916, "mz8877": 8917, "mz8878": 8918, "mz8879": 8919, "mz8880": 8920, "mz8881": 8921, "mz8882": 8922, "mz8883": 8923, "mz8884": 8924, "mz8885": 8925, "mz8886": 8926, "mz8887": 8927, "mz8888": 8928, "mz8889": 8929, "mz8890": 8930, "mz8891": 8931, "mz8892": 8932, "mz8893": 8933, "mz8894": 8934, "mz8895": 8935, "mz8896": 8936, "mz8897": 8937, "mz8898": 8938, "mz8899": 8939, "mz8900": 8940, "mz8901": 8941, "mz8902": 8942, "mz8903": 8943, "mz8904": 8944, "mz8905": 8945, "mz8906": 8946, "mz8907": 8947, "mz8908": 8948, "mz8909": 8949, "mz8910": 8950, "mz8911": 8951, "mz8912": 8952, "mz8913": 8953, "mz8914": 8954, "mz8915": 8955, "mz8916": 8956, "mz8917": 8957, "mz8918": 8958, "mz8919": 8959, "mz8920": 8960, "mz8921": 8961, "mz8922": 8962, "mz8923": 8963, "mz8924": 8964, "mz8925": 8965, "mz8926": 8966, "mz8927": 8967, "mz8928": 8968, "mz8929": 8969, "mz8930": 8970, "mz8931": 8971, "mz8932": 8972, "mz8933": 8973, "mz8934": 8974, "mz8935": 8975, "mz8936": 8976, "mz8937": 8977, "mz8938": 8978, "mz8939": 8979, "mz8940": 8980, "mz8941": 8981, "mz8942": 8982, "mz8943": 8983, "mz8944": 8984, "mz8945": 8985, "mz8946": 8986, "mz8947": 8987, "mz8948": 8988, "mz8949": 8989, "mz8950": 8990, "mz8951": 8991, "mz8952": 8992, "mz8953": 8993, "mz8954": 8994, "mz8955": 8995, "mz8956": 8996, "mz8957": 8997, "mz8958": 8998, "mz8959": 8999, "mz8960": 9000, "mz8961": 9001, "mz8962": 9002, "mz8963": 9003, "mz8964": 9004, "mz8965": 9005, "mz8966": 9006, "mz8967": 9007, "mz8968": 9008, "mz8969": 9009, "mz8970": 9010, "mz8971": 9011, "mz8972": 9012, "mz8973": 9013, "mz8974": 9014, "mz8975": 9015, "mz8976": 9016, "mz8977": 9017, "mz8978": 9018, "mz8979": 9019, "mz8980": 9020, "mz8981": 9021, "mz8982": 9022, "mz8983": 9023, "mz8984": 9024, "mz8985": 9025, "mz8986": 9026, "mz8987": 9027, "mz8988": 9028, "mz8989": 9029, "mz8990": 9030, "mz8991": 9031, "mz8992": 9032, "mz8993": 9033, "mz8994": 9034, "mz8995": 9035, "mz8996": 9036, "mz8997": 9037, "mz8998": 9038, "mz8999": 9039, "mz9000": 9040, "mz9001": 9041, "mz9002": 9042, "mz9003": 9043, "mz9004": 9044, "mz9005": 9045, "mz9006": 9046, "mz9007": 9047, "mz9008": 9048, "mz9009": 9049, "mz9010": 9050, "mz9011": 9051, "mz9012": 9052, "mz9013": 9053, "mz9014": 9054, "mz9015": 9055, "mz9016": 9056, "mz9017": 9057, "mz9018": 9058, "mz9019": 9059, "mz9020": 9060, "mz9021": 9061, "mz9022": 9062, "mz9023": 9063, "mz9024": 9064, "mz9025": 9065, "mz9026": 9066, "mz9027": 9067, "mz9028": 9068, "mz9029": 9069, "mz9030": 9070, "mz9031": 9071, "mz9032": 9072, "mz9033": 9073, "mz9034": 9074, "mz9035": 9075, "mz9036": 9076, "mz9037": 9077, "mz9038": 9078, "mz9039": 9079, "mz9040": 9080, "mz9041": 9081, "mz9042": 9082, "mz9043": 9083, "mz9044": 9084, "mz9045": 9085, "mz9046": 9086, "mz9047": 9087, "mz9048": 9088, "mz9049": 9089, "mz9050": 9090, "mz9051": 9091, "mz9052": 9092, "mz9053": 9093, "mz9054": 9094, "mz9055": 9095, "mz9056": 9096, "mz9057": 9097, "mz9058": 9098, "mz9059": 9099, "mz9060": 9100, "mz9061": 9101, "mz9062": 9102, "mz9063": 9103, "mz9064": 9104, "mz9065": 9105, "mz9066": 9106, "mz9067": 9107, "mz9068": 9108, "mz9069": 9109, "mz9070": 9110, "mz9071": 9111, "mz9072": 9112, "mz9073": 9113, "mz9074": 9114, "mz9075": 9115, "mz9076": 9116, "mz9077": 9117, "mz9078": 9118, "mz9079": 9119, "mz9080": 9120, "mz9081": 9121, "mz9082": 9122, "mz9083": 9123, "mz9084": 9124, "mz9085": 9125, "mz9086": 9126, "mz9087": 9127, "mz9088": 9128, "mz9089": 9129, "mz9090": 9130, "mz9091": 9131, "mz9092": 9132, "mz9093": 9133, "mz9094": 9134, "mz9095": 9135, "mz9096": 9136, "mz9097": 9137, "mz9098": 9138, "mz9099": 9139, "mz9100": 9140, "mz9101": 9141, "mz9102": 9142, "mz9103": 9143, "mz9104": 9144, "mz9105": 9145, "mz9106": 9146, "mz9107": 9147, "mz9108": 9148, "mz9109": 9149, "mz9110": 9150, "mz9111": 9151, "mz9112": 9152, "mz9113": 9153, "mz9114": 9154, "mz9115": 9155, "mz9116": 9156, "mz9117": 9157, "mz9118": 9158, "mz9119": 9159, "mz9120": 9160, "mz9121": 9161, "mz9122": 9162, "mz9123": 9163, "mz9124": 9164, "mz9125": 9165, "mz9126": 9166, "mz9127": 9167, "mz9128": 9168, "mz9129": 9169, "mz9130": 9170, "mz9131": 9171, "mz9132": 9172, "mz9133": 9173, "mz9134": 9174, "mz9135": 9175, "mz9136": 9176, "mz9137": 9177, "mz9138": 9178, "mz9139": 9179, "mz9140": 9180, "mz9141": 9181, "mz9142": 9182, "mz9143": 9183, "mz9144": 9184, "mz9145": 9185, "mz9146": 9186, "mz9147": 9187, "mz9148": 9188, "mz9149": 9189, "mz9150": 9190, "mz9151": 9191, "mz9152": 9192, "mz9153": 9193, "mz9154": 9194, "mz9155": 9195, "mz9156": 9196, "mz9157": 9197, "mz9158": 9198, "mz9159": 9199, "mz9160": 9200, "mz9161": 9201, "mz9162": 9202, "mz9163": 9203, "mz9164": 9204, "mz9165": 9205, "mz9166": 9206, "mz9167": 9207, "mz9168": 9208, "mz9169": 9209, "mz9170": 9210, "mz9171": 9211, "mz9172": 9212, "mz9173": 9213, "mz9174": 9214, "mz9175": 9215, "mz9176": 9216, "mz9177": 9217, "mz9178": 9218, "mz9179": 9219, "mz9180": 9220, "mz9181": 9221, "mz9182": 9222, "mz9183": 9223, "mz9184": 9224, "mz9185": 9225, "mz9186": 9226, "mz9187": 9227, "mz9188": 9228, "mz9189": 9229, "mz9190": 9230, "mz9191": 9231, "mz9192": 9232, "mz9193": 9233, "mz9194": 9234, "mz9195": 9235, "mz9196": 9236, "mz9197": 9237, "mz9198": 9238, "mz9199": 9239, "mz9200": 9240, "mz9201": 9241, "mz9202": 9242, "mz9203": 9243, "mz9204": 9244, "mz9205": 9245, "mz9206": 9246, "mz9207": 9247, "mz9208": 9248, "mz9209": 9249, "mz9210": 9250, "mz9211": 9251, "mz9212": 9252, "mz9213": 9253, "mz9214": 9254, "mz9215": 9255, "mz9216": 9256, "mz9217": 9257, "mz9218": 9258, "mz9219": 9259, "mz9220": 9260, "mz9221": 9261, "mz9222": 9262, "mz9223": 9263, "mz9224": 9264, "mz9225": 9265, "mz9226": 9266, "mz9227": 9267, "mz9228": 9268, "mz9229": 9269, "mz9230": 9270, "mz9231": 9271, "mz9232": 9272, "mz9233": 9273, "mz9234": 9274, "mz9235": 9275, "mz9236": 9276, "mz9237": 9277, "mz9238": 9278, "mz9239": 9279, "mz9240": 9280, "mz9241": 9281, "mz9242": 9282, "mz9243": 9283, "mz9244": 9284, "mz9245": 9285, "mz9246": 9286, "mz9247": 9287, "mz9248": 9288, "mz9249": 9289, "mz9250": 9290, "mz9251": 9291, "mz9252": 9292, "mz9253": 9293, "mz9254": 9294, "mz9255": 9295, "mz9256": 9296, "mz9257": 9297, "mz9258": 9298, "mz9259": 9299, "mz9260": 9300, "mz9261": 9301, "mz9262": 9302, "mz9263": 9303, "mz9264": 9304, "mz9265": 9305, "mz9266": 9306, "mz9267": 9307, "mz9268": 9308, "mz9269": 9309, "mz9270": 9310, "mz9271": 9311, "mz9272": 9312, "mz9273": 9313, "mz9274": 9314, "mz9275": 9315, "mz9276": 9316, "mz9277": 9317, "mz9278": 9318, "mz9279": 9319, "mz9280": 9320, "mz9281": 9321, "mz9282": 9322, "mz9283": 9323, "mz9284": 9324, "mz9285": 9325, "mz9286": 9326, "mz9287": 9327, "mz9288": 9328, "mz9289": 9329, "mz9290": 9330, "mz9291": 9331, "mz9292": 9332, "mz9293": 9333, "mz9294": 9334, "mz9295": 9335, "mz9296": 9336, "mz9297": 9337, "mz9298": 9338, "mz9299": 9339, "mz9300": 9340, "mz9301": 9341, "mz9302": 9342, "mz9303": 9343, "mz9304": 9344, "mz9305": 9345, "mz9306": 9346, "mz9307": 9347, "mz9308": 9348, "mz9309": 9349, "mz9310": 9350, "mz9311": 9351, "mz9312": 9352, "mz9313": 9353, "mz9314": 9354, "mz9315": 9355, "mz9316": 9356, "mz9317": 9357, "mz9318": 9358, "mz9319": 9359, "mz9320": 9360, "mz9321": 9361, "mz9322": 9362, "mz9323": 9363, "mz9324": 9364, "mz9325": 9365, "mz9326": 9366, "mz9327": 9367, "mz9328": 9368, "mz9329": 9369, "mz9330": 9370, "mz9331": 9371, "mz9332": 9372, "mz9333": 9373, "mz9334": 9374, "mz9335": 9375, "mz9336": 9376, "mz9337": 9377, "mz9338": 9378, "mz9339": 9379, "mz9340": 9380, "mz9341": 9381, "mz9342": 9382, "mz9343": 9383, "mz9344": 9384, "mz9345": 9385, "mz9346": 9386, "mz9347": 9387, "mz9348": 9388, "mz9349": 9389, "mz9350": 9390, "mz9351": 9391, "mz9352": 9392, "mz9353": 9393, "mz9354": 9394, "mz9355": 9395, "mz9356": 9396, "mz9357": 9397, "mz9358": 9398, "mz9359": 9399, "mz9360": 9400, "mz9361": 9401, "mz9362": 9402, "mz9363": 9403, "mz9364": 9404, "mz9365": 9405, "mz9366": 9406, "mz9367": 9407, "mz9368": 9408, "mz9369": 9409, "mz9370": 9410, "mz9371": 9411, "mz9372": 9412, "mz9373": 9413, "mz9374": 9414, "mz9375": 9415, "mz9376": 9416, "mz9377": 9417, "mz9378": 9418, "mz9379": 9419, "mz9380": 9420, "mz9381": 9421, "mz9382": 9422, "mz9383": 9423, "mz9384": 9424, "mz9385": 9425, "mz9386": 9426, "mz9387": 9427, "mz9388": 9428, "mz9389": 9429, "mz9390": 9430, "mz9391": 9431, "mz9392": 9432, "mz9393": 9433, "mz9394": 9434, "mz9395": 9435, "mz9396": 9436, "mz9397": 9437, "mz9398": 9438, "mz9399": 9439, "mz9400": 9440, "mz9401": 9441, "mz9402": 9442, "mz9403": 9443, "mz9404": 9444, "mz9405": 9445, "mz9406": 9446, "mz9407": 9447, "mz9408": 9448, "mz9409": 9449, "mz9410": 9450, "mz9411": 9451, "mz9412": 9452, "mz9413": 9453, "mz9414": 9454, "mz9415": 9455, "mz9416": 9456, "mz9417": 9457, "mz9418": 9458, "mz9419": 9459, "mz9420": 9460, "mz9421": 9461, "mz9422": 9462, "mz9423": 9463, "mz9424": 9464, "mz9425": 9465, "mz9426": 9466, "mz9427": 9467, "mz9428": 9468, "mz9429": 9469, "mz9430": 9470, "mz9431": 9471, "mz9432": 9472, "mz9433": 9473, "mz9434": 9474, "mz9435": 9475, "mz9436": 9476, "mz9437": 9477, "mz9438": 9478, "mz9439": 9479, "mz9440": 9480, "mz9441": 9481, "mz9442": 9482, "mz9443": 9483, "mz9444": 9484, "mz9445": 9485, "mz9446": 9486, "mz9447": 9487, "mz9448": 9488, "mz9449": 9489, "mz9450": 9490, "mz9451": 9491, "mz9452": 9492, "mz9453": 9493, "mz9454": 9494, "mz9455": 9495, "mz9456": 9496, "mz9457": 9497, "mz9458": 9498, "mz9459": 9499, "mz9460": 9500, "mz9461": 9501, "mz9462": 9502, "mz9463": 9503, "mz9464": 9504, "mz9465": 9505, "mz9466": 9506, "mz9467": 9507, "mz9468": 9508, "mz9469": 9509, "mz9470": 9510, "mz9471": 9511, "mz9472": 9512, "mz9473": 9513, "mz9474": 9514, "mz9475": 9515, "mz9476": 9516, "mz9477": 9517, "mz9478": 9518, "mz9479": 9519, "mz9480": 9520, "mz9481": 9521, "mz9482": 9522, "mz9483": 9523, "mz9484": 9524, "mz9485": 9525, "mz9486": 9526, "mz9487": 9527, "mz9488": 9528, "mz9489": 9529, "mz9490": 9530, "mz9491": 9531, "mz9492": 9532, "mz9493": 9533, "mz9494": 9534, "mz9495": 9535, "mz9496": 9536, "mz9497": 9537, "mz9498": 9538, "mz9499": 9539, "mz9500": 9540, "mz9501": 9541, "mz9502": 9542, "mz9503": 9543, "mz9504": 9544, "mz9505": 9545, "mz9506": 9546, "mz9507": 9547, "mz9508": 9548, "mz9509": 9549, "mz9510": 9550, "mz9511": 9551, "mz9512": 9552, "mz9513": 9553, "mz9514": 9554, "mz9515": 9555, "mz9516": 9556, "mz9517": 9557, "mz9518": 9558, "mz9519": 9559, "mz9520": 9560, "mz9521": 9561, "mz9522": 9562, "mz9523": 9563, "mz9524": 9564, "mz9525": 9565, "mz9526": 9566, "mz9527": 9567, "mz9528": 9568, "mz9529": 9569, "mz9530": 9570, "mz9531": 9571, "mz9532": 9572, "mz9533": 9573, "mz9534": 9574, "mz9535": 9575, "mz9536": 9576, "mz9537": 9577, "mz9538": 9578, "mz9539": 9579, "mz9540": 9580, "mz9541": 9581, "mz9542": 9582, "mz9543": 9583, "mz9544": 9584, "mz9545": 9585, "mz9546": 9586, "mz9547": 9587, "mz9548": 9588, "mz9549": 9589, "mz9550": 9590, "mz9551": 9591, "mz9552": 9592, "mz9553": 9593, "mz9554": 9594, "mz9555": 9595, "mz9556": 9596, "mz9557": 9597, "mz9558": 9598, "mz9559": 9599, "mz9560": 9600, "mz9561": 9601, "mz9562": 9602, "mz9563": 9603, "mz9564": 9604, "mz9565": 9605, "mz9566": 9606, "mz9567": 9607, "mz9568": 9608, "mz9569": 9609, "mz9570": 9610, "mz9571": 9611, "mz9572": 9612, "mz9573": 9613, "mz9574": 9614, "mz9575": 9615, "mz9576": 9616, "mz9577": 9617, "mz9578": 9618, "mz9579": 9619, "mz9580": 9620, "mz9581": 9621, "mz9582": 9622, "mz9583": 9623, "mz9584": 9624, "mz9585": 9625, "mz9586": 9626, "mz9587": 9627, "mz9588": 9628, "mz9589": 9629, "mz9590": 9630, "mz9591": 9631, "mz9592": 9632, "mz9593": 9633, "mz9594": 9634, "mz9595": 9635, "mz9596": 9636, "mz9597": 9637, "mz9598": 9638, "mz9599": 9639, "mz9600": 9640, "mz9601": 9641, "mz9602": 9642, "mz9603": 9643, "mz9604": 9644, "mz9605": 9645, "mz9606": 9646, "mz9607": 9647, "mz9608": 9648, "mz9609": 9649, "mz9610": 9650, "mz9611": 9651, "mz9612": 9652, "mz9613": 9653, "mz9614": 9654, "mz9615": 9655, "mz9616": 9656, "mz9617": 9657, "mz9618": 9658, "mz9619": 9659, "mz9620": 9660, "mz9621": 9661, "mz9622": 9662, "mz9623": 9663, "mz9624": 9664, "mz9625": 9665, "mz9626": 9666, "mz9627": 9667, "mz9628": 9668, "mz9629": 9669, "mz9630": 9670, "mz9631": 9671, "mz9632": 9672, "mz9633": 9673, "mz9634": 9674, "mz9635": 9675, "mz9636": 9676, "mz9637": 9677, "mz9638": 9678, "mz9639": 9679, "mz9640": 9680, "mz9641": 9681, "mz9642": 9682, "mz9643": 9683, "mz9644": 9684, "mz9645": 9685, "mz9646": 9686, "mz9647": 9687, "mz9648": 9688, "mz9649": 9689, "mz9650": 9690, "mz9651": 9691, "mz9652": 9692, "mz9653": 9693, "mz9654": 9694, "mz9655": 9695, "mz9656": 9696, "mz9657": 9697, "mz9658": 9698, "mz9659": 9699, "mz9660": 9700, "mz9661": 9701, "mz9662": 9702, "mz9663": 9703, "mz9664": 9704, "mz9665": 9705, "mz9666": 9706, "mz9667": 9707, "mz9668": 9708, "mz9669": 9709, "mz9670": 9710, "mz9671": 9711, "mz9672": 9712, "mz9673": 9713, "mz9674": 9714, "mz9675": 9715, "mz9676": 9716, "mz9677": 9717, "mz9678": 9718, "mz9679": 9719, "mz9680": 9720, "mz9681": 9721, "mz9682": 9722, "mz9683": 9723, "mz9684": 9724, "mz9685": 9725, "mz9686": 9726, "mz9687": 9727, "mz9688": 9728, "mz9689": 9729, "mz9690": 9730, "mz9691": 9731, "mz9692": 9732, "mz9693": 9733, "mz9694": 9734, "mz9695": 9735, "mz9696": 9736, "mz9697": 9737, "mz9698": 9738, "mz9699": 9739, "mz9700": 9740, "mz9701": 9741, "mz9702": 9742, "mz9703": 9743, "mz9704": 9744, "mz9705": 9745, "mz9706": 9746, "mz9707": 9747, "mz9708": 9748, "mz9709": 9749, "mz9710": 9750, "mz9711": 9751, "mz9712": 9752, "mz9713": 9753, "mz9714": 9754, "mz9715": 9755, "mz9716": 9756, "mz9717": 9757, "mz9718": 9758, "mz9719": 9759, "mz9720": 9760, "mz9721": 9761, "mz9722": 9762, "mz9723": 9763, "mz9724": 9764, "mz9725": 9765, "mz9726": 9766, "mz9727": 9767, "mz9728": 9768, "mz9729": 9769, "mz9730": 9770, "mz9731": 9771, "mz9732": 9772, "mz9733": 9773, "mz9734": 9774, "mz9735": 9775, "mz9736": 9776, "mz9737": 9777, "mz9738": 9778, "mz9739": 9779, "mz9740": 9780, "mz9741": 9781, "mz9742": 9782, "mz9743": 9783, "mz9744": 9784, "mz9745": 9785, "mz9746": 9786, "mz9747": 9787, "mz9748": 9788, "mz9749": 9789, "mz9750": 9790, "mz9751": 9791, "mz9752": 9792, "mz9753": 9793, "mz9754": 9794, "mz9755": 9795, "mz9756": 9796, "mz9757": 9797, "mz9758": 9798, "mz9759": 9799, "mz9760": 9800, "mz9761": 9801, "mz9762": 9802, "mz9763": 9803, "mz9764": 9804, "mz9765": 9805, "mz9766": 9806, "mz9767": 9807, "mz9768": 9808, "mz9769": 9809, "mz9770": 9810, "mz9771": 9811, "mz9772": 9812, "mz9773": 9813, "mz9774": 9814, "mz9775": 9815, "mz9776": 9816, "mz9777": 9817, "mz9778": 9818, "mz9779": 9819, "mz9780": 9820, "mz9781": 9821, "mz9782": 9822, "mz9783": 9823, "mz9784": 9824, "mz9785": 9825, "mz9786": 9826, "mz9787": 9827, "mz9788": 9828, "mz9789": 9829, "mz9790": 9830, "mz9791": 9831, "mz9792": 9832, "mz9793": 9833, "mz9794": 9834, "mz9795": 9835, "mz9796": 9836, "mz9797": 9837, "mz9798": 9838, "mz9799": 9839, "mz9800": 9840, "mz9801": 9841, "mz9802": 9842, "mz9803": 9843, "mz9804": 9844, "mz9805": 9845, "mz9806": 9846, "mz9807": 9847, "mz9808": 9848, "mz9809": 9849, "mz9810": 9850, "mz9811": 9851, "mz9812": 9852, "mz9813": 9853, "mz9814": 9854, "mz9815": 9855, "mz9816": 9856, "mz9817": 9857, "mz9818": 9858, "mz9819": 9859, "mz9820": 9860, "mz9821": 9861, "mz9822": 9862, "mz9823": 9863, "mz9824": 9864, "mz9825": 9865, "mz9826": 9866, "mz9827": 9867, "mz9828": 9868, "mz9829": 9869, "mz9830": 9870, "mz9831": 9871, "mz9832": 9872, "mz9833": 9873, "mz9834": 9874, "mz9835": 9875, "mz9836": 9876, "mz9837": 9877, "mz9838": 9878, "mz9839": 9879, "mz9840": 9880, "mz9841": 9881, "mz9842": 9882, "mz9843": 9883, "mz9844": 9884, "mz9845": 9885, "mz9846": 9886, "mz9847": 9887, "mz9848": 9888, "mz9849": 9889, "mz9850": 9890, "mz9851": 9891, "mz9852": 9892, "mz9853": 9893, "mz9854": 9894, "mz9855": 9895, "mz9856": 9896, "mz9857": 9897, "mz9858": 9898, "mz9859": 9899, "mz9860": 9900, "mz9861": 9901, "mz9862": 9902, "mz9863": 9903, "mz9864": 9904, "mz9865": 9905, "mz9866": 9906, "mz9867": 9907, "mz9868": 9908, "mz9869": 9909, "rt0": 9910, "rt1": 9911, "rt2": 9912, "rt3": 9913, "rt4": 9914, "rt5": 9915, "rt6": 9916, "rt7": 9917, "rt8": 9918, "rt9": 9919, "rt10": 9920, "rt11": 9921, "rt12": 9922, "rt13": 9923, "rt14": 9924, "rt15": 9925, "rt16": 9926, "rt17": 9927, "rt18": 9928, "rt19": 9929, "rt20": 9930, "rt21": 9931, "rt22": 9932, "rt23": 9933, "rt24": 9934, "rt25": 9935, "rt26": 9936, "rt27": 9937, "rt28": 9938, "rt29": 9939, "rt30": 9940, "rt31": 9941, "rt32": 9942, "rt33": 9943, "rt34": 9944, "rt35": 9945, "rt36": 9946, "rt37": 9947, "rt38": 9948, "rt39": 9949, "rt40": 9950, "rt41": 9951, "rt42": 9952, "rt43": 9953, "rt44": 9954, "rt45": 9955, "rt46": 9956, "rt47": 9957, "rt48": 9958, "rt49": 9959, "rt50": 9960, "rt51": 9961, "rt52": 9962, "rt53": 9963, "rt54": 9964, "rt55": 9965, "rt56": 9966, "rt57": 9967, "rt58": 9968, "rt59": 9969, "rt60": 9970, "rt61": 9971, "rt62": 9972, "rt63": 9973, "rt64": 9974, "rt65": 9975, "rt66": 9976, "rt67": 9977, "rt68": 9978, "rt69": 9979, "rt70": 9980, "rt71": 9981, "rt72": 9982, "rt73": 9983, "rt74": 9984, "rt75": 9985, "rt76": 9986, "rt77": 9987, "rt78": 9988, "rt79": 9989, "rt80": 9990, "rt81": 9991, "rt82": 9992, "rt83": 9993, "rt84": 9994, "rt85": 9995, "rt86": 9996, "rt87": 9997, "rt88": 9998, "rt89": 9999, "rt90": 10000, "rt91": 10001, "rt92": 10002, "rt93": 10003, "rt94": 10004, "rt95": 10005, "rt96": 10006, "rt97": 10007, "rt98": 10008, "rt99": 10009, "rt100": 10010, "rt101": 10011, "GalOMe": 10012, "ManOS": 10013, "Gal": 10014, "Glc": 10015, "HexNAc": 10016, "GalNAcOPCho": 10017, "Fuc": 10018, "GalNAcOMe": 10019, "GlcOS": 10020, "IdoA2S": 10021, "GlcNS6S": 10022, ".1-3": 10023, ".1-4": 10024, "IdoA": 10025, "HexA": 10026, "GalNAc": 10027, "GlcNAc6S": 10028, "GalNAc4S": 10029, "Gal6S": 10030, "Ins": 10031, "a2-.": 10032, ".1-6": 10033, "GalN": 10034, "GlcOP": 10035, "b1-3": 10036, "GalNAc6S": 10037, "GalNAcOS": 10038, "Man": 10039, "Glc-ol": 10040, "Rha": 10041, "ManOMe": 10042, "GlcNAc": 10043, "FucOS": 10044, "1-.": 10045, "a1-.": 10046, "Ara": 10047, "GlcN": 10048, "GlcN6S": 10049, "Xyl": 10050, "Man6P": 10051, "GlcNAcOS": 10052, "HexNAcOS": 10053, "b1-.": 10054, "a1-4": 10055, "GalOS": 10056, "GlcA": 10057, "Neu5Ac": 10058, "HexA2S": 10059, "Gal4S": 10060, "GlcNS3S6S": 10061, "a1-6": 10062, "a2-8": 10063, "a2-6": 10064, "a1-3": 10065, "Neu5Gc": 10066, "a2-3": 10067, "Rha3S": 10068, "Hex": 10069, "GlcNS3S": 10070, "b1-4": 10071, "b1-6": 10072, ".1-.": 10073, "b1-2": 10074, "Gal3S": 10075, "Neu5Ac8S": 10076, "Kdn": 10077, "a1-2": 10078, "GlcNS": 10079}